#ifndef MODEL_DATA_H
#define MODEL_DATA_H

#include <stdint.h>

const unsigned char model_data[] = {
  0x20, 0x00, 0x00, 0x00, 0x54, 0x46, 0x4c, 0x33, 0x00, 0x00, 0x00, 0x00, 
  0x14, 0x00, 0x20, 0x00, 0x1c, 0x00, 0x18, 0x00, 0x14, 0x00, 0x10, 0x00, 
  0x0c, 0x00, 0x00, 0x00, 0x08, 0x00, 0x04, 0x00, 0x14, 0x00, 0x00, 0x00, 
  0x1c, 0x00, 0x00, 0x00, 0x84, 0x00, 0x00, 0x00, 0xdc, 0x00, 0x00, 0x00, 
  0x6c, 0x25, 0x00, 0x00, 0x7c, 0x25, 0x00, 0x00, 0xd4, 0x49, 0x00, 0x00, 
  0x03, 0x00, 0x00, 0x00, 0x01, 0x00, 0x00, 0x00, 0x04, 0x00, 0x00, 0x00, 
  0x7a, 0xd5, 0xff, 0xff, 0x0c, 0x00, 0x00, 0x00, 0x1c, 0x00, 0x00, 0x00, 
  0x3c, 0x00, 0x00, 0x00, 0x0f, 0x00, 0x00, 0x00, 0x73, 0x65, 0x72, 0x76, 
  0x69, 0x6e, 0x67, 0x5f, 0x64, 0x65, 0x66, 0x61, 0x75, 0x6c, 0x74, 0x00, 
  0x01, 0x00, 0x00, 0x00, 0x04, 0x00, 0x00, 0x00, 0x98, 0xff, 0xff, 0xff, 
  0x2d, 0x00, 0x00, 0x00, 0x04, 0x00, 0x00, 0x00, 0x08, 0x00, 0x00, 0x00, 
  0x6f, 0x75, 0x74, 0x70, 0x75, 0x74, 0x5f, 0x30, 0x00, 0x00, 0x00, 0x00, 
  0x01, 0x00, 0x00, 0x00, 0x04, 0x00, 0x00, 0x00, 0x82, 0xd5, 0xff, 0xff, 
  0x04, 0x00, 0x00, 0x00, 0x06, 0x00, 0x00, 0x00, 0x61, 0x72, 0x67, 0x73, 
  0x5f, 0x30, 0x00, 0x00, 0x02, 0x00, 0x00, 0x00, 0x34, 0x00, 0x00, 0x00, 
  0x04, 0x00, 0x00, 0x00, 0xdc, 0xff, 0xff, 0xff, 0x30, 0x00, 0x00, 0x00, 
  0x04, 0x00, 0x00, 0x00, 0x13, 0x00, 0x00, 0x00, 0x43, 0x4f, 0x4e, 0x56, 
  0x45, 0x52, 0x53, 0x49, 0x4f, 0x4e, 0x5f, 0x4d, 0x45, 0x54, 0x41, 0x44, 
  0x41, 0x54, 0x41, 0x00, 0x08, 0x00, 0x0c, 0x00, 0x08, 0x00, 0x04, 0x00, 
  0x08, 0x00, 0x00, 0x00, 0x2f, 0x00, 0x00, 0x00, 0x04, 0x00, 0x00, 0x00, 
  0x13, 0x00, 0x00, 0x00, 0x6d, 0x69, 0x6e, 0x5f, 0x72, 0x75, 0x6e, 0x74, 
  0x69, 0x6d, 0x65, 0x5f, 0x76, 0x65, 0x72, 0x73, 0x69, 0x6f, 0x6e, 0x00, 
  0x31, 0x00, 0x00, 0x00, 0x8c, 0x24, 0x00, 0x00, 0x84, 0x24, 0x00, 0x00, 
  0x70, 0x24, 0x00, 0x00, 0x5c, 0x24, 0x00, 0x00, 0x48, 0x24, 0x00, 0x00, 
  0x34, 0x24, 0x00, 0x00, 0x14, 0x24, 0x00, 0x00, 0x84, 0x23, 0x00, 0x00, 
  0xf4, 0x22, 0x00, 0x00, 0xe4, 0x1a, 0x00, 0x00, 0xd0, 0x1a, 0x00, 0x00, 
  0xc8, 0x1a, 0x00, 0x00, 0xc0, 0x1a, 0x00, 0x00, 0xb0, 0x19, 0x00, 0x00, 
  0xa0, 0x01, 0x00, 0x00, 0x98, 0x01, 0x00, 0x00, 0x84, 0x01, 0x00, 0x00, 
  0x7c, 0x01, 0x00, 0x00, 0x74, 0x01, 0x00, 0x00, 0x6c, 0x01, 0x00, 0x00, 
  0x64, 0x01, 0x00, 0x00, 0x5c, 0x01, 0x00, 0x00, 0x54, 0x01, 0x00, 0x00, 
  0x4c, 0x01, 0x00, 0x00, 0x44, 0x01, 0x00, 0x00, 0x3c, 0x01, 0x00, 0x00, 
  0x34, 0x01, 0x00, 0x00, 0x2c, 0x01, 0x00, 0x00, 0x24, 0x01, 0x00, 0x00, 
  0x1c, 0x01, 0x00, 0x00, 0x14, 0x01, 0x00, 0x00, 0x0c, 0x01, 0x00, 0x00, 
  0x04, 0x01, 0x00, 0x00, 0xfc, 0x00, 0x00, 0x00, 0xf4, 0x00, 0x00, 0x00, 
  0xec, 0x00, 0x00, 0x00, 0xe4, 0x00, 0x00, 0x00, 0xdc, 0x00, 0x00, 0x00, 
  0xd4, 0x00, 0x00, 0x00, 0xcc, 0x00, 0x00, 0x00, 0xc4, 0x00, 0x00, 0x00, 
  0xbc, 0x00, 0x00, 0x00, 0xb4, 0x00, 0x00, 0x00, 0xac, 0x00, 0x00, 0x00, 
  0xa4, 0x00, 0x00, 0x00, 0x9c, 0x00, 0x00, 0x00, 0x94, 0x00, 0x00, 0x00, 
  0x74, 0x00, 0x00, 0x00, 0x04, 0x00, 0x00, 0x00, 0xba, 0xd6, 0xff, 0xff, 
  0x04, 0x00, 0x00, 0x00, 0x60, 0x00, 0x00, 0x00, 0x0c, 0x00, 0x00, 0x00, 
  0x08, 0x00, 0x0e, 0x00, 0x08, 0x00, 0x04, 0x00, 0x08, 0x00, 0x00, 0x00, 
  0x10, 0x00, 0x00, 0x00, 0x28, 0x00, 0x00, 0x00, 0x00, 0x00, 0x06, 0x00, 
  0x08, 0x00, 0x04, 0x00, 0x06, 0x00, 0x00, 0x00, 0x04, 0x00, 0x00, 0x00, 
  0x01, 0x00, 0x00, 0x00, 0xeb, 0x03, 0x00, 0x00, 0x0c, 0x00, 0x18, 0x00, 
  0x14, 0x00, 0x10, 0x00, 0x0c, 0x00, 0x04, 0x00, 0x0c, 0x00, 0x00, 0x00, 
  0x31, 0x7c, 0x30, 0x6b, 0x74, 0xdb, 0x7c, 0x8a, 0x02, 0x00, 0x00, 0x00, 
  0x02, 0x00, 0x00, 0x00, 0x04, 0x00, 0x00, 0x00, 0x06, 0x00, 0x00, 0x00, 
  0x32, 0x2e, 0x32, 0x31, 0x2e, 0x30, 0x00, 0x00, 0x26, 0xd7, 0xff, 0xff, 
  0x04, 0x00, 0x00, 0x00, 0x10, 0x00, 0x00, 0x00, 0x32, 0x2e, 0x35, 0x2e, 
  0x30, 0x00, 0x00, 0x00, 0x00, 0x00, 0x00, 0x00, 0x00, 0x00, 0x00, 0x00, 
  0x28, 0xb9, 0xff, 0xff, 0x2c, 0xb9, 0xff, 0xff, 0x30, 0xb9, 0xff, 0xff, 
  0x34, 0xb9, 0xff, 0xff, 0x38, 0xb9, 0xff, 0xff, 0x3c, 0xb9, 0xff, 0xff, 
  0x40, 0xb9, 0xff, 0xff, 0x44, 0xb9, 0xff, 0xff, 0x48, 0xb9, 0xff, 0xff, 
  0x4c, 0xb9, 0xff, 0xff, 0x50, 0xb9, 0xff, 0xff, 0x54, 0xb9, 0xff, 0xff, 
  0x58, 0xb9, 0xff, 0xff, 0x5c, 0xb9, 0xff, 0xff, 0x60, 0xb9, 0xff, 0xff, 
  0x64, 0xb9, 0xff, 0xff, 0x68, 0xb9, 0xff, 0xff, 0x6c, 0xb9, 0xff, 0xff, 
  0x70, 0xb9, 0xff, 0xff, 0x74, 0xb9, 0xff, 0xff, 0x78, 0xb9, 0xff, 0xff, 
  0x7c, 0xb9, 0xff, 0xff, 0x80, 0xb9, 0xff, 0xff, 0x84, 0xb9, 0xff, 0xff, 
  0x88, 0xb9, 0xff, 0xff, 0x8c, 0xb9, 0xff, 0xff, 0x90, 0xb9, 0xff, 0xff, 
  0x94, 0xb9, 0xff, 0xff, 0x98, 0xb9, 0xff, 0xff, 0x9c, 0xb9, 0xff, 0xff, 
  0xba, 0xd7, 0xff, 0xff, 0x04, 0x00, 0x00, 0x00, 0x01, 0x00, 0x00, 0x00, 
  0x00, 0x00, 0x00, 0x00, 0xb0, 0xb9, 0xff, 0xff, 0xce, 0xd7, 0xff, 0xff, 
  0x04, 0x00, 0x00, 0x00, 0x00, 0x18, 0x00, 0x00, 0x2b, 0x54, 0xd5, 0x54, 
  0x5f, 0x50, 0xc4, 0xaf, 0xa6, 0xcd, 0xfb, 0x81, 0xf4, 0xe7, 0xb0, 0xc4, 
  0xd0, 0x24, 0x14, 0x0b, 0x32, 0x1d, 0x27, 0xed, 0x06, 0x84, 0xc6, 0x87, 
  0xe9, 0xc0, 0xbc, 0xd0, 0xb6, 0xd0, 0xe3, 0xf4, 0xe4, 0xf6, 0x22, 0xb4, 
  0xf3, 0xf7, 0x66, 0xfd, 0xef, 0x40, 0x4f, 0x3f, 0x04, 0x98, 0x88, 0xbf, 
  0xf8, 0xce, 0xf6, 0xdc, 0xf8, 0x73, 0xec, 0x5b, 0x14, 0x36, 0x4c, 0x14, 
  0x4b, 0x79, 0x28, 0xee, 0x29, 0xf1, 0xf1, 0x12, 0xc8, 0xd8, 0x0e, 0xcf, 
  0xbf, 0xf7, 0xf8, 0x96, 0xe8, 0xb1, 0x2a, 0xf0, 0x0e, 0xf1, 0x65, 0xf4, 
  0x34, 0x65, 0x30, 0x5a, 0xe9, 0x43, 0xf5, 0x0e, 0x61, 0x3f, 0x41, 0x60, 
  0xf9, 0x45, 0x1e, 0x7c, 0x6d, 0x6f, 0x28, 0x22, 0x56, 0x7f, 0x6b, 0x0a, 
  0x47, 0x0d, 0xe8, 0xbd, 0x16, 0xfe, 0x3c, 0xf1, 0x12, 0x47, 0x16, 0x50, 
  0x4e, 0x39, 0x47, 0x10, 0xec, 0x3b, 0x10, 0x09, 0xae, 0xd1, 0xe5, 0x62, 
  0x03, 0x16, 0xf6, 0xf4, 0x0a, 0xdb, 0xa4, 0x0c, 0xdf, 0x41, 0x34, 0xe8, 
  0x0b, 0x4a, 0x2c, 0x39, 0x14, 0x15, 0xe0, 0xf1, 0x1e, 0x42, 0xfd, 0x11, 
  0x07, 0xc8, 0xc2, 0xf2, 0x2a, 0x16, 0x10, 0xe8, 0x1e, 0xe4, 0x35, 0x1b, 
  0x2c, 0x08, 0x04, 0xf8, 0xd3, 0xb8, 0xd5, 0xfd, 0xe4, 0xa4, 0x89, 0xc3, 
  0x1b, 0x9d, 0xc0, 0xd6, 0xec, 0x29, 0x05, 0x0d, 0x46, 0xef, 0xef, 0x58, 
  0x37, 0x33, 0x6d, 0x2d, 0x32, 0xff, 0x5c, 0x0d, 0x40, 0xd0, 0x9b, 0x81, 
  0xb3, 0xca, 0x06, 0xc4, 0xa1, 0xd5, 0xa8, 0x43, 0xe9, 0x2c, 0x0e, 0xd3, 
  0x0a, 0x6b, 0x6f, 0x58, 0x54, 0xfa, 0xcb, 0x02, 0x63, 0x56, 0xe8, 0xf7, 
  0xd4, 0xee, 0xd2, 0xcd, 0x99, 0xbb, 0xc6, 0xb7, 0xf8, 0xa4, 0x0f, 0x60, 
  0x1e, 0x06, 0xdf, 0xf2, 0x31, 0x6a, 0x17, 0x33, 0xb1, 0xba, 0x0b, 0x10, 
  0xea, 0xca, 0xec, 0x5b, 0x0d, 0x18, 0xcb, 0x3d, 0x2c, 0x05, 0xc1, 0x03, 
  0xda, 0xe6, 0x11, 0x9f, 0xc0, 0xc4, 0xb1, 0xa5, 0xb3, 0xeb, 0xd7, 0x94, 
  0x81, 0xa7, 0xc7, 0xd3, 0xce, 0x01, 0x08, 0xd0, 0x0a, 0x4f, 0x76, 0x33, 
  0x10, 0xdd, 0xd2, 0x1d, 0x30, 0x34, 0x21, 0xcd, 0xbe, 0x6a, 0x42, 0x45, 
  0x57, 0x14, 0xb2, 0x38, 0x2b, 0x1f, 0x62, 0x0e, 0xbf, 0x02, 0x25, 0x30, 
  0x28, 0x20, 0x0f, 0xd4, 0xd2, 0x61, 0x6b, 0xc7, 0xde, 0x1c, 0x56, 0x3d, 
  0x4e, 0x9d, 0xf3, 0x7a, 0x4d, 0x43, 0xa0, 0xe9, 0x50, 0x5d, 0x7f, 0xfe, 
  0xbb, 0xed, 0x1e, 0x13, 0x3f, 0x1f, 0x17, 0x2a, 0x2b, 0x5f, 0xfa, 0x32, 
  0xdb, 0x67, 0x55, 0x1e, 0xc8, 0x39, 0x2d, 0xe6, 0xad, 0xe2, 0x73, 0x69, 
  0xb9, 0x10, 0x44, 0x3f, 0xdf, 0xbe, 0x02, 0x08, 0x04, 0x14, 0xe6, 0x56, 
  0x3a, 0x0f, 0xed, 0xcb, 0x30, 0x12, 0x1d, 0xec, 0x0a, 0xe8, 0x28, 0x2b, 
  0x0c, 0x4f, 0x11, 0x4a, 0x32, 0x3f, 0x5f, 0x1c, 0x0e, 0x0f, 0xe5, 0xb9, 
  0xb8, 0x07, 0xb9, 0xf3, 0xb8, 0x8a, 0xcd, 0x9a, 0xbd, 0xf0, 0x0b, 0xd8, 
  0xf8, 0xf4, 0xf1, 0x1e, 0x1c, 0xbf, 0xc9, 0xd4, 0x06, 0x10, 0x00, 0xf5, 
  0x34, 0x15, 0x0a, 0xe7, 0xe1, 0xcf, 0x1e, 0xde, 0xdf, 0xf3, 0x07, 0x0c, 
  0x36, 0x30, 0x03, 0xd8, 0xec, 0xed, 0x02, 0x08, 0xe9, 0xfb, 0x3b, 0xe6, 
  0x50, 0x37, 0x30, 0x2a, 0x28, 0x3a, 0x68, 0x30, 0x3b, 0x41, 0x2e, 0x20, 
  0x53, 0x50, 0x4f, 0x0e, 0x1b, 0xf1, 0xeb, 0xdf, 0xcf, 0xb1, 0xd1, 0xcd, 
  0x9a, 0x81, 0xdb, 0xb2, 0x94, 0x9a, 0x96, 0xaf, 0xdf, 0xdd, 0xf2, 0x9e, 
  0xc1, 0xc9, 0xc4, 0xc5, 0x9e, 0x97, 0x9e, 0xc0, 0xd0, 0xa5, 0x99, 0xb7, 
  0xc4, 0xbb, 0xe2, 0x9d, 0x81, 0xa1, 0xba, 0xb0, 0xf5, 0xc8, 0xae, 0xbd, 
  0xba, 0xd2, 0xef, 0x03, 0xed, 0xbc, 0xc6, 0x0b, 0xf3, 0xd0, 0xd9, 0xea, 
  0xf5, 0xec, 0xdc, 0xf7, 0xef, 0x17, 0xfd, 0x38, 0xf8, 0x27, 0x10, 0xf5, 
  0x48, 0x1a, 0xdb, 0xbd, 0xfb, 0xc2, 0xef, 0xc2, 0xbc, 0xd4, 0x06, 0x07, 
  0x17, 0xd0, 0xd5, 0x30, 0x02, 0xf4, 0xf7, 0x08, 0x38, 0x40, 0x07, 0xf6, 
  0x1c, 0x28, 0xf1, 0x25, 0xe6, 0x2d, 0x2d, 0x0e, 0xeb, 0xf9, 0x35, 0xe0, 
  0xef, 0xcf, 0xda, 0xce, 0xd3, 0xe2, 0xe4, 0x01, 0x2c, 0x1e, 0x63, 0x0a, 
  0x7c, 0x52, 0x2d, 0xf2, 0x1f, 0x9b, 0xe5, 0x96, 0xdd, 0xde, 0xee, 0xf6, 
  0xe5, 0x61, 0x2d, 0x3a, 0x5c, 0x34, 0xe1, 0xff, 0x08, 0x81, 0x88, 0xf7, 
  0x9e, 0xbe, 0x97, 0x20, 0xee, 0x22, 0x34, 0x4a, 0x08, 0x14, 0x22, 0xd6, 
  0xd9, 0xbf, 0xf1, 0xe1, 0x5d, 0x31, 0x37, 0x3e, 0xbb, 0x81, 0xb2, 0xc8, 
  0xea, 0xb2, 0xfe, 0x1f, 0x11, 0x17, 0x17, 0xfb, 0xa1, 0xc5, 0xef, 0xf5, 
  0xf0, 0x19, 0x27, 0xf1, 0xfd, 0x0f, 0x08, 0x1c, 0xd0, 0xa9, 0x05, 0x92, 
  0xb8, 0xaa, 0xa1, 0xc9, 0xa2, 0xee, 0x16, 0x03, 0x64, 0x25, 0x4a, 0x56, 
  0x58, 0x38, 0x03, 0x0b, 0xf0, 0xf1, 0xe9, 0xd7, 0x27, 0x1e, 0x53, 0x5b, 
  0xfc, 0xf9, 0x46, 0xf1, 0xf5, 0x11, 0xbb, 0x94, 0xb0, 0x08, 0xaf, 0xd5, 
  0x1b, 0x06, 0x58, 0x4f, 0x14, 0x2e, 0x11, 0xf5, 0x9a, 0xac, 0x81, 0x92, 
  0xd2, 0x93, 0xcf, 0xca, 0x1f, 0xec, 0x2b, 0x43, 0xef, 0x25, 0xe4, 0x29, 
  0xe6, 0xc8, 0x38, 0x10, 0x1b, 0x18, 0x54, 0xef, 0xcc, 0x00, 0x9b, 0x9b, 
  0xa9, 0xb3, 0x2e, 0x59, 0x64, 0x02, 0x20, 0xf2, 0xfc, 0xda, 0x05, 0xc0, 
  0x16, 0x24, 0x2f, 0x39, 0x35, 0x1e, 0x4c, 0x6d, 0x07, 0x54, 0x44, 0xc3, 
  0x1d, 0x25, 0x2a, 0xff, 0x26, 0xf2, 0xfb, 0x00, 0x07, 0x4b, 0x5f, 0x04, 
  0x0a, 0x2d, 0xd4, 0x05, 0xb9, 0xa3, 0xee, 0xaa, 0xeb, 0x00, 0xf9, 0xd2, 
  0x02, 0x1d, 0xb3, 0xd3, 0xae, 0x83, 0xbd, 0xb7, 0xd7, 0xac, 0xc7, 0xbe, 
  0xe4, 0xbb, 0xd1, 0xc6, 0xe7, 0x15, 0xe5, 0xf2, 0x9c, 0xe4, 0x81, 0xb9, 
  0xae, 0xd4, 0x06, 0xc7, 0xfe, 0xf7, 0xe1, 0x40, 0x10, 0x0a, 0x14, 0xdb, 
  0xf7, 0xce, 0xfe, 0x48, 0x3b, 0x63, 0x38, 0xeb, 0xe6, 0x13, 0xca, 0xe0, 
  0xf1, 0x08, 0xff, 0xef, 0x21, 0x26, 0xe2, 0x0c, 0xfd, 0x8d, 0xf2, 0x11, 
  0x49, 0x48, 0xef, 0x44, 0x57, 0x26, 0x2b, 0x20, 0xfe, 0x2a, 0xef, 0xd7, 
  0xe8, 0xba, 0x01, 0xfe, 0xef, 0xd0, 0x39, 0x40, 0x3d, 0x26, 0x03, 0x61, 
  0x38, 0x44, 0xeb, 0xe3, 0x2b, 0xe0, 0xdf, 0xb1, 0xec, 0x18, 0xd5, 0xb5, 
  0xc0, 0xe5, 0x0a, 0x50, 0x1e, 0x21, 0x60, 0x7f, 0x1e, 0x6e, 0x44, 0x3e, 
  0x23, 0x49, 0x22, 0x49, 0xf2, 0x0e, 0x58, 0x54, 0x01, 0x08, 0xec, 0xf5, 
  0xf8, 0xc9, 0xe4, 0xd9, 0x1d, 0xdf, 0xf7, 0x1f, 0xad, 0xb7, 0xed, 0xb3, 
  0xd5, 0xe2, 0x03, 0x29, 0xe1, 0xf1, 0x0c, 0x47, 0x42, 0xe9, 0xfa, 0xf3, 
  0xf3, 0x3d, 0x1b, 0xd0, 0xb4, 0xf8, 0x16, 0xc4, 0x16, 0x03, 0xe8, 0x2a, 
  0xd4, 0xa6, 0xb4, 0xcf, 0x0d, 0x06, 0xdd, 0x28, 0x00, 0x29, 0x3f, 0x3a, 
  0x0d, 0x30, 0xda, 0xfc, 0x0e, 0x3a, 0xed, 0x1f, 0x01, 0x37, 0xd3, 0xd5, 
  0x05, 0xee, 0xf3, 0x2c, 0xdb, 0xcd, 0xf1, 0xe5, 0xf8, 0xa3, 0xff, 0xb6, 
  0x9d, 0xa9, 0xe6, 0xe6, 0xd0, 0xf7, 0x1a, 0x50, 0x56, 0x4f, 0x1d, 0x16, 
  0x54, 0x15, 0x3c, 0x40, 0x50, 0x19, 0x65, 0x6d, 0x0e, 0x7f, 0x45, 0xfd, 
  0x48, 0x66, 0x5e, 0x0b, 0x5a, 0xda, 0xe8, 0xcb, 0x14, 0xde, 0xad, 0xa2, 
  0xdf, 0xbf, 0x97, 0xd9, 0xc2, 0xd7, 0xbf, 0x2f, 0x1b, 0x05, 0x5e, 0x65, 
  0x66, 0x07, 0xf8, 0x15, 0xbf, 0x1f, 0xe7, 0xa4, 0xd0, 0xdf, 0xbc, 0xe8, 
  0xc7, 0x0a, 0xbe, 0xea, 0xdd, 0xca, 0xc2, 0x37, 0x00, 0x3d, 0xbf, 0x10, 
  0xdd, 0xd9, 0x2b, 0xf6, 0x07, 0xcb, 0xc7, 0x02, 0xe0, 0xfe, 0xd3, 0xe3, 
  0xd2, 0xa7, 0xef, 0x27, 0xe2, 0xce, 0xc6, 0x32, 0xbe, 0xe3, 0xfe, 0xfd, 
  0x37, 0x21, 0x13, 0xa6, 0xd4, 0xc7, 0xb4, 0xb2, 0xc1, 0xc4, 0xe4, 0xd3, 
  0xa2, 0x23, 0x0b, 0x1e, 0xf1, 0xab, 0xac, 0xc2, 0xb4, 0xae, 0x81, 0xe3, 
  0xae, 0xcc, 0xec, 0xfd, 0x2f, 0xab, 0x0c, 0x3e, 0x4e, 0x24, 0x8d, 0xd9, 
  0x97, 0xfa, 0x0b, 0xe7, 0x0a, 0x1c, 0x18, 0xf1, 0x2d, 0xf1, 0x9f, 0x0e, 
  0xd7, 0xdf, 0xc8, 0xbc, 0xe1, 0x42, 0x3b, 0xb8, 0x9e, 0xb2, 0x1c, 0xd0, 
  0x48, 0x1e, 0x3f, 0x19, 0xf0, 0xdd, 0xd8, 0x18, 0x55, 0x27, 0xd6, 0xe1, 
  0xc8, 0xcd, 0xd3, 0x14, 0x15, 0xfc, 0x1b, 0x20, 0x3e, 0x01, 0x0f, 0x05, 
  0xed, 0x40, 0x41, 0x48, 0xf0, 0xd1, 0x14, 0xd0, 0x49, 0x2f, 0x4a, 0x25, 
  0xa3, 0xc8, 0xeb, 0x10, 0xdf, 0xb1, 0xb6, 0xea, 0xa7, 0xe8, 0xab, 0x50, 
  0x38, 0x13, 0xa4, 0x08, 0xf2, 0x06, 0xdf, 0x81, 0x9b, 0xf2, 0x14, 0x06, 
  0xbd, 0x12, 0xa3, 0xae, 0x13, 0x0a, 0x62, 0xe4, 0x31, 0x70, 0xf3, 0x10, 
  0xe4, 0xb5, 0xd0, 0xfc, 0x74, 0x69, 0x65, 0x37, 0x44, 0x2b, 0x8b, 0xa5, 
  0xd0, 0xbd, 0x5c, 0x15, 0xe9, 0x43, 0x5b, 0x45, 0xf5, 0xca, 0x38, 0x4a, 
  0x41, 0xea, 0xda, 0xf7, 0x3e, 0x10, 0x35, 0x10, 0xe6, 0xdb, 0x3d, 0x3f, 
  0x9a, 0x1e, 0x20, 0x18, 0x4f, 0xe1, 0x5e, 0x0b, 0x70, 0xf3, 0xfb, 0xfc, 
  0xff, 0xe6, 0xc3, 0x47, 0x09, 0x03, 0xf1, 0x1a, 0x2a, 0x10, 0x19, 0xf2, 
  0xc3, 0xa2, 0xf1, 0x07, 0x24, 0x52, 0x05, 0xed, 0xb8, 0x34, 0x4b, 0x07, 
  0xf6, 0xc0, 0xbe, 0xfa, 0x38, 0x25, 0x2f, 0x0e, 0x9a, 0xdf, 0x65, 0x72, 
  0x41, 0x36, 0xb0, 0xbd, 0x28, 0x15, 0x5e, 0xbd, 0xc6, 0x11, 0x44, 0x35, 
  0x4d, 0x06, 0xb8, 0x1a, 0x28, 0x05, 0xc3, 0xff, 0x08, 0x7f, 0x60, 0x05, 
  0xf6, 0x1d, 0x53, 0x5f, 0xc1, 0xb6, 0x9b, 0x53, 0x64, 0x61, 0x05, 0xce, 
  0xff, 0x39, 0x1b, 0xb7, 0x06, 0xf7, 0x67, 0xe6, 0xf3, 0x11, 0x6e, 0x1f, 
  0x24, 0xed, 0x11, 0x4c, 0xf2, 0xa7, 0xde, 0x23, 0x4a, 0xac, 0xdc, 0x11, 
  0x43, 0xe1, 0xf8, 0xde, 0x0a, 0x68, 0x24, 0x0f, 0xdd, 0x25, 0x12, 0x43, 
  0x0b, 0x57, 0x09, 0x0c, 0xc0, 0xca, 0xad, 0x07, 0xcb, 0xdd, 0xcd, 0xc8, 
  0xf6, 0xf4, 0x4d, 0x46, 0x09, 0x08, 0x24, 0xe3, 0xe0, 0xaf, 0xa7, 0x81, 
  0xc2, 0x95, 0xe2, 0x27, 0x0f, 0xca, 0x17, 0x50, 0xff, 0x44, 0xeb, 0xf6, 
  0xab, 0xdd, 0xd6, 0x1a, 0x52, 0xf4, 0x46, 0x49, 0x02, 0x95, 0xee, 0xc4, 
  0x01, 0x0a, 0xcc, 0x3b, 0x3a, 0xf6, 0x3b, 0xcf, 0xb1, 0x12, 0xdb, 0x05, 
  0x0f, 0x3d, 0x39, 0x07, 0x45, 0x4e, 0xf0, 0x00, 0x02, 0xf6, 0xaf, 0xcb, 
  0xcc, 0xad, 0xab, 0xe5, 0xf2, 0xdb, 0x0e, 0xd5, 0x4a, 0x55, 0x48, 0x33, 
  0x4d, 0x5f, 0x3d, 0x1c, 0x15, 0xe6, 0xdf, 0xd6, 0x34, 0xe7, 0x32, 0xed, 
  0x66, 0xff, 0x3d, 0xf9, 0xe3, 0x02, 0xbf, 0xc9, 0xd3, 0x08, 0xac, 0xbb, 
  0xcf, 0x24, 0x3d, 0x27, 0xe5, 0xdc, 0xf6, 0x23, 0xc7, 0x01, 0xc2, 0x81, 
  0xd6, 0xb3, 0xb9, 0x1b, 0xb0, 0xf7, 0x16, 0x17, 0x34, 0x24, 0xad, 0x12, 
  0xf5, 0x11, 0xd7, 0x47, 0x58, 0xea, 0x38, 0x34, 0x03, 0xea, 0x88, 0xea, 
  0xd5, 0xc7, 0xd3, 0x34, 0x4f, 0x2d, 0x0d, 0x0b, 0xfc, 0xdd, 0x28, 0xc9, 
  0x59, 0xf5, 0x26, 0x21, 0x33, 0xe9, 0x02, 0xec, 0x2a, 0xe1, 0xf3, 0xdc, 
  0xa2, 0xbe, 0xd1, 0x09, 0xc8, 0xce, 0xf4, 0x48, 0xf2, 0x6f, 0xfb, 0x4f, 
  0x52, 0x65, 0x42, 0x31, 0x3b, 0xef, 0x08, 0x19, 0x01, 0xcb, 0xf9, 0x06, 
  0x2f, 0x01, 0x46, 0x21, 0x82, 0xe0, 0xad, 0x04, 0x8f, 0xf3, 0xe8, 0xd6, 
  0xfc, 0x5f, 0x39, 0x2d, 0xf4, 0x3f, 0xfb, 0xab, 0xbc, 0x86, 0xe4, 0x97, 
  0xfa, 0xd8, 0xba, 0xcf, 0x0c, 0x27, 0x14, 0x27, 0x54, 0x5a, 0xaf, 0x87, 
  0xc7, 0xaa, 0x26, 0xd3, 0x0a, 0xf4, 0x59, 0x2a, 0xf9, 0xbf, 0x81, 0xeb, 
  0x18, 0xf2, 0x20, 0x58, 0x41, 0x2a, 0x1c, 0x34, 0xa4, 0xcf, 0x21, 0xdd, 
  0x1a, 0x24, 0x53, 0x5b, 0x13, 0x12, 0x24, 0xfd, 0x48, 0xcf, 0x00, 0xcd, 
  0xb0, 0x06, 0xd2, 0xca, 0xa9, 0xe1, 0x3c, 0xed, 0x2e, 0x71, 0x78, 0x5b, 
  0x58, 0x1a, 0x47, 0x0d, 0xe9, 0xde, 0xb7, 0xe0, 0x0d, 0x32, 0x2f, 0x11, 
  0xf7, 0x06, 0x1b, 0x04, 0x23, 0x33, 0x47, 0x0c, 0xf4, 0x15, 0x58, 0x4f, 
  0x54, 0x1e, 0x19, 0x5e, 0x45, 0x72, 0x2d, 0x6f, 0x28, 0x5d, 0x63, 0x68, 
  0x7f, 0x72, 0x13, 0x4f, 0x4e, 0x20, 0x20, 0x09, 0xf6, 0x0a, 0x26, 0x39, 
  0xe6, 0xd8, 0xdd, 0x15, 0xd9, 0xc9, 0xda, 0xf8, 0x3d, 0x38, 0x5f, 0x1c, 
  0x24, 0x2b, 0x24, 0x22, 0x3b, 0x1a, 0xe7, 0xec, 0x25, 0x1c, 0xb7, 0xeb, 
  0x04, 0x09, 0x3d, 0xf8, 0x09, 0xec, 0x4e, 0x27, 0xdf, 0xf0, 0x48, 0x0d, 
  0xd8, 0x08, 0x24, 0x52, 0xe5, 0xcc, 0x20, 0x0a, 0x1d, 0xc7, 0x0a, 0xf3, 
  0x02, 0xf7, 0xd9, 0xde, 0x21, 0x31, 0xf8, 0xc8, 0x05, 0xf7, 0x6c, 0x40, 
  0x73, 0x7f, 0x37, 0x28, 0xd4, 0x94, 0xb0, 0xc7, 0xdb, 0xec, 0xc4, 0xe0, 
  0x4c, 0x66, 0x1c, 0x63, 0x58, 0x5a, 0x50, 0xfa, 0x09, 0xef, 0xcc, 0xfd, 
  0xdb, 0xd4, 0xc7, 0xc2, 0xc1, 0xcb, 0x35, 0x4d, 0x05, 0x65, 0x02, 0x0a, 
  0xfe, 0x2f, 0x02, 0x65, 0x3a, 0x20, 0x60, 0xdc, 0xb8, 0xf2, 0xf6, 0xc5, 
  0x8d, 0x9b, 0xa9, 0x4e, 0x23, 0x08, 0x4e, 0x49, 0xd6, 0xf1, 0x45, 0x0e, 
  0x38, 0x2d, 0xfa, 0x70, 0x7b, 0x08, 0xd3, 0xbf, 0xf9, 0x0d, 0x8e, 0xba, 
  0x8d, 0xa4, 0x0f, 0xa8, 0xfa, 0xb1, 0xe4, 0xfd, 0x39, 0x22, 0x34, 0x41, 
  0x13, 0x07, 0x38, 0x3a, 0xfc, 0x47, 0xdb, 0xc7, 0x2f, 0xe2, 0x33, 0x09, 
  0x0b, 0xfd, 0x21, 0xbd, 0xb1, 0xea, 0xbc, 0xf1, 0x8f, 0xd0, 0x04, 0xda, 
  0xc9, 0x16, 0x4c, 0x46, 0x06, 0x34, 0x20, 0xcf, 0xd7, 0xff, 0x84, 0xae, 
  0x83, 0xe3, 0xdb, 0xcc, 0xb8, 0xc2, 0xf5, 0x62, 0x09, 0xf4, 0xce, 0xc9, 
  0x0e, 0xed, 0x08, 0xd4, 0x37, 0x3e, 0x15, 0x31, 0xbe, 0xfd, 0x04, 0xae, 
  0xc5, 0xce, 0xb0, 0xf4, 0x27, 0x49, 0x59, 0xfc, 0xd2, 0xa0, 0x25, 0xdf, 
  0x1b, 0x6e, 0x37, 0x7f, 0x1c, 0xea, 0x33, 0x33, 0x3e, 0x1b, 0x03, 0xa9, 
  0xde, 0x91, 0x9e, 0xc1, 0xe8, 0xc5, 0xbe, 0xf7, 0xe4, 0x48, 0x27, 0x45, 
  0x49, 0xfb, 0x18, 0xeb, 0xd3, 0xad, 0x0a, 0x1e, 0xd2, 0xe7, 0xef, 0xf6, 
  0x19, 0xff, 0x2f, 0xcc, 0x1d, 0xfa, 0xc6, 0xc6, 0xc0, 0xf6, 0x9c, 0xb8, 
  0x5c, 0x6f, 0x35, 0x02, 0xfc, 0x11, 0xf3, 0x1b, 0x65, 0xc0, 0xf1, 0x9f, 
  0x07, 0xf9, 0xe2, 0xd4, 0xb4, 0xb5, 0x02, 0x6e, 0x7f, 0x19, 0x2c, 0xc0, 
  0x34, 0x1e, 0x58, 0xf4, 0x46, 0x19, 0x43, 0x12, 0xe6, 0x85, 0xbc, 0xe5, 
  0x9c, 0x9d, 0xdd, 0xc8, 0x3e, 0x1d, 0x41, 0xc2, 0xff, 0xb4, 0x02, 0x5f, 
  0x11, 0x27, 0x05, 0x30, 0xe8, 0x18, 0x20, 0xb9, 0xe2, 0xd0, 0xd9, 0x96, 
  0xdd, 0xcc, 0x86, 0x95, 0x0f, 0xc1, 0xdf, 0xc3, 0x08, 0x1b, 0x5b, 0x48, 
  0xf4, 0x64, 0x15, 0x2b, 0x3d, 0x49, 0xe9, 0xdd, 0x22, 0x0f, 0x42, 0x37, 
  0x37, 0x24, 0x3e, 0x5b, 0x4f, 0x69, 0x00, 0xf9, 0xfe, 0x22, 0x65, 0x7f, 
  0x0d, 0xcc, 0x21, 0x28, 0x56, 0x16, 0x10, 0x17, 0xd0, 0x53, 0x38, 0x29, 
  0x05, 0xf6, 0xf1, 0xe6, 0xea, 0x1f, 0xfe, 0x1f, 0xf0, 0x0d, 0x76, 0x78, 
  0xfc, 0x05, 0x03, 0x27, 0x19, 0x03, 0xc9, 0x95, 0x30, 0x50, 0x26, 0xcf, 
  0x01, 0xd9, 0x25, 0x4d, 0x10, 0xef, 0x1e, 0x3e, 0x29, 0x47, 0x14, 0xfa, 
  0x0f, 0x1d, 0xfd, 0xad, 0xe2, 0xc3, 0xe0, 0xb6, 0xfb, 0xc4, 0x5c, 0x01, 
  0xc9, 0xf5, 0xf9, 0x3a, 0x3c, 0xda, 0xde, 0x30, 0xd4, 0x02, 0xc4, 0x05, 
  0x0b, 0xf5, 0x12, 0xd1, 0x22, 0x0c, 0x3c, 0xf2, 0x05, 0x12, 0x48, 0x3c, 
  0x20, 0x17, 0x4e, 0x3a, 0x71, 0x36, 0x59, 0x36, 0x3d, 0x5c, 0x4e, 0x1d, 
  0x7d, 0x7a, 0x34, 0x68, 0x6d, 0x7f, 0x5b, 0x07, 0x00, 0xe2, 0xcb, 0xd2, 
  0xf0, 0xce, 0xf2, 0xdc, 0xfd, 0x15, 0x2b, 0x29, 0xfd, 0x31, 0xf5, 0xd4, 
  0xe7, 0xbf, 0x22, 0xe8, 0x43, 0x4c, 0x07, 0x17, 0x22, 0x0a, 0xea, 0xf9, 
  0x00, 0x2e, 0x03, 0x43, 0xe9, 0xdf, 0xe3, 0xeb, 0xca, 0xd7, 0xba, 0xf0, 
  0x2b, 0x04, 0xf9, 0x2c, 0x52, 0x01, 0x1f, 0x0b, 0xf2, 0xda, 0x0c, 0xe8, 
  0x1f, 0xd6, 0xfc, 0xeb, 0xe5, 0xed, 0xe6, 0xe0, 0x19, 0x2a, 0xfd, 0x2b, 
  0x0c, 0x39, 0x01, 0x38, 0x2e, 0xe0, 0xcf, 0xfa, 0xf1, 0x4a, 0x5a, 0xd9, 
  0xca, 0xee, 0x07, 0x55, 0x1f, 0x2a, 0xf7, 0x1e, 0x0a, 0x06, 0x78, 0x3b, 
  0x0c, 0xf7, 0x01, 0x2f, 0x5b, 0x56, 0x1c, 0x2e, 0xf1, 0x30, 0x4b, 0x7f, 
  0x2c, 0xe3, 0x08, 0xdf, 0x10, 0x0d, 0x48, 0xca, 0xb0, 0xa1, 0x4a, 0x22, 
  0xe3, 0xfc, 0xd0, 0x37, 0x49, 0xf8, 0xdc, 0xc1, 0x46, 0x58, 0x2d, 0x31, 
  0xc3, 0x41, 0xf8, 0x4c, 0x06, 0x98, 0xb3, 0x3a, 0xfe, 0x35, 0x21, 0xee, 
  0xcf, 0x12, 0x11, 0xd0, 0xe5, 0x24, 0x48, 0x2d, 0x08, 0x19, 0x44, 0x0f, 
  0xee, 0x1d, 0x3a, 0x2b, 0x08, 0xb0, 0x22, 0x38, 0xfe, 0xd3, 0xdc, 0xc7, 
  0x0f, 0x25, 0xbd, 0xc9, 0x2f, 0x4f, 0x02, 0xfd, 0xf4, 0x61, 0x67, 0x11, 
  0xdd, 0xe4, 0x4b, 0x1d, 0x59, 0x76, 0x13, 0x5a, 0x73, 0x46, 0xf8, 0x0b, 
  0x2b, 0x11, 0xa2, 0xe5, 0xa6, 0xc4, 0xa7, 0xbb, 0xd6, 0xd2, 0x40, 0x22, 
  0x53, 0x3c, 0x19, 0x31, 0x03, 0xe2, 0xbd, 0xe5, 0xdb, 0xc4, 0x14, 0x54, 
  0xfe, 0x23, 0x1a, 0x25, 0xdc, 0x14, 0x32, 0xff, 0xd4, 0x4c, 0x58, 0x41, 
  0x0c, 0xd3, 0x33, 0x19, 0xe3, 0xc2, 0x0c, 0x2c, 0x51, 0x3e, 0x23, 0x3e, 
  0xdd, 0x03, 0x0f, 0xf3, 0x55, 0x0d, 0x64, 0x4a, 0x3d, 0x32, 0x6a, 0x0e, 
  0x62, 0x50, 0x44, 0xe7, 0x0f, 0xf3, 0xb9, 0x3b, 0x1b, 0x97, 0xc6, 0xe4, 
  0xbc, 0x81, 0xbb, 0xc2, 0x8e, 0xa4, 0xdd, 0xcf, 0x05, 0xbc, 0x31, 0xe4, 
  0x25, 0xc9, 0x02, 0xdf, 0x7c, 0x17, 0x7a, 0x16, 0x34, 0x02, 0x66, 0x0d, 
  0xd7, 0x00, 0x3b, 0x02, 0xb1, 0x11, 0xe6, 0xaf, 0x97, 0x0f, 0x97, 0x1a, 
  0xea, 0xd5, 0xaf, 0xaf, 0xf2, 0x0f, 0x04, 0xde, 0x26, 0x2e, 0x21, 0x3b, 
  0x2e, 0x14, 0x5a, 0x54, 0x5b, 0x52, 0xb3, 0xd8, 0xd9, 0xfa, 0x37, 0xe7, 
  0x07, 0x9a, 0xe4, 0xd9, 0xf4, 0x01, 0x2d, 0x48, 0xf7, 0x39, 0x4b, 0x71, 
  0xcf, 0x1d, 0xef, 0xda, 0xee, 0x26, 0x3b, 0xd4, 0xe7, 0x4a, 0x0d, 0x75, 
  0x2e, 0xe1, 0x14, 0x7f, 0x3d, 0xdd, 0xf2, 0xda, 0xd8, 0xfe, 0x0e, 0xc0, 
  0xf9, 0xd9, 0xbd, 0xfd, 0xd3, 0x27, 0xcf, 0xfc, 0xd4, 0xe8, 0x63, 0x3d, 
  0x3f, 0x4c, 0x2c, 0x1d, 0x8f, 0x90, 0xf3, 0x98, 0xb4, 0xf6, 0xf0, 0x06, 
  0xf2, 0xe4, 0x5c, 0x38, 0x0a, 0xf4, 0x13, 0xb8, 0xda, 0xc1, 0x87, 0x84, 
  0xa2, 0x07, 0x87, 0x02, 0xe2, 0x4b, 0x66, 0x23, 0x2c, 0x74, 0xc3, 0x35, 
  0x06, 0xa8, 0xeb, 0x21, 0x48, 0x4a, 0x09, 0xe9, 0x2b, 0xb1, 0xfd, 0x84, 
  0x0c, 0xc6, 0xd9, 0x13, 0x11, 0x24, 0x25, 0x36, 0x36, 0xf5, 0xd4, 0xd8, 
  0x65, 0x1f, 0x71, 0x64, 0x32, 0x2d, 0x19, 0xbc, 0xee, 0xc0, 0xb3, 0xf5, 
  0x86, 0xff, 0xc0, 0x12, 0x9d, 0xe1, 0xe0, 0x42, 0x51, 0x6b, 0x44, 0x78, 
  0x2b, 0x62, 0x73, 0x35, 0x7f, 0x63, 0xf6, 0x04, 0xeb, 0x46, 0x2d, 0x2d, 
  0xdf, 0xcd, 0x0a, 0x51, 0x6c, 0x62, 0x04, 0xb6, 0xcd, 0xf0, 0x42, 0x64, 
  0xf8, 0xd6, 0xe6, 0xe8, 0x17, 0x65, 0x0f, 0xe8, 0xf4, 0x2e, 0x46, 0x29, 
  0x53, 0x32, 0xb5, 0xe3, 0xfa, 0x61, 0x34, 0xd3, 0x05, 0xd3, 0x2f, 0x50, 
  0x08, 0xfe, 0xe2, 0x65, 0x7f, 0x5f, 0xbd, 0xdc, 0x1a, 0x2d, 0x72, 0xfe, 
  0xf7, 0x1b, 0x65, 0x4d, 0x0c, 0xad, 0xce, 0x5f, 0x1d, 0x2f, 0x18, 0xf6, 
  0xf6, 0x67, 0x39, 0xab, 0x0a, 0x2b, 0x37, 0xe7, 0xc1, 0x15, 0x6b, 0x4e, 
  0xb2, 0xba, 0x1c, 0x6c, 0xe6, 0x9f, 0x1c, 0x3a, 0x3b, 0xf6, 0xa4, 0x2f, 
  0x2d, 0x42, 0x03, 0xe0, 0x19, 0x54, 0x0e, 0xc4, 0x27, 0xd3, 0x00, 0x2b, 
  0xfb, 0x32, 0x40, 0x1e, 0xab, 0x9b, 0xd8, 0x9e, 0xab, 0xfb, 0xae, 0xbf, 
  0xe8, 0x58, 0xfc, 0x52, 0x2a, 0xbc, 0xc5, 0x29, 0xec, 0x06, 0x81, 0xc5, 
  0xde, 0x93, 0x1b, 0x3f, 0xe1, 0xd7, 0xfc, 0xfb, 0x09, 0x09, 0xa5, 0xeb, 
  0xb5, 0x2e, 0x36, 0x0f, 0x1f, 0x5a, 0x36, 0x58, 0x1a, 0xd0, 0xfa, 0xae, 
  0xc5, 0x01, 0x9b, 0xfb, 0x11, 0x34, 0x43, 0xd2, 0x08, 0xef, 0xe6, 0xf5, 
  0xf5, 0xf5, 0x1a, 0x24, 0x26, 0xfd, 0xce, 0xfa, 0x14, 0xff, 0xe8, 0xc8, 
  0xc6, 0x0e, 0xab, 0x9f, 0xcf, 0xb9, 0xcd, 0x12, 0xcb, 0x28, 0x29, 0x0c, 
  0x0a, 0x3f, 0x5e, 0xeb, 0x31, 0x0f, 0x11, 0x02, 0x08, 0x3c, 0x64, 0x28, 
  0xfa, 0xac, 0xd4, 0x33, 0x33, 0x1d, 0xb9, 0xb5, 0xdb, 0x1b, 0x6e, 0x6a, 
  0xf9, 0x9b, 0xc2, 0x12, 0x2b, 0x5a, 0x3f, 0xb7, 0xdf, 0xff, 0x31, 0x27, 
  0x6f, 0xdc, 0x29, 0xfd, 0xfe, 0x56, 0x18, 0xfe, 0xc6, 0xc6, 0x1a, 0x1e, 
  0x01, 0xf6, 0xf7, 0x22, 0x4f, 0x5e, 0xba, 0xda, 0x21, 0x47, 0x5e, 0x06, 
  0xf5, 0xff, 0x64, 0x51, 0xd4, 0xc0, 0xe7, 0x50, 0x7f, 0x1a, 0xc9, 0x13, 
  0xe5, 0x21, 0x45, 0x0c, 0x0c, 0x34, 0x43, 0x21, 0xe2, 0xd8, 0x1e, 0x13, 
  0xfc, 0x15, 0xf9, 0x4c, 0x38, 0xf8, 0x01, 0x46, 0x04, 0x0c, 0xd5, 0xfc, 
  0x42, 0x21, 0xaa, 0xe5, 0x22, 0x4d, 0xe7, 0xcd, 0xd1, 0x0f, 0xf3, 0xcc, 
  0xbe, 0xd4, 0xf2, 0x08, 0x50, 0x60, 0x40, 0x4f, 0x4b, 0x12, 0x13, 0x18, 
  0xf4, 0xec, 0xba, 0x08, 0xfb, 0xf5, 0xd9, 0xe7, 0xd2, 0xb6, 0xfd, 0xdb, 
  0xf0, 0xe3, 0xbf, 0x0a, 0xf9, 0x22, 0xcd, 0x07, 0xe6, 0xae, 0xec, 0x17, 
  0x31, 0x1b, 0xf8, 0x3b, 0x3c, 0x2d, 0xec, 0x38, 0x1f, 0x39, 0x03, 0x10, 
  0xe3, 0x0e, 0xff, 0x01, 0xbf, 0xc4, 0x01, 0xc7, 0x3b, 0x25, 0x1c, 0xe7, 
  0xfb, 0xf4, 0x3d, 0x44, 0x3e, 0x59, 0x6d, 0x44, 0x71, 0x7f, 0x49, 0x47, 
  0x60, 0x5e, 0x68, 0x6b, 0x10, 0x65, 0x1f, 0x24, 0x39, 0xc8, 0xa6, 0xdc, 
  0xa2, 0xbf, 0xd0, 0xc9, 0xb9, 0x98, 0x8f, 0xbb, 0x06, 0xaa, 0xef, 0xf5, 
  0xbd, 0xa9, 0xa2, 0x9b, 0xeb, 0xca, 0x1a, 0x18, 0xf6, 0xf1, 0x2e, 0x40, 
  0x22, 0x2d, 0x4e, 0xf3, 0x2a, 0x3e, 0x3d, 0x30, 0x68, 0x27, 0x4b, 0x21, 
  0xfc, 0x2a, 0x0c, 0xdc, 0x21, 0xfd, 0xaa, 0xbc, 0x96, 0x97, 0xad, 0x97, 
  0xe5, 0xd5, 0xe8, 0xaf, 0xd1, 0x0e, 0xf2, 0x04, 0x3f, 0x09, 0x6d, 0x79, 
  0x2c, 0x23, 0xe5, 0xa5, 0xa7, 0xd8, 0x9a, 0x81, 0xc4, 0x93, 0xb2, 0xf7, 
  0xa8, 0xd5, 0xd0, 0xbe, 0x08, 0xc4, 0x00, 0x0b, 0x27, 0xd9, 0x03, 0x23, 
  0x0d, 0x4c, 0xfa, 0x09, 0x40, 0x22, 0xe8, 0xfc, 0xe5, 0x2f, 0xff, 0xd3, 
  0xb9, 0xcd, 0xe5, 0xfe, 0xfd, 0xd7, 0x23, 0x38, 0x56, 0x1f, 0x09, 0x0c, 
  0x63, 0x54, 0x45, 0xe7, 0xe6, 0xd2, 0x42, 0x32, 0xf4, 0xc5, 0xe1, 0xc6, 
  0xfb, 0xd8, 0xff, 0xbd, 0xca, 0xdc, 0xc4, 0xe6, 0xed, 0x46, 0x12, 0xfc, 
  0x0d, 0x11, 0x30, 0x07, 0x21, 0xca, 0x22, 0x1e, 0x44, 0x39, 0xb1, 0x0d, 
  0x14, 0x02, 0x08, 0xef, 0x98, 0xe3, 0xd4, 0x2d, 0xc9, 0xa8, 0xde, 0x23, 
  0x1a, 0x24, 0x00, 0xc5, 0xeb, 0xfc, 0x16, 0xf0, 0xf5, 0x08, 0x2f, 0x1f, 
  0x0b, 0x03, 0x2e, 0x2b, 0x1c, 0xbf, 0x03, 0x29, 0x50, 0xe5, 0xf9, 0xc2, 
  0x37, 0x3b, 0xda, 0xd4, 0xb8, 0xd5, 0xcd, 0xb4, 0x9b, 0xe7, 0x0d, 0xdf, 
  0x81, 0x96, 0xf4, 0xcb, 0xe6, 0xcd, 0xc0, 0x1a, 0x37, 0x49, 0x6d, 0x04, 
  0xd7, 0x0e, 0x24, 0x36, 0x36, 0x51, 0x03, 0x04, 0xd8, 0x25, 0x39, 0x3b, 
  0x54, 0x01, 0x0c, 0x11, 0x66, 0x32, 0x02, 0x18, 0xc5, 0x02, 0x20, 0x22, 
  0x49, 0xfe, 0x3f, 0xf5, 0x44, 0x12, 0x35, 0x22, 0xd2, 0x2f, 0x71, 0x7f, 
  0x22, 0xd6, 0xd8, 0x3c, 0x33, 0x44, 0xd0, 0xf2, 0xf2, 0x71, 0x21, 0xf7, 
  0x1e, 0x23, 0x0c, 0x5e, 0xf7, 0xa5, 0xf8, 0x32, 0x7d, 0x55, 0x32, 0x34, 
  0xf9, 0x55, 0x0a, 0xc1, 0xda, 0xf1, 0xfc, 0xea, 0x0b, 0x3c, 0x11, 0x36, 
  0xc4, 0xc1, 0x10, 0x0e, 0x2f, 0x00, 0x2c, 0x53, 0xfb, 0xff, 0xc7, 0xcd, 
  0xfd, 0x21, 0xac, 0x17, 0x5e, 0x4d, 0xe9, 0x24, 0x41, 0x1c, 0x3e, 0x07, 
  0x78, 0x35, 0x25, 0xee, 0xf6, 0xe6, 0x4a, 0x34, 0x36, 0xf9, 0xfd, 0xb6, 
  0x1d, 0xf5, 0x13, 0xd1, 0xaf, 0x02, 0xfc, 0x35, 0x45, 0x16, 0xfa, 0x5c, 
  0x4a, 0x27, 0x3f, 0x4e, 0xe0, 0x10, 0xcf, 0x26, 0x5e, 0x05, 0x25, 0xb8, 
  0xd2, 0x08, 0xd6, 0x84, 0xd3, 0x81, 0xf0, 0xc2, 0xd5, 0xe2, 0x17, 0x36, 
  0x14, 0x2d, 0x25, 0xd8, 0x52, 0x2d, 0x6a, 0x2e, 0x1f, 0xbe, 0xef, 0xf4, 
  0xf1, 0xfe, 0xd5, 0x0e, 0x25, 0x17, 0xac, 0x2f, 0x25, 0xda, 0xcf, 0xab, 
  0xd6, 0x2e, 0xc8, 0x01, 0xf9, 0xf4, 0xd8, 0xee, 0xd9, 0x27, 0xfd, 0x04, 
  0xd9, 0xeb, 0x1e, 0x32, 0x15, 0xf1, 0xe9, 0x42, 0x09, 0x23, 0xf3, 0x67, 
  0x2b, 0x7f, 0x34, 0x36, 0x0c, 0x35, 0x19, 0xe7, 0xc5, 0xd9, 0xe4, 0xe9, 
  0xd6, 0x05, 0x36, 0xe7, 0xa7, 0xcd, 0xf8, 0xbd, 0xeb, 0xa9, 0xad, 0xf3, 
  0x0b, 0x17, 0x15, 0xff, 0x13, 0x2d, 0x33, 0x0e, 0x56, 0x0e, 0x20, 0xae, 
  0xa5, 0xeb, 0x34, 0xfc, 0x36, 0xe3, 0x0a, 0x46, 0x08, 0x0a, 0xd3, 0x07, 
  0x15, 0xdd, 0xf7, 0x16, 0x41, 0x03, 0x08, 0xe6, 0xa7, 0xd2, 0xdb, 0x21, 
  0x4f, 0x09, 0x12, 0x5a, 0x0e, 0x08, 0xe1, 0x4e, 0x04, 0x49, 0xe0, 0xb1, 
  0xfd, 0x0a, 0xd4, 0xef, 0xb5, 0xdc, 0xca, 0xd7, 0x19, 0x4b, 0xf2, 0x11, 
  0x13, 0x13, 0x1c, 0xf9, 0xd0, 0xcb, 0xa2, 0xb7, 0x06, 0x43, 0x5f, 0x38, 
  0x25, 0x07, 0x08, 0x17, 0x6a, 0x39, 0x05, 0x0c, 0x0f, 0x48, 0x71, 0x4d, 
  0x26, 0xcb, 0xaa, 0x14, 0x2e, 0x25, 0x44, 0xf2, 0x0c, 0x30, 0x33, 0x6d, 
  0x3c, 0x52, 0xdc, 0xcc, 0x27, 0x53, 0x38, 0xe8, 0xec, 0x0c, 0x45, 0x73, 
  0x44, 0xf7, 0xbf, 0x12, 0x58, 0x36, 0xbc, 0xb3, 0x47, 0x7f, 0x7e, 0x2b, 
  0xb2, 0xdc, 0x3d, 0x48, 0xed, 0xa8, 0x9c, 0xe7, 0x74, 0xf8, 0xf5, 0xf3, 
  0x1d, 0xf4, 0x21, 0xf8, 0x12, 0x29, 0x6c, 0x03, 0xc9, 0xda, 0x4e, 0x12, 
  0x01, 0xf8, 0x22, 0x4b, 0x26, 0x02, 0x0a, 0x0e, 0x4d, 0xbb, 0xf3, 0x28, 
  0x2a, 0x30, 0xea, 0xf9, 0x15, 0x1b, 0xea, 0x28, 0x39, 0x79, 0x14, 0x37, 
  0xca, 0xe8, 0xbe, 0x27, 0x60, 0x0f, 0xf8, 0xa4, 0x95, 0xe5, 0x4a, 0x0a, 
  0x33, 0xfb, 0xfd, 0xf9, 0x39, 0x14, 0x15, 0x00, 0x9a, 0xba, 0x22, 0x5a, 
  0x42, 0xf3, 0xce, 0x0a, 0x32, 0x4c, 0x2b, 0xe6, 0xaf, 0x16, 0x17, 0x4c, 
  0xca, 0xb3, 0x12, 0x3c, 0x44, 0x5c, 0xe6, 0x1b, 0x5e, 0x7f, 0x72, 0xb9, 
  0x95, 0xd8, 0x32, 0x51, 0x4c, 0x92, 0xbe, 0x2f, 0x36, 0x48, 0xe0, 0xc1, 
  0x35, 0x6c, 0x2f, 0x07, 0x1e, 0x65, 0x1a, 0x26, 0xb6, 0x29, 0x5d, 0x63, 
  0xda, 0x06, 0x10, 0x16, 0xe4, 0xff, 0xf6, 0x13, 0x76, 0xe8, 0x04, 0x21, 
  0x50, 0x15, 0xbb, 0xca, 0x5d, 0x28, 0x11, 0x22, 0x14, 0xb8, 0xeb, 0x38, 
  0xf9, 0x0b, 0x23, 0xe4, 0xe3, 0xc3, 0x81, 0xa6, 0xa8, 0xac, 0x91, 0xa7, 
  0xe0, 0x2c, 0x0c, 0x05, 0x32, 0xda, 0xd4, 0x11, 0x9a, 0xf7, 0xba, 0xf0, 
  0x95, 0xe8, 0xda, 0x05, 0xac, 0xb5, 0x2c, 0x13, 0x3f, 0x01, 0xda, 0xdf, 
  0xad, 0xd8, 0x1a, 0x2d, 0x0b, 0x52, 0x20, 0x4b, 0xf1, 0xd9, 0xc5, 0xd4, 
  0x96, 0xe1, 0xe9, 0x0c, 0xf8, 0x0d, 0x48, 0xd2, 0x03, 0xad, 0xb1, 0x0b, 
  0x65, 0x30, 0x1f, 0x5d, 0x2a, 0xff, 0x1f, 0x34, 0x2a, 0xf1, 0x9e, 0xf2, 
  0x05, 0xfc, 0x0e, 0xd0, 0xc1, 0xe5, 0x38, 0x0d, 0x46, 0x24, 0x2d, 0x12, 
  0x56, 0xf0, 0x6e, 0x1d, 0xdb, 0xa6, 0xfa, 0xec, 0x20, 0xf2, 0xfb, 0x21, 
  0x2d, 0x14, 0x0a, 0xce, 0xca, 0xc0, 0x81, 0x9a, 0xfc, 0x96, 0x94, 0xc1, 
  0xe8, 0x07, 0x11, 0x36, 0x06, 0x3b, 0xd9, 0x10, 0x9e, 0x99, 0xc0, 0xcc, 
  0xa4, 0xd5, 0x8c, 0x0e, 0xb9, 0x3a, 0x5e, 0x2a, 0x2e, 0xf3, 0xfb, 0xda, 
  0x05, 0xfa, 0x34, 0x22, 0x4a, 0x66, 0x56, 0x27, 0xdc, 0x90, 0xad, 0x90, 
  0xae, 0xf1, 0xcd, 0x26, 0x06, 0x5d, 0x3f, 0xd2, 0xab, 0xa1, 0xee, 0x02, 
  0x40, 0xfe, 0x5d, 0x31, 0x61, 0x59, 0x40, 0xed, 0xd4, 0xba, 0x06, 0xd6, 
  0x00, 0xe6, 0xc8, 0xc4, 0x00, 0xc0, 0xd3, 0x49, 0x43, 0x0c, 0x44, 0x63, 
  0x3e, 0x3a, 0x2f, 0x6a, 0x20, 0xe7, 0xc3, 0xd7, 0xdb, 0xc2, 0xd6, 0x1c, 
  0x0d, 0x67, 0x5a, 0x10, 0x0c, 0x41, 0x52, 0x5b, 0x77, 0x54, 0x30, 0x4d, 
  0x2f, 0x6c, 0x7f, 0x1b, 0x40, 0xf4, 0x15, 0x4a, 0x10, 0xf4, 0x1f, 0xf7, 
  0xc8, 0xf5, 0x29, 0x1e, 0xfb, 0x07, 0x0a, 0x2d, 0xed, 0xda, 0xf1, 0xf7, 
  0xea, 0xfe, 0x15, 0xbb, 0xaa, 0xba, 0xf7, 0x2b, 0xcd, 0xc8, 0xe0, 0x35, 
  0x58, 0x4e, 0xfe, 0xf6, 0x3a, 0x32, 0xff, 0xc0, 0xa7, 0xf3, 0xd5, 0x06, 
  0x13, 0xfd, 0x19, 0x19, 0x0e, 0x11, 0x13, 0x3b, 0x0e, 0xfd, 0xe5, 0x09, 
  0x1c, 0x3f, 0xf2, 0xf3, 0x0a, 0x23, 0xf1, 0xe2, 0x0b, 0x32, 0xeb, 0xe6, 
  0xb1, 0xcb, 0xe0, 0xf8, 0xf8, 0xcc, 0x08, 0xd7, 0x36, 0x03, 0xdc, 0xe9, 
  0xfd, 0xed, 0xc5, 0x98, 0x89, 0x96, 0xf9, 0x11, 0xf3, 0x18, 0xce, 0xf9, 
  0x3e, 0x51, 0x7b, 0x72, 0xf0, 0x49, 0x30, 0x6e, 0x49, 0x63, 0x36, 0x38, 
  0x0b, 0x1d, 0x0e, 0x26, 0x3a, 0x18, 0xcb, 0x3a, 0xf0, 0x11, 0xaa, 0xc8, 
  0xf3, 0xe7, 0xfd, 0xa9, 0xc0, 0xaf, 0xf2, 0x5d, 0x17, 0x07, 0x1d, 0x3d, 
  0x6e, 0xec, 0x2c, 0xee, 0x12, 0xfb, 0x15, 0xfc, 0x81, 0xab, 0x08, 0xe7, 
  0xf2, 0x00, 0x1a, 0x03, 0xea, 0xb6, 0xc3, 0xf5, 0x1a, 0x06, 0x01, 0xdf, 
  0x07, 0xda, 0xc5, 0xf0, 0xa3, 0xef, 0xef, 0xfa, 0xba, 0x11, 0x49, 0xb3, 
  0xf3, 0xcd, 0x38, 0xed, 0xce, 0xc3, 0x15, 0x01, 0x2d, 0x08, 0x60, 0xfa, 
  0xeb, 0x0d, 0x28, 0x6a, 0x00, 0x2e, 0xbd, 0xba, 0xa7, 0x35, 0x07, 0x56, 
  0xea, 0xc0, 0xf0, 0x46, 0x20, 0x12, 0x2d, 0x20, 0xb1, 0xe4, 0x3f, 0x29, 
  0x48, 0xcd, 0x0d, 0x29, 0x09, 0x1b, 0x09, 0xfe, 0xca, 0x48, 0x60, 0x7f, 
  0x05, 0x18, 0x0c, 0x2c, 0x4a, 0x35, 0xcc, 0xc3, 0x0e, 0x4b, 0xfd, 0xb9, 
  0xd5, 0xf4, 0xe7, 0x46, 0x12, 0xf7, 0xe8, 0x05, 0x5d, 0x28, 0xcd, 0x37, 
  0x18, 0x02, 0xef, 0xd4, 0x08, 0x3b, 0x00, 0xc6, 0xd7, 0xc3, 0x4e, 0x03, 
  0xf8, 0x02, 0xd3, 0x30, 0x26, 0xfc, 0x3b, 0x62, 0x19, 0xd5, 0xb5, 0x13, 
  0x59, 0x63, 0xc7, 0x14, 0x5a, 0x49, 0xfc, 0x0c, 0x34, 0x0d, 0x50, 0x41, 
  0xd6, 0xb2, 0xdb, 0x2e, 0x6a, 0x2b, 0x26, 0xc7, 0x17, 0x48, 0x5a, 0x3c, 
  0x5a, 0xf9, 0xbc, 0x07, 0x31, 0x36, 0x71, 0x36, 0xf4, 0x15, 0x18, 0x32, 
  0x62, 0x0f, 0xf1, 0x0f, 0x38, 0x30, 0x44, 0x17, 0xc0, 0x09, 0x29, 0x2d, 
  0x2d, 0xb4, 0xce, 0x39, 0x64, 0x20, 0x0f, 0xec, 0x04, 0x7f, 0x4c, 0xec, 
  0xef, 0xeb, 0x44, 0x19, 0x38, 0xc5, 0xc4, 0xed, 0x3a, 0x15, 0xf4, 0xc9, 
  0x35, 0x2d, 0x40, 0xef, 0x0f, 0x0d, 0x17, 0xee, 0xdf, 0x25, 0x0b, 0x4f, 
  0xec, 0x13, 0x07, 0x42, 0xea, 0x0d, 0xcc, 0x58, 0x01, 0xcf, 0xa8, 0x0f, 
  0x28, 0x46, 0xc6, 0xe0, 0xf7, 0x1a, 0x13, 0xc1, 0x10, 0x56, 0x3a, 0x2c, 
  0xda, 0xc6, 0xd0, 0x03, 0x15, 0xe7, 0x96, 0x93, 0x99, 0xc4, 0x2c, 0x4f, 
  0x2c, 0x95, 0xc0, 0xef, 0x2d, 0x54, 0xd5, 0xee, 0x88, 0x99, 0xbd, 0x31, 
  0x14, 0xf4, 0xe1, 0xad, 0xe3, 0x32, 0x56, 0xd6, 0x1b, 0xe0, 0x43, 0x7f, 
  0xd0, 0xf0, 0x07, 0x4e, 0x6a, 0x25, 0x10, 0x13, 0x28, 0x7a, 0x36, 0xfe, 
  0xc6, 0x13, 0x6b, 0x43, 0xe4, 0xbd, 0x08, 0x56, 0x23, 0x39, 0x17, 0x21, 
  0x2f, 0x10, 0x16, 0x38, 0x23, 0x2d, 0x64, 0x31, 0xdc, 0xf5, 0x24, 0xe0, 
  0x05, 0xa0, 0x39, 0x20, 0x25, 0x94, 0xfa, 0x59, 0x43, 0xe1, 0xd9, 0x53, 
  0x3c, 0x30, 0x2f, 0x41, 0x01, 0x2f, 0xe9, 0x19, 0x14, 0x49, 0x33, 0x62, 
  0x01, 0x4e, 0x29, 0xe8, 0xfc, 0xef, 0xc4, 0x8e, 0xaf, 0xc9, 0xe2, 0xa6, 
  0x68, 0x67, 0x2f, 0x75, 0xea, 0x05, 0x59, 0x66, 0x28, 0xa1, 0xe3, 0x9f, 
  0x9b, 0xa9, 0xa7, 0x0d, 0x98, 0xfd, 0x72, 0x0b, 0xf5, 0x47, 0xc8, 0x9d, 
  0xdf, 0xdb, 0x4a, 0x26, 0x53, 0x22, 0x03, 0x1f, 0xfe, 0xa8, 0x81, 0xb1, 
  0xd4, 0x90, 0xd2, 0x26, 0x7a, 0xf9, 0x3f, 0xf9, 0xd1, 0x11, 0x19, 0x41, 
  0x6e, 0x1f, 0x38, 0x02, 0x03, 0x60, 0xf9, 0x14, 0xe1, 0xfe, 0xfd, 0xbb, 
  0x85, 0xfc, 0x8d, 0xeb, 0xef, 0xce, 0x09, 0xcc, 0x59, 0xfa, 0x3f, 0x02, 
  0xfe, 0x07, 0x0e, 0x4d, 0xf2, 0x2f, 0xfe, 0xdf, 0x46, 0x1e, 0x5e, 0xfa, 
  0x00, 0x39, 0x0b, 0xee, 0x4d, 0x0c, 0xed, 0xc1, 0xcf, 0x1e, 0xf9, 0xf1, 
  0xa7, 0x95, 0xc5, 0x90, 0xdc, 0xc6, 0x15, 0xaa, 0xe8, 0xdd, 0x4d, 0x5a, 
  0x2c, 0x0d, 0x31, 0x5c, 0x33, 0x65, 0x24, 0x1e, 0x13, 0x24, 0x0d, 0xfb, 
  0xe4, 0x12, 0xba, 0xd0, 0xb8, 0xec, 0x96, 0xa2, 0x29, 0x23, 0x6d, 0x4e, 
  0x45, 0x6a, 0x23, 0x26, 0xdf, 0x1d, 0x0c, 0x4c, 0x56, 0xe4, 0xe5, 0xc6, 
  0x68, 0x34, 0x33, 0x1e, 0x30, 0xf4, 0x02, 0x07, 0xdb, 0x3a, 0xf6, 0x4b, 
  0xfe, 0xd4, 0x14, 0xf7, 0x0a, 0xc2, 0x98, 0xc1, 0xa2, 0xae, 0x85, 0x91, 
  0x95, 0xce, 0x81, 0xbb, 0x04, 0x01, 0xc9, 0x04, 0x30, 0x4b, 0x23, 0x21, 
  0x21, 0x31, 0x3a, 0x4a, 0x2e, 0x69, 0x46, 0x4f, 0x7f, 0x51, 0x3c, 0x0e, 
  0xf0, 0xf6, 0x53, 0xd4, 0xeb, 0xfb, 0x02, 0xcb, 0x4b, 0xb8, 0x13, 0xc2, 
  0xe1, 0x38, 0xfe, 0x34, 0x38, 0x24, 0xcf, 0x19, 0x10, 0x22, 0xef, 0xad, 
  0x17, 0x09, 0x24, 0xa5, 0xd3, 0x01, 0x00, 0x3e, 0x0a, 0xd5, 0xca, 0x02, 
  0x45, 0xf2, 0xba, 0x2a, 0xd2, 0x10, 0x39, 0x16, 0x04, 0xca, 0xd7, 0xfe, 
  0x11, 0xd3, 0x42, 0x0a, 0x0e, 0xdc, 0xdd, 0xf6, 0x41, 0xdd, 0x2d, 0x30, 
  0x29, 0x2b, 0xdd, 0xfd, 0xca, 0x28, 0xd5, 0xac, 0x99, 0xc2, 0x05, 0xbe, 
  0xb0, 0xe4, 0x21, 0xc0, 0xe9, 0x9f, 0x10, 0x0d, 0xf4, 0x38, 0x4d, 0x02, 
  0xff, 0x08, 0x26, 0xf4, 0x2e, 0xc6, 0xb2, 0x81, 0x9c, 0xf7, 0x9c, 0x20, 
  0x18, 0xcc, 0xfa, 0xe4, 0x20, 0xeb, 0xda, 0xe8, 0xb7, 0xc4, 0xfa, 0xa1, 
  0xb1, 0xd7, 0x9b, 0xfb, 0xbe, 0xf9, 0x5c, 0x02, 0x50, 0x30, 0x0a, 0xf5, 
  0xee, 0xbb, 0xd3, 0x34, 0x33, 0x7e, 0x55, 0x3c, 0x11, 0xb8, 0xe8, 0xd7, 
  0xfb, 0xff, 0x2a, 0x4a, 0x70, 0xf0, 0xdd, 0xde, 0xf8, 0x00, 0xda, 0xf2, 
  0x00, 0x0a, 0x57, 0x12, 0x2d, 0x1e, 0x3c, 0xe4, 0x10, 0xc9, 0xf4, 0xe4, 
  0xb8, 0xb0, 0xf6, 0x21, 0xbd, 0x19, 0xc2, 0x28, 0x51, 0x52, 0x64, 0x27, 
  0x2e, 0x32, 0x35, 0x00, 0x12, 0x48, 0xd0, 0xef, 0x05, 0x70, 0x5f, 0x3a, 
  0xc3, 0x9c, 0xbe, 0xeb, 0x5f, 0x29, 0x0c, 0xb6, 0xc2, 0x18, 0x36, 0x51, 
  0xe4, 0xef, 0xb9, 0x01, 0x3e, 0x5a, 0x54, 0xcf, 0xd1, 0xcf, 0x13, 0x24, 
  0x11, 0xc6, 0xdb, 0xde, 0x3f, 0x0e, 0x56, 0xec, 0xef, 0x2b, 0x1e, 0x44, 
  0xe7, 0x9a, 0xcb, 0x0f, 0x34, 0x1b, 0xd0, 0xd9, 0x38, 0x7f, 0x3e, 0xeb, 
  0xba, 0x29, 0x40, 0x4a, 0xee, 0xc5, 0xc7, 0x30, 0x5d, 0x49, 0x00, 0xee, 
  0x23, 0x15, 0x1b, 0x12, 0xff, 0x45, 0x60, 0x30, 0xaa, 0xd0, 0x55, 0x57, 
  0x08, 0xbe, 0xed, 0x34, 0x15, 0xf2, 0x2c, 0x47, 0x09, 0xd5, 0xfa, 0x16, 
  0x1e, 0xfa, 0xc6, 0x09, 0x61, 0x20, 0x06, 0xfe, 0xb3, 0xd0, 0xb1, 0xfc, 
  0x5a, 0x23, 0x31, 0xce, 0x04, 0x81, 0x92, 0xc9, 0xb6, 0xad, 0x91, 0xb8, 
  0xe3, 0x59, 0x3b, 0xf4, 0xa3, 0xee, 0xb6, 0xe7, 0xf0, 0xe8, 0xd1, 0x85, 
  0xa4, 0xe0, 0xdb, 0x27, 0x1e, 0xbe, 0x27, 0x0c, 0x50, 0x43, 0xd1, 0xa5, 
  0x18, 0x09, 0xd4, 0x40, 0xe4, 0xfc, 0x28, 0x64, 0xc7, 0xe7, 0xd4, 0xe7, 
  0x98, 0xc3, 0xb0, 0x0e, 0x09, 0x28, 0xf9, 0x0c, 0xc6, 0xe9, 0xe2, 0x0f, 
  0x4f, 0x2a, 0x2a, 0x0c, 0xe4, 0x24, 0xb9, 0x2f, 0x0f, 0xee, 0xe2, 0x09, 
  0xb3, 0xce, 0xd8, 0x9e, 0xbc, 0x4a, 0xf8, 0x3d, 0x19, 0x1d, 0x49, 0xeb, 
  0xfd, 0x0b, 0x41, 0x6a, 0xec, 0x0e, 0xab, 0xd8, 0xfb, 0xeb, 0xde, 0x29, 
  0xe5, 0x46, 0xdf, 0x15, 0xa2, 0x93, 0xde, 0xd3, 0xc0, 0xc6, 0xb5, 0xed, 
  0x19, 0xeb, 0x06, 0x3f, 0xf9, 0xcf, 0xc6, 0xc7, 0xa6, 0x81, 0xf3, 0x9a, 
  0xe7, 0xa0, 0xfa, 0xf4, 0x05, 0xf2, 0xf6, 0x41, 0x5f, 0x41, 0xe4, 0xbf, 
  0x06, 0xca, 0x05, 0x48, 0xfe, 0x2f, 0x36, 0x61, 0x05, 0x9d, 0xd8, 0xf2, 
  0xf5, 0xee, 0x38, 0x49, 0x1b, 0x49, 0x0c, 0xff, 0xe3, 0xac, 0x10, 0x12, 
  0x21, 0x10, 0x02, 0x1e, 0x0c, 0xfc, 0x3a, 0x35, 0xfb, 0xed, 0xcc, 0xb6, 
  0xa5, 0xed, 0xe9, 0xd0, 0xe7, 0xd5, 0x25, 0xe8, 0x18, 0x48, 0x4a, 0x4f, 
  0x62, 0x2d, 0x6c, 0x16, 0xdc, 0x0b, 0xd1, 0xef, 0xe2, 0x31, 0x3a, 0x4d, 
  0x3b, 0x1c, 0x70, 0xe5, 0xa9, 0x9d, 0x0a, 0x02, 0xbe, 0xfc, 0xb6, 0x2f, 
  0x4f, 0x26, 0x24, 0x3d, 0x2e, 0xd5, 0x16, 0x36, 0x19, 0x8c, 0xa2, 0xc6, 
  0xb0, 0x81, 0x93, 0xa6, 0x29, 0xd9, 0x20, 0x19, 0x69, 0x4f, 0xd4, 0xad, 
  0xcb, 0xbc, 0xd9, 0x35, 0x60, 0xfd, 0x38, 0x40, 0x09, 0xe3, 0xad, 0xfe, 
  0xf9, 0xeb, 0x33, 0x44, 0x30, 0x40, 0x6b, 0x19, 0xa3, 0xf1, 0xf9, 0xca, 
  0x70, 0x27, 0x60, 0x0e, 0x5e, 0x03, 0xcb, 0x45, 0x1d, 0x9e, 0xc8, 0xe8, 
  0xa8, 0xa0, 0xf6, 0xa1, 0xc6, 0xcc, 0x09, 0xf1, 0x4d, 0x67, 0x2a, 0x32, 
  0xf6, 0x67, 0x29, 0x04, 0x37, 0x18, 0xa8, 0xfd, 0x15, 0x09, 0x4b, 0xf9, 
  0x1c, 0xa6, 0xc1, 0x3b, 0x71, 0x2a, 0x25, 0xdd, 0x10, 0x4e, 0x1e, 0x2e, 
  0x29, 0xce, 0xd8, 0xe6, 0x49, 0x14, 0x34, 0xc6, 0xb3, 0xec, 0x28, 0x41, 
  0x41, 0x14, 0x12, 0x23, 0x1f, 0x69, 0x40, 0xfd, 0xd3, 0x0d, 0x5c, 0x40, 
  0x08, 0xee, 0xab, 0x42, 0x3f, 0x38, 0x04, 0xf3, 0x1b, 0x66, 0x52, 0x3d, 
  0xcd, 0x39, 0x40, 0x1e, 0xe4, 0xe9, 0xf1, 0x15, 0x7f, 0x41, 0x1f, 0x02, 
  0xd2, 0x32, 0xef, 0xbc, 0xbd, 0x25, 0x44, 0x05, 0xa5, 0x26, 0x2c, 0x3c, 
  0xc1, 0xfa, 0x0e, 0x48, 0x02, 0xad, 0x0f, 0x55, 0x28, 0xe2, 0xde, 0xd5, 
  0x2b, 0x42, 0x98, 0xe5, 0x1d, 0x67, 0x13, 0x08, 0xdb, 0xb4, 0xc2, 0xf7, 
  0x49, 0x6c, 0xdf, 0xeb, 0x81, 0x9b, 0xd1, 0xc8, 0xcc, 0xe3, 0xeb, 0xec, 
  0x29, 0x24, 0x47, 0x16, 0xa9, 0xf0, 0xaf, 0xc2, 0xb3, 0xe0, 0x98, 0x03, 
  0xef, 0xd6, 0xc8, 0xe4, 0xf9, 0x31, 0x27, 0x2b, 0x21, 0xe4, 0x18, 0xae, 
  0xdd, 0x1f, 0xe8, 0xf2, 0x2d, 0x08, 0x12, 0x54, 0xa2, 0xb1, 0xcf, 0xed, 
  0x9c, 0xe9, 0x16, 0x27, 0xde, 0x70, 0x3e, 0xbd, 0x11, 0xaf, 0x15, 0xdf, 
  0xfa, 0x0b, 0x1f, 0xfe, 0x66, 0x26, 0xee, 0xeb, 0x07, 0x09, 0x11, 0xd7, 
  0xae, 0xf8, 0xae, 0x85, 0xd0, 0x22, 0x1d, 0xff, 0x04, 0xf4, 0x18, 0x5d, 
  0xf5, 0xfb, 0x44, 0x77, 0xd7, 0x07, 0x14, 0xcc, 0xd4, 0x05, 0x35, 0x39, 
  0xf4, 0xba, 0xe1, 0xc8, 0xd6, 0x85, 0xd5, 0xcb, 0xa0, 0xc7, 0xb3, 0xaa, 
  0x10, 0xb0, 0xbb, 0xcf, 0x1a, 0xbe, 0x17, 0x81, 0xfd, 0xf5, 0x01, 0xb2, 
  0x90, 0x9f, 0xa7, 0xcd, 0xd4, 0xd5, 0xec, 0xf1, 0xea, 0x4e, 0x2d, 0xee, 
  0xb0, 0xa4, 0x20, 0x19, 0xf6, 0x63, 0x02, 0x5a, 0x19, 0xf6, 0x90, 0x9c, 
  0xb8, 0xb2, 0x1f, 0x1a, 0x37, 0x27, 0xd0, 0xcc, 0xd7, 0xe1, 0x18, 0xca, 
  0x3a, 0x36, 0x37, 0x35, 0x74, 0x0c, 0x13, 0x01, 0xbf, 0xd2, 0xd7, 0xd9, 
  0x09, 0x8f, 0x9f, 0x26, 0x2a, 0x33, 0x07, 0x2d, 0xdb, 0xe5, 0x3e, 0x02, 
  0x04, 0x4c, 0x4b, 0x50, 0x11, 0xd7, 0xdf, 0xa1, 0xf0, 0xf1, 0xea, 0xe6, 
  0x0b, 0x09, 0x01, 0x2e, 0x25, 0x61, 0x2c, 0x57, 0x49, 0x5d, 0x6b, 0x6a, 
  0x39, 0x49, 0x04, 0x5b, 0x1c, 0x7f, 0x6e, 0x73, 0x24, 0x5d, 0x7d, 0x7b, 
  0x5b, 0x3c, 0xf7, 0x32, 0x2a, 0x20, 0x0d, 0x17, 0xdd, 0x01, 0xda, 0x27, 
  0xdf, 0xe2, 0xeb, 0xc5, 0xf6, 0xd3, 0x1f, 0x16, 0x4b, 0x16, 0x17, 0x32, 
  0x4d, 0x4e, 0x29, 0xf4, 0x0d, 0x04, 0xeb, 0xe5, 0xf2, 0xcd, 0xda, 0xde, 
  0x11, 0x05, 0xe9, 0x32, 0x0d, 0x32, 0x10, 0x1a, 0x1b, 0x1d, 0xf5, 0x00, 
  0xed, 0x26, 0xe1, 0xf3, 0xfa, 0xf2, 0xe6, 0xfc, 0xd0, 0xcb, 0xbc, 0xce, 
  0xe0, 0xbe, 0xc5, 0xb6, 0x0f, 0xe6, 0xe3, 0xde, 0xdc, 0xd7, 0xf0, 0xc8, 
  0xbd, 0xcd, 0xe3, 0xb9, 0xed, 0xb2, 0xb3, 0x15, 0x03, 0xf3, 0xf5, 0xbe, 
  0xdd, 0xd0, 0x0d, 0x0f, 0x00, 0xe6, 0x05, 0x57, 0x7c, 0x33, 0x4a, 0x30, 
  0x68, 0x7f, 0x3b, 0x5e, 0x4e, 0x0b, 0x35, 0x11, 0x1d, 0xc8, 0xe2, 0x92, 
  0xc4, 0xc9, 0xd4, 0x9a, 0xbd, 0xb5, 0xf3, 0x41, 0x43, 0x22, 0x17, 0x5a, 
  0x65, 0x76, 0x33, 0x0d, 0x18, 0xdb, 0xde, 0xbe, 0xdd, 0xb5, 0xad, 0xbf, 
  0xf7, 0xe1, 0xc9, 0xb0, 0xf9, 0xaf, 0xa2, 0xae, 0xcf, 0xc8, 0xf6, 0x20, 
  0x21, 0xdc, 0x0e, 0xf1, 0xc1, 0xf1, 0xf2, 0xb2, 0xe7, 0xe8, 0x18, 0xf1, 
  0xcb, 0xf2, 0x1a, 0xd9, 0x15, 0xd5, 0x52, 0x15, 0x2d, 0x93, 0xdf, 0xf1, 
  0x8c, 0xff, 0xcb, 0x8b, 0xee, 0xd2, 0x9e, 0xf7, 0x96, 0xce, 0xa7, 0x92, 
  0xf9, 0x85, 0xd6, 0xc1, 0x90, 0xb8, 0xa2, 0x81, 0xe5, 0x26, 0xa6, 0xf5, 
  0x9b, 0xde, 0xc7, 0xaf, 0x06, 0x01, 0x9d, 0xbf, 0x27, 0xe5, 0x05, 0xb0, 
  0x21, 0x5f, 0xd0, 0xf5, 0xd4, 0xd7, 0x49, 0x2c, 0x0b, 0x01, 0x59, 0x5c, 
  0x3f, 0x0d, 0xa2, 0xaa, 0xd2, 0x89, 0x07, 0xd9, 0x04, 0xa4, 0x10, 0xb9, 
  0xd1, 0x05, 0xea, 0x09, 0x1e, 0xbe, 0xdc, 0x0d, 0xed, 0xd5, 0xf0, 0x01, 
  0xf2, 0x25, 0x6c, 0xe0, 0x11, 0xf4, 0x5d, 0xe4, 0x25, 0xd2, 0x3c, 0xaf, 
  0x08, 0xe2, 0x13, 0xdd, 0xc0, 0xd8, 0x1f, 0x4b, 0x20, 0x1d, 0x37, 0x27, 
  0xf5, 0x2a, 0x2c, 0x0a, 0x8d, 0x9e, 0xc9, 0x81, 0xe9, 0xb1, 0xdd, 0xb7, 
  0x39, 0x4d, 0x20, 0x17, 0xea, 0x19, 0x26, 0xc6, 0xb4, 0xc6, 0xbe, 0xaa, 
  0xbb, 0x8d, 0xe3, 0xec, 0xf9, 0x24, 0x51, 0x22, 0x49, 0x3d, 0xb7, 0x05, 
  0xa7, 0xc7, 0x27, 0xfd, 0xfc, 0x63, 0x47, 0x0a, 0xef, 0xe1, 0x0e, 0x06, 
  0xc3, 0xf8, 0xdf, 0x27, 0x1e, 0x35, 0x30, 0xde, 0xee, 0xff, 0xc6, 0xfd, 
  0x3c, 0x5e, 0x12, 0x58, 0x46, 0xf8, 0x4b, 0x34, 0xd7, 0xe0, 0xa6, 0xb3, 
  0xff, 0xfb, 0xda, 0xcd, 0x14, 0x27, 0xf0, 0x24, 0x15, 0x2c, 0x3b, 0x19, 
  0x38, 0x50, 0x26, 0x28, 0x3e, 0xd3, 0xf5, 0xf8, 0xe3, 0x7f, 0x14, 0x25, 
  0xc6, 0xa8, 0xbd, 0x36, 0x62, 0x40, 0xe6, 0x07, 0xf5, 0x13, 0x5c, 0x1e, 
  0xe8, 0xab, 0xa0, 0xf2, 0x27, 0x6e, 0x12, 0xc7, 0xb5, 0x2d, 0x45, 0x35, 
  0x1e, 0x0b, 0xd4, 0xd3, 0x18, 0x43, 0x34, 0xd8, 0xa0, 0xc7, 0x64, 0x52, 
  0x0a, 0xac, 0xcc, 0x5f, 0x77, 0x3f, 0xb2, 0x9d, 0x58, 0x23, 0x60, 0x3d, 
  0xee, 0xf8, 0x72, 0x2b, 0x23, 0xa7, 0xb5, 0x26, 0x2a, 0x4c, 0xc6, 0xdd, 
  0xdd, 0x34, 0x10, 0xdd, 0xcb, 0x41, 0x31, 0x3b, 0xef, 0x39, 0x3b, 0x3d, 
  0xe3, 0xd6, 0x4c, 0x12, 0x27, 0xc5, 0xe6, 0x67, 0xf0, 0xbe, 0xa7, 0x15, 
  0x6c, 0x1d, 0xa3, 0xea, 0x0e, 0x60, 0x3f, 0xe2, 0x9a, 0xd6, 0xdd, 0xac, 
  0xd3, 0x23, 0xfa, 0xd4, 0xf8, 0x4c, 0x78, 0x64, 0x64, 0x42, 0x65, 0x3e, 
  0x5a, 0x6c, 0x3b, 0x05, 0x43, 0xd2, 0xeb, 0x49, 0x25, 0x27, 0xa3, 0xc8, 
  0xb7, 0x01, 0xec, 0xef, 0xa6, 0xc4, 0x8f, 0x11, 0xf8, 0xf0, 0xa2, 0xf1, 
  0xbb, 0x0c, 0x2f, 0xde, 0x0f, 0x18, 0x75, 0x7d, 0xf8, 0x1b, 0xc1, 0x32, 
  0x22, 0xc2, 0xdd, 0xa1, 0xac, 0x17, 0x05, 0xbe, 0x9c, 0xa9, 0x37, 0x06, 
  0xf6, 0xbc, 0x25, 0x28, 0x0f, 0xf1, 0x1d, 0x1e, 0x35, 0x53, 0xdd, 0x1c, 
  0x22, 0x63, 0xf0, 0x36, 0x61, 0x7f, 0x50, 0x46, 0xf5, 0x19, 0x0e, 0xd0, 
  0xd0, 0xf4, 0x24, 0xca, 0xfb, 0xad, 0x10, 0xd2, 0xf6, 0x2d, 0xf1, 0x42, 
  0x3e, 0x0b, 0x07, 0x07, 0x27, 0x28, 0xd4, 0x09, 0x0d, 0xdb, 0x30, 0xef, 
  0x16, 0x51, 0x2a, 0x7f, 0x7f, 0x28, 0x31, 0x0d, 0xfe, 0xb6, 0xc7, 0x99, 
  0xc4, 0xf4, 0x09, 0x18, 0x17, 0x1e, 0xf8, 0x02, 0xfd, 0x4c, 0xc3, 0xdd, 
  0x15, 0x2f, 0x12, 0xfb, 0x16, 0x59, 0x22, 0x24, 0xd6, 0x83, 0x99, 0xb9, 
  0xdc, 0xb3, 0xbb, 0x52, 0x3f, 0x2a, 0x5d, 0x3d, 0xed, 0xfb, 0x1b, 0xd0, 
  0x24, 0x13, 0x59, 0x60, 0x36, 0x48, 0x3a, 0x3f, 0x06, 0x1c, 0xf6, 0xa0, 
  0x0a, 0x9f, 0xd5, 0x97, 0xb2, 0xef, 0x2f, 0x50, 0xf7, 0x29, 0x61, 0x2e, 
  0x78, 0x6e, 0x30, 0xf4, 0x28, 0x0f, 0x14, 0xff, 0x35, 0x2c, 0x27, 0xeb, 
  0xf7, 0xb1, 0xcc, 0x0b, 0x31, 0x6a, 0x0f, 0xf8, 0xd0, 0x49, 0x5e, 0x45, 
  0x2f, 0xb6, 0x01, 0x04, 0x0b, 0x49, 0x58, 0xb5, 0xc6, 0x23, 0x25, 0x40, 
  0x33, 0x1b, 0xf3, 0xef, 0x4a, 0x61, 0x5d, 0xee, 0xea, 0x1f, 0x3b, 0x7f, 
  0xfd, 0xe0, 0xd0, 0x64, 0x35, 0x21, 0xaa, 0xd2, 0x43, 0x4e, 0x54, 0x44, 
  0xe7, 0x20, 0x09, 0x48, 0xfa, 0xd0, 0xfc, 0x10, 0x7f, 0x2b, 0xd1, 0xe5, 
  0x09, 0x5f, 0xfb, 0xf9, 0x1f, 0x23, 0x0d, 0xd4, 0xda, 0xe3, 0x1f, 0x28, 
  0xd0, 0x03, 0xfe, 0x4c, 0x36, 0xdc, 0x31, 0x4e, 0x23, 0xcb, 0xc6, 0xfc, 
  0x66, 0x31, 0xee, 0xb0, 0x16, 0x5f, 0x1d, 0xc2, 0xda, 0xef, 0xff, 0xff, 
  0x04, 0x00, 0x00, 0x00, 0x00, 0x01, 0x00, 0x00, 0xc8, 0x16, 0x00, 0x00, 
  0x10, 0xfe, 0xff, 0xff, 0x74, 0x3d, 0x00, 0x00, 0x0b, 0xe6, 0xff, 0xff, 
  0x31, 0x45, 0x00, 0x00, 0x1f, 0x74, 0x00, 0x00, 0xfe, 0xe8, 0xff, 0xff, 
  0x9d, 0x1d, 0x00, 0x00, 0x2e, 0x35, 0x00, 0x00, 0x6f, 0x04, 0x00, 0x00, 
  0xc2, 0x1d, 0x00, 0x00, 0x3a, 0x0a, 0x00, 0x00, 0x65, 0xff, 0xff, 0xff, 
  0x5d, 0x28, 0x00, 0x00, 0xc1, 0x02, 0x00, 0x00, 0xaf, 0xe5, 0xff, 0xff, 
  0xc2, 0xfb, 0xff, 0xff, 0x32, 0xfb, 0xff, 0xff, 0xf1, 0xe9, 0xff, 0xff, 
  0xa6, 0x17, 0x00, 0x00, 0xf5, 0xde, 0xff, 0xff, 0x51, 0xd0, 0xff, 0xff, 
  0xb0, 0xeb, 0xff, 0xff, 0x92, 0x24, 0x00, 0x00, 0x75, 0x26, 0x00, 0x00, 
  0x65, 0xe7, 0xff, 0xff, 0x23, 0xf2, 0xff, 0xff, 0x03, 0x15, 0x00, 0x00, 
  0x3c, 0x0d, 0x00, 0x00, 0x4a, 0x0f, 0x00, 0x00, 0x79, 0x47, 0x00, 0x00, 
  0x13, 0x3f, 0x00, 0x00, 0xc1, 0x0d, 0x00, 0x00, 0x3a, 0xfc, 0xff, 0xff, 
  0x7f, 0xde, 0xff, 0xff, 0xc0, 0xf1, 0xff, 0xff, 0xf3, 0x1d, 0x00, 0x00, 
  0xd6, 0x15, 0x00, 0x00, 0x19, 0x01, 0x00, 0x00, 0xc6, 0x0e, 0x00, 0x00, 
  0xe4, 0x05, 0x00, 0x00, 0x3a, 0x01, 0x00, 0x00, 0x4f, 0xdb, 0xff, 0xff, 
  0xe4, 0x16, 0x00, 0x00, 0x8d, 0xff, 0xff, 0xff, 0xfe, 0xee, 0xff, 0xff, 
  0x8c, 0x48, 0x00, 0x00, 0xd4, 0xf6, 0xff, 0xff, 0x86, 0xf3, 0xff, 0xff, 
  0x85, 0x1d, 0x00, 0x00, 0xb6, 0xdd, 0xff, 0xff, 0x56, 0x19, 0x00, 0x00, 
  0xe2, 0xe7, 0xff, 0xff, 0x62, 0x11, 0x00, 0x00, 0x48, 0xfb, 0xff, 0xff, 
  0xae, 0x2a, 0x00, 0x00, 0xa6, 0x03, 0x00, 0x00, 0x63, 0x47, 0x00, 0x00, 
  0xe7, 0x4a, 0x00, 0x00, 0xf0, 0x2b, 0x00, 0x00, 0x01, 0x24, 0x00, 0x00, 
  0xd1, 0x3f, 0x00, 0x00, 0x59, 0xee, 0xff, 0xff, 0x2f, 0x18, 0x00, 0x00, 
  0xcc, 0xd2, 0xff, 0xff, 0xd0, 0xd2, 0xff, 0xff, 0xee, 0xf0, 0xff, 0xff, 
  0x04, 0x00, 0x00, 0x00, 0x01, 0x00, 0x00, 0x00, 0x7f, 0x00, 0x00, 0x00, 
  0xfe, 0xf0, 0xff, 0xff, 0x04, 0x00, 0x00, 0x00, 0x00, 0x08, 0x00, 0x00, 
  0xed, 0x09, 0xf2, 0x24, 0x08, 0x81, 0x03, 0xfd, 0xd2, 0x0a, 0x12, 0x03, 
  0xf8, 0x39, 0xee, 0xdd, 0xde, 0x1d, 0xf4, 0xe2, 0xfc, 0x09, 0xe3, 0x2b, 
  0x18, 0x0d, 0xed, 0x0a, 0xde, 0x2b, 0x20, 0xe7, 0xcf, 0xf2, 0xc7, 0xd2, 
  0x28, 0x11, 0xd6, 0xe3, 0xce, 0xd9, 0x1c, 0x09, 0x25, 0xf6, 0x27, 0xb9, 
  0xf4, 0x3a, 0xed, 0xf0, 0xde, 0x39, 0xee, 0xce, 0xff, 0x0e, 0x12, 0xee, 
  0x1f, 0xec, 0xe1, 0x39, 0x00, 0xfd, 0xfd, 0xfe, 0x22, 0x7f, 0xf4, 0x08, 
  0xc2, 0x0a, 0xf9, 0xf5, 0xfe, 0x0e, 0xed, 0xfb, 0xf6, 0xef, 0xf2, 0xec, 
  0xee, 0xf6, 0xd5, 0x0c, 0x1a, 0xf2, 0x00, 0x24, 0x0a, 0x03, 0x05, 0x0f, 
  0xfc, 0x1b, 0xdb, 0xea, 0x24, 0x17, 0xee, 0xfc, 0xd1, 0xe8, 0xf9, 0x1d, 
  0xfe, 0xf5, 0x0e, 0xe2, 0xf5, 0x07, 0xed, 0xe8, 0xf0, 0x1d, 0xf2, 0xb4, 
  0xfe, 0x0e, 0x05, 0xf4, 0x1e, 0x17, 0xf7, 0x08, 0xe8, 0x28, 0x0b, 0x11, 
  0x09, 0x81, 0xef, 0xf9, 0xba, 0x1c, 0x1c, 0xeb, 0xf2, 0x22, 0xfa, 0xea, 
  0xea, 0x2e, 0xea, 0xe2, 0xf5, 0x0a, 0x2f, 0x3d, 0x18, 0x19, 0xdf, 0x29, 
  0x04, 0xff, 0xef, 0x02, 0x01, 0x1b, 0x32, 0x06, 0x11, 0x0b, 0xe1, 0xe5, 
  0x1b, 0x19, 0x03, 0x23, 0xf6, 0xf6, 0x14, 0x13, 0xe4, 0x01, 0xe9, 0xd4, 
  0xff, 0x09, 0xe8, 0xce, 0x19, 0xf9, 0xed, 0xdb, 0x18, 0x1a, 0xf3, 0x01, 
  0x0a, 0x2c, 0xf9, 0xe8, 0xf0, 0x81, 0x22, 0x0a, 0x31, 0x02, 0x15, 0x15, 
  0x05, 0xfa, 0x07, 0x0f, 0x00, 0x1e, 0x13, 0x0c, 0x1d, 0xf5, 0x40, 0x0c, 
  0x11, 0x0b, 0x13, 0xd6, 0x0d, 0x00, 0x04, 0x14, 0x19, 0xf5, 0x2c, 0x32, 
  0xd8, 0xdb, 0x1b, 0x15, 0x36, 0x02, 0x05, 0xe3, 0xf2, 0x18, 0x0a, 0x30, 
  0x23, 0xd5, 0x1c, 0x0b, 0x17, 0xf1, 0x02, 0x4d, 0x2e, 0x19, 0x0d, 0x1c, 
  0xe6, 0x16, 0xfa, 0xf9, 0xe9, 0xf7, 0x27, 0xee, 0x40, 0x7f, 0xec, 0x0b, 
  0x9a, 0x25, 0x39, 0xc6, 0xe6, 0xf8, 0xec, 0xde, 0xea, 0xef, 0xd8, 0xef, 
  0xed, 0x14, 0xeb, 0xda, 0x20, 0xee, 0xfe, 0xe2, 0xdf, 0xf7, 0x29, 0x30, 
  0x15, 0xdb, 0x23, 0xf0, 0xe4, 0xc4, 0xdf, 0xe0, 0x15, 0x34, 0xdf, 0xf1, 
  0xda, 0xec, 0x1a, 0x22, 0xc6, 0xf0, 0xcd, 0xe8, 0xf0, 0xf9, 0xf2, 0xbc, 
  0x18, 0x36, 0x01, 0xf0, 0xf1, 0x34, 0xf2, 0xf1, 0xfa, 0xf6, 0x17, 0xe5, 
  0xf3, 0xff, 0x34, 0x15, 0x7f, 0xed, 0xd7, 0x29, 0xf0, 0xd4, 0x2f, 0xf8, 
  0x19, 0xe1, 0x2e, 0x14, 0x21, 0x0d, 0x2f, 0xed, 0x06, 0xf0, 0x28, 0x0a, 
  0x2a, 0xd2, 0xdf, 0xcf, 0xec, 0x08, 0x08, 0x20, 0x0d, 0xf1, 0x16, 0x22, 
  0x24, 0xfb, 0x1b, 0x06, 0xf7, 0x2f, 0xca, 0x1f, 0x2b, 0xf2, 0x0a, 0x0d, 
  0xf9, 0x01, 0xee, 0x66, 0x03, 0xd2, 0x02, 0x27, 0x00, 0xec, 0x09, 0xf4, 
  0xf9, 0x24, 0x14, 0x0c, 0x0d, 0x81, 0x0a, 0x1c, 0x22, 0x11, 0x0f, 0x1e, 
  0x07, 0xd9, 0x1b, 0xfb, 0x1b, 0x27, 0x18, 0x16, 0x17, 0x02, 0x36, 0x0f, 
  0xf8, 0x21, 0xfe, 0xe6, 0x16, 0xf0, 0xed, 0x01, 0x11, 0xf3, 0x1b, 0x36, 
  0xfd, 0xe4, 0x0e, 0xfb, 0x2c, 0x19, 0xff, 0xfd, 0xe7, 0x15, 0xf8, 0x1a, 
  0x1d, 0xeb, 0x01, 0xfd, 0x16, 0xdd, 0x0c, 0x54, 0x2d, 0x08, 0x0f, 0x02, 
  0xee, 0x16, 0x08, 0xe2, 0x10, 0xfc, 0xe2, 0x23, 0xd1, 0x01, 0x22, 0x29, 
  0x7f, 0xf9, 0x03, 0x0a, 0x13, 0x2e, 0x27, 0x2e, 0x06, 0xfe, 0xfe, 0x2a, 
  0x0a, 0x00, 0x17, 0x23, 0xd9, 0x1b, 0x1a, 0x42, 0x02, 0x24, 0x07, 0xe2, 
  0xef, 0x17, 0x08, 0x33, 0x0d, 0x38, 0x07, 0x13, 0xf4, 0xe7, 0x0e, 0x1e, 
  0xf4, 0x21, 0x17, 0x0b, 0x2f, 0x30, 0x25, 0x2b, 0x02, 0x2a, 0xfd, 0x6e, 
  0xf7, 0xd5, 0xe3, 0x17, 0x3e, 0xd3, 0x1f, 0x1a, 0x09, 0xfd, 0x28, 0xf6, 
  0x1e, 0x7f, 0xe0, 0xe3, 0xae, 0xfd, 0x26, 0xdb, 0xf8, 0x31, 0xfe, 0xe9, 
  0xeb, 0xf3, 0x0d, 0x01, 0xe0, 0x1f, 0xc1, 0x1a, 0x26, 0x0f, 0x06, 0x18, 
  0xdd, 0x1b, 0x17, 0x2c, 0x06, 0x0f, 0xe3, 0xc4, 0x11, 0x0e, 0xf7, 0xf5, 
  0xf2, 0xf6, 0xfc, 0x27, 0x0b, 0xfb, 0x2c, 0xf6, 0xbf, 0x1e, 0xf6, 0xe5, 
  0xdc, 0x28, 0xe9, 0xbc, 0x03, 0x20, 0x0b, 0x02, 0x07, 0x10, 0xfa, 0x02, 
  0x04, 0x2d, 0x00, 0x01, 0xe1, 0x83, 0x25, 0x12, 0x2a, 0x12, 0xfc, 0x05, 
  0xe5, 0x1c, 0xfd, 0x1d, 0x0d, 0x40, 0xff, 0x0f, 0x0b, 0xf5, 0x3e, 0x20, 
  0x1a, 0x26, 0x12, 0x2e, 0x02, 0x1e, 0x03, 0x0d, 0x00, 0x05, 0x32, 0x3e, 
  0x36, 0x2b, 0xfa, 0xf3, 0x2d, 0x0e, 0x13, 0x22, 0x0f, 0x10, 0x1b, 0x1a, 
  0x33, 0x29, 0x1a, 0x0c, 0x12, 0x29, 0xe8, 0x7f, 0x30, 0x01, 0x08, 0x1c, 
  0x2f, 0x0a, 0x18, 0x0f, 0xf9, 0x30, 0x14, 0x0c, 0xf3, 0x81, 0xfc, 0x15, 
  0xb3, 0x0b, 0x18, 0xf8, 0x09, 0x24, 0xde, 0x01, 0xe6, 0x2d, 0xed, 0x03, 
  0xee, 0x01, 0x26, 0x3d, 0xfa, 0x1a, 0xe3, 0x0b, 0xfb, 0x28, 0xf8, 0xf7, 
  0x1d, 0x18, 0x28, 0x18, 0x24, 0x1e, 0xfc, 0xf0, 0x41, 0x12, 0xf4, 0x14, 
  0xf8, 0x05, 0xf2, 0x1f, 0xd6, 0x1b, 0xf2, 0xdc, 0xe0, 0x2a, 0xd7, 0xd6, 
  0x2c, 0x01, 0x05, 0xdc, 0x12, 0x12, 0xfd, 0x2a, 0x21, 0xd0, 0x13, 0xeb, 
  0x19, 0x7f, 0x05, 0x17, 0x23, 0xfd, 0x27, 0x29, 0xf0, 0xfb, 0x30, 0x0b, 
  0x0a, 0xb9, 0x0a, 0x25, 0x00, 0xf8, 0xd7, 0xb5, 0x08, 0xfb, 0x16, 0xe7, 
  0x03, 0xdd, 0x20, 0x18, 0x2a, 0xec, 0xd2, 0xff, 0xde, 0xec, 0x1f, 0x0b, 
  0xf9, 0x1d, 0xf3, 0xef, 0xe3, 0x18, 0x0a, 0xe4, 0x0a, 0xfb, 0x0c, 0x22, 
  0x1d, 0xeb, 0x03, 0x29, 0xc9, 0x23, 0x04, 0x1e, 0xfd, 0x1e, 0x0e, 0xee, 
  0xd6, 0x24, 0xf4, 0x0e, 0x17, 0x81, 0xc7, 0xd3, 0xe1, 0xeb, 0xdd, 0xc2, 
  0xe5, 0xff, 0xee, 0xd4, 0xeb, 0x31, 0xeb, 0x0a, 0xce, 0xe2, 0x06, 0x41, 
  0x21, 0x0e, 0xe6, 0x36, 0x0f, 0x1f, 0x14, 0xf4, 0xcc, 0x30, 0xad, 0xbd, 
  0x2f, 0x1e, 0xe1, 0xe9, 0xb6, 0xcd, 0x10, 0x3d, 0x15, 0xd1, 0xf4, 0xe9, 
  0xf1, 0x3d, 0xde, 0xd9, 0xd5, 0x15, 0xed, 0xa8, 0x0d, 0x21, 0x0f, 0x09, 
  0x2b, 0xf2, 0xd7, 0x30, 0xee, 0xe6, 0x25, 0x02, 0x11, 0x7f, 0xec, 0xf9, 
  0xad, 0xfe, 0x18, 0xe0, 0x0c, 0x02, 0xe9, 0xf6, 0xe4, 0xdb, 0xed, 0x04, 
  0xe5, 0x01, 0xe4, 0xe4, 0x05, 0x09, 0xe3, 0xfc, 0x09, 0xd7, 0x29, 0x1d, 
  0x04, 0xe3, 0xf4, 0xe5, 0xf8, 0xe7, 0xdf, 0xea, 0xf0, 0x14, 0xf6, 0xdc, 
  0xed, 0xe7, 0x0d, 0xe6, 0xd3, 0xe7, 0xde, 0xe4, 0xee, 0xf0, 0xe8, 0xcd, 
  0xce, 0x10, 0xfe, 0xf9, 0xf8, 0x0e, 0xfb, 0xdc, 0x1d, 0x0f, 0x0e, 0xed, 
  0x1e, 0x81, 0xfe, 0x07, 0x2f, 0x1a, 0xfe, 0x1b, 0xfa, 0xd8, 0x19, 0xf4, 
  0x1f, 0x2a, 0x1e, 0x1f, 0x13, 0x06, 0x0e, 0x0a, 0xf3, 0x17, 0x0e, 0xe9, 
  0x14, 0xf3, 0xee, 0xfa, 0x0e, 0xf6, 0x3a, 0x2b, 0xe1, 0xf8, 0x03, 0x11, 
  0x35, 0x1a, 0xe9, 0x02, 0xe9, 0xfd, 0xec, 0x35, 0x0f, 0xdf, 0x19, 0x22, 
  0x0f, 0x02, 0x0d, 0x5d, 0x43, 0x18, 0xff, 0x18, 0xd8, 0x17, 0x19, 0xdc, 
  0xe0, 0x0c, 0x07, 0xf8, 0x2a, 0x7f, 0xde, 0xed, 0x99, 0x15, 0x2d, 0xdb, 
  0xe9, 0xda, 0xde, 0xdd, 0xf1, 0x00, 0xfb, 0x0e, 0x07, 0xf1, 0x01, 0xdb, 
  0x30, 0xfd, 0xe7, 0xf1, 0x06, 0xd4, 0x2d, 0x24, 0x36, 0x04, 0x11, 0xfe, 
  0xe6, 0xcd, 0xdb, 0xfa, 0x2c, 0x36, 0xeb, 0x03, 0xd8, 0xe2, 0x21, 0x13, 
  0xe4, 0xe4, 0xee, 0xb6, 0xd9, 0xfc, 0xec, 0xb6, 0x28, 0x25, 0xe6, 0xe5, 
  0xf4, 0x22, 0xf0, 0xfc, 0x28, 0x28, 0x0c, 0xf9, 0xe2, 0x81, 0x40, 0x1e, 
  0x78, 0xe8, 0x09, 0x3a, 0xfd, 0xdd, 0x1e, 0x20, 0x01, 0x14, 0xfc, 0xfc, 
  0x31, 0x0e, 0x4e, 0x26, 0x06, 0x12, 0x18, 0xea, 0x1b, 0xd4, 0x0b, 0xfd, 
  0xf0, 0xde, 0x1b, 0x66, 0x18, 0xef, 0x37, 0x2f, 0x41, 0xed, 0xe7, 0xea, 
  0xf2, 0x1b, 0xe6, 0x21, 0x25, 0xf0, 0x00, 0x20, 0x14, 0xe0, 0x10, 0x7a, 
  0x20, 0x01, 0xef, 0x03, 0x04, 0x01, 0x33, 0x04, 0x0b, 0xe1, 0x1a, 0xf9, 
  0x14, 0x7f, 0x14, 0x09, 0x33, 0x15, 0x03, 0x15, 0x07, 0xf7, 0x18, 0x03, 
  0x14, 0xcc, 0x21, 0x09, 0x1c, 0xf4, 0xe8, 0xda, 0xfb, 0xf4, 0x01, 0xf2, 
  0x18, 0xf0, 0x09, 0x18, 0x14, 0xe8, 0xd7, 0xf1, 0xe9, 0x08, 0x12, 0x03, 
  0xe5, 0x22, 0x07, 0xeb, 0xfb, 0xfd, 0x0c, 0xee, 0x15, 0xff, 0x11, 0x0d, 
  0x1d, 0xf1, 0x19, 0x20, 0xc6, 0x0e, 0xfa, 0x1c, 0xf8, 0x11, 0x00, 0xe1, 
  0xee, 0x10, 0x2e, 0xdd, 0x22, 0x7f, 0xe7, 0x11, 0xc4, 0x13, 0x28, 0xd4, 
  0xf1, 0xe3, 0xd2, 0xfc, 0xe5, 0xf6, 0xe2, 0x02, 0xea, 0x00, 0xd7, 0xf4, 
  0x06, 0xff, 0xec, 0xde, 0xf1, 0xcf, 0x1f, 0x25, 0x18, 0xdd, 0x2a, 0xfc, 
  0xf2, 0xf7, 0xed, 0xe3, 0x0d, 0x1d, 0xef, 0xe7, 0xe2, 0xf9, 0x1b, 0x1e, 
  0xae, 0xf2, 0xeb, 0xca, 0xf6, 0xd0, 0x04, 0xba, 0xfc, 0x26, 0x13, 0xe8, 
  0xe1, 0x38, 0xe9, 0xdf, 0x22, 0xd6, 0x0f, 0x0a, 0x24, 0x7f, 0x0d, 0x0e, 
  0x41, 0xff, 0xe5, 0xff, 0x13, 0xf8, 0x06, 0x14, 0x1b, 0xf8, 0x09, 0x0c, 
  0x11, 0xf0, 0x06, 0xc6, 0xee, 0xe7, 0x1c, 0xde, 0x10, 0x07, 0x04, 0x0e, 
  0x10, 0xf7, 0xe2, 0x16, 0xe4, 0x09, 0x17, 0x16, 0xee, 0xe8, 0xed, 0xec, 
  0xf9, 0x16, 0x08, 0xfa, 0x1e, 0xe6, 0x12, 0x15, 0x1f, 0xe8, 0x0f, 0x2d, 
  0xee, 0x02, 0xf0, 0x1e, 0xf1, 0x19, 0x20, 0xf7, 0x00, 0x17, 0x4e, 0xc0, 
  0x50, 0x72, 0x00, 0xfa, 0x81, 0x40, 0x2e, 0xc1, 0x05, 0xca, 0xef, 0xe0, 
  0xf7, 0x14, 0xd4, 0xc8, 0xf5, 0xd2, 0xde, 0x01, 0x23, 0xe6, 0xd8, 0xb3, 
  0xe4, 0xfc, 0x47, 0x3e, 0x3e, 0xde, 0x11, 0xc9, 0xca, 0xdd, 0xe7, 0xf4, 
  0x23, 0x35, 0xd2, 0xe4, 0xcd, 0xd0, 0x3f, 0x3f, 0x95, 0xae, 0xe2, 0xc1, 
  0xc2, 0xb9, 0xcd, 0x9c, 0xf3, 0x46, 0x08, 0x02, 0xe3, 0x50, 0xf1, 0xfb, 
  0x0c, 0xfb, 0x00, 0x06, 0xce, 0x11, 0x2d, 0xf7, 0x7f, 0xd6, 0xcf, 0x0c, 
  0x18, 0x0b, 0x29, 0x09, 0x22, 0x18, 0x13, 0xfd, 0x07, 0x10, 0x37, 0x46, 
  0xf9, 0x24, 0x20, 0x05, 0x16, 0x12, 0xde, 0xcf, 0xf1, 0x2b, 0xe5, 0x26, 
  0x49, 0x3c, 0x20, 0x32, 0x12, 0xeb, 0x27, 0x2b, 0x20, 0x0e, 0xe1, 0xe3, 
  0x43, 0x41, 0x12, 0x29, 0x09, 0x3d, 0x02, 0x58, 0xf8, 0xcc, 0x0d, 0x2f, 
  0x10, 0xec, 0x0a, 0x22, 0x02, 0x0b, 0xf8, 0xef, 0x07, 0x81, 0xd6, 0x16, 
  0xc7, 0x0d, 0x10, 0xe4, 0x11, 0xe1, 0xdf, 0x01, 0xe6, 0x34, 0x01, 0xfb, 
  0xf4, 0xf6, 0x1d, 0x2a, 0xf2, 0x25, 0xf7, 0xeb, 0xe9, 0xfb, 0x06, 0x09, 
  0x1d, 0xf0, 0x1a, 0x13, 0xf3, 0xe5, 0xeb, 0xde, 0x29, 0x12, 0xfc, 0xf2, 
  0xe7, 0xf2, 0x05, 0x30, 0xdc, 0xfa, 0xfe, 0xed, 0xf0, 0xfe, 0xee, 0xd8, 
  0x25, 0x09, 0xed, 0x06, 0xe7, 0xfc, 0x0b, 0x00, 0x02, 0x2d, 0x1d, 0x08, 
  0x09, 0xdd, 0x24, 0x1e, 0x7b, 0xfa, 0xf0, 0x43, 0xf9, 0x38, 0x3c, 0x1a, 
  0x03, 0x12, 0x44, 0x40, 0x09, 0x0b, 0x25, 0x26, 0xd1, 0xf7, 0x20, 0x3a, 
  0x15, 0x50, 0x01, 0xd5, 0xc7, 0x22, 0x10, 0x0a, 0x50, 0x1f, 0x4b, 0x04, 
  0x00, 0xf7, 0x09, 0x50, 0x2f, 0x10, 0xd5, 0x04, 0x59, 0x5d, 0x22, 0x4d, 
  0x31, 0x2f, 0x30, 0x7f, 0x1a, 0xc7, 0xed, 0x10, 0x14, 0xf6, 0x3f, 0x23, 
  0xe6, 0x13, 0xe1, 0x01, 0xf1, 0x81, 0xda, 0xe5, 0xd2, 0x06, 0x0e, 0xf7, 
  0x0f, 0x1f, 0xd8, 0xe2, 0xe9, 0x35, 0x03, 0xfc, 0xfa, 0x16, 0xfd, 0x28, 
  0x01, 0x0d, 0xeb, 0x1a, 0xe3, 0xff, 0x1e, 0xfe, 0xe1, 0x0b, 0x33, 0xef, 
  0x2f, 0x2a, 0xe6, 0xe3, 0xff, 0xdf, 0xf5, 0x2d, 0x1b, 0xe6, 0x18, 0x0a, 
  0xec, 0x12, 0xe5, 0x02, 0x0a, 0x00, 0xe1, 0xd3, 0x1e, 0xf4, 0x0b, 0x0f, 
  0x11, 0xf6, 0x09, 0x0b, 0xe4, 0x24, 0x0c, 0x08, 0xef, 0x81, 0x04, 0x08, 
  0xa7, 0x0c, 0x26, 0xef, 0x15, 0x03, 0xe4, 0xed, 0xde, 0x28, 0xfc, 0xee, 
  0xe6, 0x17, 0x0e, 0x0b, 0x03, 0x29, 0xe0, 0x0d, 0xe7, 0x27, 0x1f, 0xfa, 
  0x01, 0x15, 0x33, 0x12, 0x0d, 0xfc, 0xf6, 0xf6, 0x33, 0xfe, 0x0b, 0x11, 
  0x05, 0xe2, 0x0d, 0x11, 0xe3, 0x18, 0xf3, 0xf2, 0xf5, 0x0a, 0xe9, 0xdb, 
  0x3d, 0x12, 0xef, 0xe2, 0x10, 0x05, 0xf2, 0x16, 0xed, 0x0c, 0xf3, 0xe2, 
  0xff, 0xd9, 0x26, 0x32, 0x7f, 0xcc, 0x04, 0x12, 0x02, 0xdd, 0x20, 0x2b, 
  0x43, 0x0c, 0x20, 0x1b, 0x01, 0xd5, 0x3c, 0xe7, 0xf4, 0x4d, 0xf0, 0xc3, 
  0x41, 0xf3, 0xb8, 0xd5, 0xf4, 0xf9, 0x30, 0x1e, 0xb5, 0x0a, 0x0d, 0x3d, 
  0x77, 0x01, 0x21, 0xb9, 0x22, 0x4b, 0x02, 0x4d, 0x29, 0xca, 0x08, 0x48, 
  0x34, 0xb7, 0x34, 0x73, 0x17, 0xe6, 0xd3, 0x27, 0xd2, 0x24, 0xfc, 0xf2, 
  0x1b, 0xf8, 0xfc, 0x09, 0x1b, 0x7f, 0x1d, 0x08, 0x2f, 0x0f, 0xf4, 0x16, 
  0x13, 0x23, 0x04, 0x12, 0x25, 0xd4, 0x00, 0x10, 0x09, 0xfc, 0xfe, 0x01, 
  0x02, 0xda, 0x1f, 0x28, 0x25, 0x2f, 0x1d, 0x01, 0x06, 0x11, 0xcc, 0xdc, 
  0x1f, 0x09, 0x27, 0x0f, 0xc6, 0x12, 0xf7, 0x29, 0x00, 0x1d, 0x20, 0xe8, 
  0x23, 0x35, 0x0d, 0x27, 0x19, 0x1e, 0x18, 0x2a, 0xc2, 0x2a, 0x15, 0x14, 
  0xff, 0x24, 0x07, 0x21, 0x0b, 0xfe, 0xed, 0x0a, 0x12, 0x7f, 0xe2, 0xfd, 
  0xc9, 0xf7, 0xf8, 0xdb, 0xff, 0x25, 0x05, 0xef, 0xf8, 0xfb, 0xfe, 0x00, 
  0xf4, 0x08, 0xe6, 0x1e, 0x07, 0x00, 0xef, 0x09, 0xe6, 0x2a, 0x26, 0x0a, 
  0xf0, 0x07, 0xcd, 0xe3, 0x13, 0x21, 0xf9, 0xe6, 0xe6, 0xf9, 0x18, 0x01, 
  0x0a, 0xf6, 0x24, 0xee, 0xe4, 0x25, 0xf9, 0xe2, 0xfb, 0x08, 0xe6, 0xd0, 
  0xde, 0x04, 0xec, 0x04, 0x1f, 0xfe, 0x01, 0x29, 0xd9, 0x2c, 0x1c, 0xe9, 
  0xf2, 0x81, 0xe4, 0xec, 0xb0, 0x2b, 0x17, 0xdb, 0x02, 0xf3, 0xf4, 0xf6, 
  0xd7, 0x26, 0xde, 0xf4, 0x10, 0x0c, 0x18, 0xe5, 0x1e, 0x15, 0xe1, 0xd1, 
  0x0a, 0xd6, 0x1f, 0x20, 0x07, 0xe4, 0x37, 0x08, 0xc9, 0xe2, 0x07, 0xe3, 
  0x33, 0x0e, 0xec, 0xdc, 0xdd, 0xeb, 0x0b, 0x39, 0xde, 0xe8, 0xd5, 0xeb, 
  0xfa, 0xde, 0x03, 0xbc, 0x29, 0x04, 0xff, 0xe5, 0xfb, 0x0d, 0xee, 0xe0, 
  0x0a, 0x1a, 0xfc, 0x1a, 0x03, 0x81, 0xe8, 0x19, 0xdd, 0x0d, 0xfa, 0xe1, 
  0xf5, 0x1e, 0xe5, 0xec, 0xfb, 0x26, 0xf1, 0xf8, 0xfe, 0xf7, 0x1b, 0x0c, 
  0xfa, 0x17, 0xfe, 0x1e, 0xf8, 0x24, 0x01, 0x14, 0xfe, 0x06, 0x1f, 0x15, 
  0x10, 0x0d, 0xf3, 0xfb, 0x25, 0x0c, 0xf7, 0x04, 0x12, 0xf4, 0xf7, 0x2e, 
  0xe5, 0x13, 0xf0, 0xd0, 0xf1, 0x13, 0xdd, 0xdf, 0x13, 0xfd, 0xf0, 0xfb, 
  0x1a, 0xf4, 0xe7, 0x11, 0x34, 0xcf, 0xdb, 0xe7, 0xf9, 0x7f, 0x0b, 0x39, 
  0x6a, 0xf9, 0xd3, 0x3c, 0xfc, 0xf5, 0x3c, 0x02, 0x21, 0xb9, 0x26, 0x21, 
  0x24, 0xf7, 0x0d, 0xe8, 0xd8, 0xd8, 0x01, 0xf4, 0x17, 0xe2, 0xe8, 0xec, 
  0xff, 0xd9, 0xf9, 0x1a, 0xc5, 0x02, 0x16, 0x20, 0xe5, 0xec, 0xeb, 0x0e, 
  0x23, 0x2e, 0x28, 0xbf, 0x0f, 0xff, 0x44, 0x28, 0x26, 0xc9, 0x28, 0x69, 
  0xbe, 0x07, 0x0c, 0x23, 0xe8, 0x21, 0x07, 0x02, 0x0a, 0xf9, 0xff, 0xff, 
  0x04, 0x00, 0x00, 0x00, 0x80, 0x00, 0x00, 0x00, 0x2e, 0x0c, 0x00, 0x00, 
  0xee, 0x15, 0x00, 0x00, 0x5f, 0xfa, 0xff, 0xff, 0xea, 0xf4, 0xff, 0xff, 
  0xfa, 0x22, 0x00, 0x00, 0xd8, 0xf6, 0xff, 0xff, 0x6d, 0xf7, 0xff, 0xff, 
  0xb7, 0xfc, 0xff, 0xff, 0x38, 0x1e, 0x00, 0x00, 0xd7, 0xf6, 0xff, 0xff, 
  0x67, 0xfb, 0xff, 0xff, 0x9f, 0x23, 0x00, 0x00, 0xb8, 0x16, 0x00, 0x00, 
  0x16, 0x20, 0x00, 0x00, 0xc9, 0xfe, 0xff, 0xff, 0x5f, 0x18, 0x00, 0x00, 
  0x3a, 0xf0, 0xff, 0xff, 0xba, 0x1d, 0x00, 0x00, 0x64, 0x1c, 0x00, 0x00, 
  0x7b, 0x12, 0x00, 0x00, 0x84, 0x29, 0x00, 0x00, 0x98, 0x01, 0x00, 0x00, 
  0x14, 0xf9, 0xff, 0xff, 0xaf, 0xe9, 0xff, 0xff, 0xae, 0x03, 0x00, 0x00, 
  0x76, 0x04, 0x00, 0x00, 0x89, 0xfd, 0xff, 0xff, 0x50, 0x1f, 0x00, 0x00, 
  0xde, 0x14, 0x00, 0x00, 0x13, 0x0d, 0x00, 0x00, 0xd4, 0xfc, 0xff, 0xff, 
  0x13, 0x10, 0x00, 0x00, 0x96, 0xf9, 0xff, 0xff, 0x04, 0x00, 0x00, 0x00, 
  0x80, 0x00, 0x00, 0x00, 0xdc, 0x36, 0xaa, 0xd8, 0x29, 0xd1, 0xb1, 0xb0, 
  0x33, 0xa7, 0xa1, 0x24, 0xe2, 0x7f, 0xb2, 0x37, 0xd9, 0x49, 0x39, 0xfe, 
  0x48, 0xc4, 0x98, 0xdd, 0xc2, 0xe6, 0xda, 0x21, 0xf9, 0x05, 0x9f, 0xe3, 
  0xc9, 0xa5, 0x4a, 0x3c, 0x04, 0xf2, 0x5e, 0xbd, 0x0c, 0x2d, 0x4d, 0x9a, 
  0xc3, 0x90, 0x36, 0x31, 0x06, 0x82, 0x0d, 0xb1, 0x1a, 0xcd, 0x56, 0xe0, 
  0xc3, 0x44, 0xee, 0x81, 0x9e, 0x4f, 0xfe, 0xb0, 0xcb, 0xb7, 0xc0, 0x16, 
  0xca, 0x2b, 0x23, 0x4d, 0xcd, 0x16, 0xd0, 0x16, 0xc3, 0x81, 0x25, 0xdb, 
  0x2a, 0x15, 0xc0, 0x21, 0xb2, 0x27, 0xd8, 0x35, 0xbf, 0xc6, 0x29, 0x1d, 
  0xd4, 0xc8, 0xcf, 0x33, 0x2f, 0x3c, 0x07, 0xca, 0xd4, 0xea, 0xc9, 0x2f, 
  0x26, 0x1b, 0x23, 0x9e, 0x38, 0x81, 0xb5, 0xe8, 0xf6, 0xc2, 0xaa, 0xd7, 
  0xcf, 0x1a, 0xde, 0x2c, 0x23, 0x23, 0xdc, 0x13, 0x30, 0xe2, 0x28, 0xd8, 
  0x22, 0xfa, 0xff, 0xff, 0x04, 0x00, 0x00, 0x00, 0x10, 0x00, 0x00, 0x00, 
  0x33, 0x18, 0x00, 0x00, 0x3d, 0xf0, 0xff, 0xff, 0xfc, 0xf5, 0xff, 0xff, 
  0x5e, 0xfb, 0xff, 0xff, 0x3e, 0xfa, 0xff, 0xff, 0x04, 0x00, 0x00, 0x00, 
  0x04, 0x00, 0x00, 0x00, 0x04, 0x00, 0x00, 0x00, 0x4e, 0xfa, 0xff, 0xff, 
  0x04, 0x00, 0x00, 0x00, 0x04, 0x00, 0x00, 0x00, 0x20, 0x00, 0x00, 0x00, 
  0x5e, 0xfa, 0xff, 0xff, 0x04, 0x00, 0x00, 0x00, 0x04, 0x00, 0x00, 0x00, 
  0x01, 0x00, 0x00, 0x00, 0x6e, 0xfa, 0xff, 0xff, 0x04, 0x00, 0x00, 0x00, 
  0x04, 0x00, 0x00, 0x00, 0x00, 0x00, 0x00, 0x00, 0x64, 0xdc, 0xff, 0xff, 
  0x68, 0xdc, 0xff, 0xff, 0x0f, 0x00, 0x00, 0x00, 0x4d, 0x4c, 0x49, 0x52, 
  0x20, 0x43, 0x6f, 0x6e, 0x76, 0x65, 0x72, 0x74, 0x65, 0x64, 0x2e, 0x00, 
  0x01, 0x00, 0x00, 0x00, 0x14, 0x00, 0x00, 0x00, 0x00, 0x00, 0x0e, 0x00, 
  0x18, 0x00, 0x14, 0x00, 0x10, 0x00, 0x0c, 0x00, 0x08, 0x00, 0x04, 0x00, 
  0x0e, 0x00, 0x00, 0x00, 0x14, 0x00, 0x00, 0x00, 0x1c, 0x00, 0x00, 0x00, 
  0x04, 0x06, 0x00, 0x00, 0x08, 0x06, 0x00, 0x00, 0x0c, 0x06, 0x00, 0x00, 
  0x04, 0x00, 0x00, 0x00, 0x6d, 0x61, 0x69, 0x6e, 0x00, 0x00, 0x00, 0x00, 
  0x1d, 0x00, 0x00, 0x00, 0xb4, 0x05, 0x00, 0x00, 0x54, 0x05, 0x00, 0x00, 
  0x04, 0x05, 0x00, 0x00, 0xdc, 0x04, 0x00, 0x00, 0x9c, 0x04, 0x00, 0x00, 
  0x54, 0x04, 0x00, 0x00, 0x2c, 0x04, 0x00, 0x00, 0xf4, 0x03, 0x00, 0x00, 
  0xd0, 0x03, 0x00, 0x00, 0x9c, 0x03, 0x00, 0x00, 0x6c, 0x03, 0x00, 0x00, 
  0x48, 0x03, 0x00, 0x00, 0x14, 0x03, 0x00, 0x00, 0xe0, 0x02, 0x00, 0x00, 
  0xac, 0x02, 0x00, 0x00, 0x78, 0x02, 0x00, 0x00, 0x44, 0x02, 0x00, 0x00, 
  0x1c, 0x02, 0x00, 0x00, 0xf8, 0x01, 0x00, 0x00, 0xc0, 0x01, 0x00, 0x00, 
  0x8c, 0x01, 0x00, 0x00, 0x58, 0x01, 0x00, 0x00, 0x24, 0x01, 0x00, 0x00, 
  0xf0, 0x00, 0x00, 0x00, 0xc8, 0x00, 0x00, 0x00, 0xa4, 0x00, 0x00, 0x00, 
  0x6c, 0x00, 0x00, 0x00, 0x38, 0x00, 0x00, 0x00, 0x04, 0x00, 0x00, 0x00, 
  0xd6, 0xfb, 0xff, 0xff, 0x14, 0x00, 0x00, 0x00, 0x00, 0x00, 0x00, 0x09, 
  0x14, 0x00, 0x00, 0x00, 0x18, 0x00, 0x00, 0x00, 0x0d, 0x00, 0x00, 0x00, 
  0x66, 0xfb, 0xff, 0xff, 0x00, 0x00, 0x80, 0x3f, 0x01, 0x00, 0x00, 0x00, 
  0x2d, 0x00, 0x00, 0x00, 0x01, 0x00, 0x00, 0x00, 0x2c, 0x00, 0x00, 0x00, 
  0x06, 0xfc, 0xff, 0xff, 0x14, 0x00, 0x00, 0x00, 0x00, 0x00, 0x00, 0x0b, 
  0x10, 0x00, 0x00, 0x00, 0x14, 0x00, 0x00, 0x00, 0x09, 0x00, 0x00, 0x00, 
  0x7c, 0xdd, 0xff, 0xff, 0x01, 0x00, 0x00, 0x00, 0x2c, 0x00, 0x00, 0x00, 
  0x02, 0x00, 0x00, 0x00, 0x17, 0x00, 0x00, 0x00, 0x2b, 0x00, 0x00, 0x00, 
  0x36, 0xfc, 0xff, 0xff, 0x14, 0x00, 0x00, 0x00, 0x00, 0x00, 0x00, 0x08, 
  0x10, 0x00, 0x00, 0x00, 0x14, 0x00, 0x00, 0x00, 0x05, 0x00, 0x00, 0x00, 
  0xac, 0xdd, 0xff, 0xff, 0x01, 0x00, 0x00, 0x00, 0x2b, 0x00, 0x00, 0x00, 
  0x03, 0x00, 0x00, 0x00, 0x2a, 0x00, 0x00, 0x00, 0x06, 0x00, 0x00, 0x00, 
  0x05, 0x00, 0x00, 0x00, 0x2a, 0xfc, 0xff, 0xff, 0x0c, 0x00, 0x00, 0x00, 
  0x10, 0x00, 0x00, 0x00, 0x0c, 0x00, 0x00, 0x00, 0x01, 0x00, 0x00, 0x00, 
  0x2a, 0x00, 0x00, 0x00, 0x01, 0x00, 0x00, 0x00, 0x29, 0x00, 0x00, 0x00, 
  0x4a, 0xfc, 0xff, 0xff, 0x0c, 0x00, 0x00, 0x00, 0x10, 0x00, 0x00, 0x00, 
  0x0b, 0x00, 0x00, 0x00, 0x01, 0x00, 0x00, 0x00, 0x29, 0x00, 0x00, 0x00, 
  0x02, 0x00, 0x00, 0x00, 0x28, 0x00, 0x00, 0x00, 0x0a, 0x00, 0x00, 0x00, 
  0xae, 0xfc, 0xff, 0xff, 0x14, 0x00, 0x00, 0x00, 0x00, 0x00, 0x00, 0x0b, 
  0x10, 0x00, 0x00, 0x00, 0x14, 0x00, 0x00, 0x00, 0x09, 0x00, 0x00, 0x00, 
  0x24, 0xde, 0xff, 0xff, 0x01, 0x00, 0x00, 0x00, 0x28, 0x00, 0x00, 0x00, 
  0x02, 0x00, 0x00, 0x00, 0x27, 0x00, 0x00, 0x00, 0x0e, 0x00, 0x00, 0x00, 
  0xde, 0xfc, 0xff, 0xff, 0x14, 0x00, 0x00, 0x00, 0x00, 0x00, 0x00, 0x15, 
  0x10, 0x00, 0x00, 0x00, 0x14, 0x00, 0x00, 0x00, 0x04, 0x00, 0x00, 0x00, 
  0x54, 0xde, 0xff, 0xff, 0x01, 0x00, 0x00, 0x00, 0x27, 0x00, 0x00, 0x00, 
  0x02, 0x00, 0x00, 0x00, 0x26, 0x00, 0x00, 0x00, 0x0b, 0x00, 0x00, 0x00, 
  0x0e, 0xfd, 0xff, 0xff, 0x14, 0x00, 0x00, 0x00, 0x00, 0x00, 0x00, 0x1c, 
  0x10, 0x00, 0x00, 0x00, 0x14, 0x00, 0x00, 0x00, 0x0a, 0x00, 0x00, 0x00, 
  0x84, 0xde, 0xff, 0xff, 0x01, 0x00, 0x00, 0x00, 0x26, 0x00, 0x00, 0x00, 
  0x02, 0x00, 0x00, 0x00, 0x25, 0x00, 0x00, 0x00, 0x0e, 0x00, 0x00, 0x00, 
  0x3e, 0xfd, 0xff, 0xff, 0x14, 0x00, 0x00, 0x00, 0x00, 0x00, 0x00, 0x0b, 
  0x10, 0x00, 0x00, 0x00, 0x14, 0x00, 0x00, 0x00, 0x09, 0x00, 0x00, 0x00, 
  0xb4, 0xde, 0xff, 0xff, 0x01, 0x00, 0x00, 0x00, 0x25, 0x00, 0x00, 0x00, 
  0x02, 0x00, 0x00, 0x00, 0x15, 0x00, 0x00, 0x00, 0x24, 0x00, 0x00, 0x00, 
  0x6e, 0xfd, 0xff, 0xff, 0x14, 0x00, 0x00, 0x00, 0x00, 0x00, 0x00, 0x08, 
  0x10, 0x00, 0x00, 0x00, 0x14, 0x00, 0x00, 0x00, 0x05, 0x00, 0x00, 0x00, 
  0xe4, 0xde, 0xff, 0xff, 0x01, 0x00, 0x00, 0x00, 0x24, 0x00, 0x00, 0x00, 
  0x03, 0x00, 0x00, 0x00, 0x23, 0x00, 0x00, 0x00, 0x08, 0x00, 0x00, 0x00, 
  0x07, 0x00, 0x00, 0x00, 0x62, 0xfd, 0xff, 0xff, 0x0c, 0x00, 0x00, 0x00, 
  0x10, 0x00, 0x00, 0x00, 0x0c, 0x00, 0x00, 0x00, 0x01, 0x00, 0x00, 0x00, 
  0x23, 0x00, 0x00, 0x00, 0x01, 0x00, 0x00, 0x00, 0x22, 0x00, 0x00, 0x00, 
  0x82, 0xfd, 0xff, 0xff, 0x0c, 0x00, 0x00, 0x00, 0x10, 0x00, 0x00, 0x00, 
  0x0b, 0x00, 0x00, 0x00, 0x01, 0x00, 0x00, 0x00, 0x22, 0x00, 0x00, 0x00, 
  0x02, 0x00, 0x00, 0x00, 0x21, 0x00, 0x00, 0x00, 0x09, 0x00, 0x00, 0x00, 
  0xe6, 0xfd, 0xff, 0xff, 0x14, 0x00, 0x00, 0x00, 0x00, 0x00, 0x00, 0x0b, 
  0x10, 0x00, 0x00, 0x00, 0x14, 0x00, 0x00, 0x00, 0x09, 0x00, 0x00, 0x00, 
  0x5c, 0xdf, 0xff, 0xff, 0x01, 0x00, 0x00, 0x00, 0x21, 0x00, 0x00, 0x00, 
  0x02, 0x00, 0x00, 0x00, 0x20, 0x00, 0x00, 0x00, 0x0e, 0x00, 0x00, 0x00, 
  0x16, 0xfe, 0xff, 0xff, 0x14, 0x00, 0x00, 0x00, 0x00, 0x00, 0x00, 0x15, 
  0x10, 0x00, 0x00, 0x00, 0x14, 0x00, 0x00, 0x00, 0x04, 0x00, 0x00, 0x00, 
  0x8c, 0xdf, 0xff, 0xff, 0x01, 0x00, 0x00, 0x00, 0x20, 0x00, 0x00, 0x00, 
  0x02, 0x00, 0x00, 0x00, 0x1f, 0x00, 0x00, 0x00, 0x0b, 0x00, 0x00, 0x00, 
  0x46, 0xfe, 0xff, 0xff, 0x14, 0x00, 0x00, 0x00, 0x00, 0x00, 0x00, 0x1c, 
  0x10, 0x00, 0x00, 0x00, 0x14, 0x00, 0x00, 0x00, 0x0a, 0x00, 0x00, 0x00, 
  0xbc, 0xdf, 0xff, 0xff, 0x01, 0x00, 0x00, 0x00, 0x1f, 0x00, 0x00, 0x00, 
  0x02, 0x00, 0x00, 0x00, 0x1e, 0x00, 0x00, 0x00, 0x0e, 0x00, 0x00, 0x00, 
  0x76, 0xfe, 0xff, 0xff, 0x14, 0x00, 0x00, 0x00, 0x00, 0x00, 0x00, 0x0b, 
  0x10, 0x00, 0x00, 0x00, 0x14, 0x00, 0x00, 0x00, 0x09, 0x00, 0x00, 0x00, 
  0xec, 0xdf, 0xff, 0xff, 0x01, 0x00, 0x00, 0x00, 0x1e, 0x00, 0x00, 0x00, 
  0x02, 0x00, 0x00, 0x00, 0x1d, 0x00, 0x00, 0x00, 0x1a, 0x00, 0x00, 0x00, 
  0xa6, 0xfe, 0xff, 0xff, 0x14, 0x00, 0x00, 0x00, 0x00, 0x00, 0x00, 0x15, 
  0x10, 0x00, 0x00, 0x00, 0x14, 0x00, 0x00, 0x00, 0x04, 0x00, 0x00, 0x00, 
  0x1c, 0xe0, 0xff, 0xff, 0x01, 0x00, 0x00, 0x00, 0x1d, 0x00, 0x00, 0x00, 
  0x02, 0x00, 0x00, 0x00, 0x1c, 0x00, 0x00, 0x00, 0x0e, 0x00, 0x00, 0x00, 
  0x96, 0xfe, 0xff, 0xff, 0x0c, 0x00, 0x00, 0x00, 0x10, 0x00, 0x00, 0x00, 
  0x08, 0x00, 0x00, 0x00, 0x01, 0x00, 0x00, 0x00, 0x1c, 0x00, 0x00, 0x00, 
  0x01, 0x00, 0x00, 0x00, 0x1b, 0x00, 0x00, 0x00, 0xf6, 0xfe, 0xff, 0xff, 
  0x14, 0x00, 0x00, 0x00, 0x00, 0x00, 0x00, 0x43, 0x10, 0x00, 0x00, 0x00, 
  0x14, 0x00, 0x00, 0x00, 0x07, 0x00, 0x00, 0x00, 0x6c, 0xe0, 0xff, 0xff, 
  0x01, 0x00, 0x00, 0x00, 0x1b, 0x00, 0x00, 0x00, 0x01, 0x00, 0x00, 0x00, 
  0x19, 0x00, 0x00, 0x00, 0x22, 0xff, 0xff, 0xff, 0x14, 0x00, 0x00, 0x00, 
  0x00, 0x00, 0x00, 0x15, 0x10, 0x00, 0x00, 0x00, 0x14, 0x00, 0x00, 0x00, 
  0x04, 0x00, 0x00, 0x00, 0x98, 0xe0, 0xff, 0xff, 0x01, 0x00, 0x00, 0x00, 
  0x1a, 0x00, 0x00, 0x00, 0x02, 0x00, 0x00, 0x00, 0x18, 0x00, 0x00, 0x00, 
  0x0e, 0x00, 0x00, 0x00, 0x12, 0xff, 0xff, 0xff, 0x0c, 0x00, 0x00, 0x00, 
  0x10, 0x00, 0x00, 0x00, 0x06, 0x00, 0x00, 0x00, 0x01, 0x00, 0x00, 0x00, 
  0x19, 0x00, 0x00, 0x00, 0x01, 0x00, 0x00, 0x00, 0x18, 0x00, 0x00, 0x00, 
  0x72, 0xff, 0xff, 0xff, 0x14, 0x00, 0x00, 0x00, 0x00, 0x00, 0x00, 0x08, 
  0x10, 0x00, 0x00, 0x00, 0x14, 0x00, 0x00, 0x00, 0x05, 0x00, 0x00, 0x00, 
  0xe8, 0xe0, 0xff, 0xff, 0x01, 0x00, 0x00, 0x00, 0x18, 0x00, 0x00, 0x00, 
  0x03, 0x00, 0x00, 0x00, 0x00, 0x00, 0x00, 0x00, 0x0d, 0x00, 0x00, 0x00, 
  0x0c, 0x00, 0x00, 0x00, 0x66, 0xff, 0xff, 0xff, 0x0c, 0x00, 0x00, 0x00, 
  0x10, 0x00, 0x00, 0x00, 0x03, 0x00, 0x00, 0x00, 0x01, 0x00, 0x00, 0x00, 
  0x17, 0x00, 0x00, 0x00, 0x02, 0x00, 0x00, 0x00, 0x16, 0x00, 0x00, 0x00, 
  0x10, 0x00, 0x00, 0x00, 0xca, 0xff, 0xff, 0xff, 0x14, 0x00, 0x00, 0x00, 
  0x00, 0x00, 0x00, 0x3b, 0x14, 0x00, 0x00, 0x00, 0x18, 0x00, 0x00, 0x00, 
  0x02, 0x00, 0x00, 0x00, 0x5a, 0xff, 0xff, 0xff, 0x02, 0x00, 0x00, 0x00, 
  0x01, 0x00, 0x00, 0x00, 0x16, 0x00, 0x00, 0x00, 0x02, 0x00, 0x00, 0x00, 
  0x12, 0x00, 0x00, 0x00, 0x04, 0x00, 0x00, 0x00, 0x00, 0x00, 0x0e, 0x00, 
  0x18, 0x00, 0x14, 0x00, 0x10, 0x00, 0x0c, 0x00, 0x0b, 0x00, 0x04, 0x00, 
  0x0e, 0x00, 0x00, 0x00, 0x14, 0x00, 0x00, 0x00, 0x00, 0x00, 0x00, 0x15, 
  0x10, 0x00, 0x00, 0x00, 0x14, 0x00, 0x00, 0x00, 0x04, 0x00, 0x00, 0x00, 
  0x84, 0xe1, 0xff, 0xff, 0x01, 0x00, 0x00, 0x00, 0x15, 0x00, 0x00, 0x00, 
  0x02, 0x00, 0x00, 0x00, 0x14, 0x00, 0x00, 0x00, 0x0e, 0x00, 0x00, 0x00, 
  0x00, 0x00, 0x0a, 0x00, 0x10, 0x00, 0x0c, 0x00, 0x08, 0x00, 0x04, 0x00, 
  0x0a, 0x00, 0x00, 0x00, 0x0c, 0x00, 0x00, 0x00, 0x10, 0x00, 0x00, 0x00, 
  0x03, 0x00, 0x00, 0x00, 0x01, 0x00, 0x00, 0x00, 0x14, 0x00, 0x00, 0x00, 
  0x02, 0x00, 0x00, 0x00, 0x13, 0x00, 0x00, 0x00, 0x0f, 0x00, 0x00, 0x00, 
  0xc2, 0xff, 0xff, 0xff, 0x1c, 0x00, 0x00, 0x00, 0x00, 0x00, 0x00, 0x3b, 
  0x1c, 0x00, 0x00, 0x00, 0x20, 0x00, 0x00, 0x00, 0x02, 0x00, 0x00, 0x00, 
  0x00, 0x00, 0x06, 0x00, 0x08, 0x00, 0x04, 0x00, 0x06, 0x00, 0x00, 0x00, 
  0x02, 0x00, 0x00, 0x00, 0x01, 0x00, 0x00, 0x00, 0x13, 0x00, 0x00, 0x00, 
  0x02, 0x00, 0x00, 0x00, 0x12, 0x00, 0x00, 0x00, 0x03, 0x00, 0x00, 0x00, 
  0x00, 0x00, 0x0e, 0x00, 0x1a, 0x00, 0x14, 0x00, 0x10, 0x00, 0x0c, 0x00, 
  0x0b, 0x00, 0x04, 0x00, 0x0e, 0x00, 0x00, 0x00, 0x24, 0x00, 0x00, 0x00, 
  0x00, 0x00, 0x00, 0x20, 0x24, 0x00, 0x00, 0x00, 0x28, 0x00, 0x00, 0x00, 
  0x01, 0x00, 0x00, 0x00, 0x00, 0x00, 0x0e, 0x00, 0x08, 0x00, 0x00, 0x00, 
  0x00, 0x00, 0x00, 0x00, 0x00, 0x00, 0x04, 0x00, 0x0e, 0x00, 0x00, 0x00, 
  0x01, 0x00, 0x00, 0x00, 0x01, 0x00, 0x00, 0x00, 0x12, 0x00, 0x00, 0x00, 
  0x04, 0x00, 0x00, 0x00, 0x11, 0x00, 0x00, 0x00, 0x01, 0x00, 0x00, 0x00, 
  0x02, 0x00, 0x00, 0x00, 0x02, 0x00, 0x00, 0x00, 0x00, 0x00, 0x0e, 0x00, 
  0x16, 0x00, 0x00, 0x00, 0x10, 0x00, 0x0c, 0x00, 0x0b, 0x00, 0x04, 0x00, 
  0x0e, 0x00, 0x00, 0x00, 0x18, 0x00, 0x00, 0x00, 0x00, 0x00, 0x00, 0x37, 
  0x18, 0x00, 0x00, 0x00, 0x1c, 0x00, 0x00, 0x00, 0x00, 0x00, 0x06, 0x00, 
  0x08, 0x00, 0x07, 0x00, 0x06, 0x00, 0x00, 0x00, 0x00, 0x00, 0x00, 0x02, 
  0x01, 0x00, 0x00, 0x00, 0x11, 0x00, 0x00, 0x00, 0x01, 0x00, 0x00, 0x00, 
  0x00, 0x00, 0x00, 0x00, 0x01, 0x00, 0x00, 0x00, 0x2d, 0x00, 0x00, 0x00, 
  0x01, 0x00, 0x00, 0x00, 0x00, 0x00, 0x00, 0x00, 0x2e, 0x00, 0x00, 0x00, 
  0x9c, 0x1d, 0x00, 0x00, 0x24, 0x1d, 0x00, 0x00, 0xcc, 0x1c, 0x00, 0x00, 
  0x7c, 0x1c, 0x00, 0x00, 0x28, 0x1c, 0x00, 0x00, 0x8c, 0x1b, 0x00, 0x00, 
  0xf0, 0x1a, 0x00, 0x00, 0x14, 0x19, 0x00, 0x00, 0x30, 0x17, 0x00, 0x00, 
  0xd4, 0x16, 0x00, 0x00, 0x78, 0x16, 0x00, 0x00, 0x1c, 0x16, 0x00, 0x00, 
  0xb0, 0x12, 0x00, 0x00, 0x44, 0x0f, 0x00, 0x00, 0xe8, 0x0e, 0x00, 0x00, 
  0x8c, 0x0e, 0x00, 0x00, 0x30, 0x0e, 0x00, 0x00, 0xe4, 0x0d, 0x00, 0x00, 
  0x94, 0x0d, 0x00, 0x00, 0x40, 0x0d, 0x00, 0x00, 0xc0, 0x0c, 0x00, 0x00, 
  0x44, 0x0c, 0x00, 0x00, 0xf0, 0x0b, 0x00, 0x00, 0x6c, 0x0b, 0x00, 0x00, 
  0xc0, 0x0a, 0x00, 0x00, 0x70, 0x0a, 0x00, 0x00, 0xd8, 0x09, 0x00, 0x00, 
  0x78, 0x09, 0x00, 0x00, 0x08, 0x09, 0x00, 0x00, 0x8c, 0x08, 0x00, 0x00, 
  0x10, 0x08, 0x00, 0x00, 0x94, 0x07, 0x00, 0x00, 0x18, 0x07, 0x00, 0x00, 
  0x9c, 0x06, 0x00, 0x00, 0x10, 0x06, 0x00, 0x00, 0x8c, 0x05, 0x00, 0x00, 
  0xc0, 0x04, 0x00, 0x00, 0x44, 0x04, 0x00, 0x00, 0xc8, 0x03, 0x00, 0x00, 
  0x4c, 0x03, 0x00, 0x00, 0xd0, 0x02, 0x00, 0x00, 0x3c, 0x02, 0x00, 0x00, 
  0xb0, 0x01, 0x00, 0x00, 0xfc, 0x00, 0x00, 0x00, 0x80, 0x00, 0x00, 0x00, 
  0x04, 0x00, 0x00, 0x00, 0x32, 0xe3, 0xff, 0xff, 0x00, 0x00, 0x00, 0x01, 
  0x18, 0x00, 0x00, 0x00, 0x20, 0x00, 0x00, 0x00, 0x3c, 0x00, 0x00, 0x00, 
  0x2e, 0x00, 0x00, 0x00, 0x00, 0x00, 0x00, 0x09, 0x50, 0x00, 0x00, 0x00, 
  0x02, 0x00, 0x00, 0x00, 0xff, 0xff, 0xff, 0xff, 0x04, 0x00, 0x00, 0x00, 
  0x1c, 0xe3, 0xff, 0xff, 0x08, 0x00, 0x00, 0x00, 0x10, 0x00, 0x00, 0x00, 
  0x01, 0x00, 0x00, 0x00, 0x80, 0xff, 0xff, 0xff, 0xff, 0xff, 0xff, 0xff, 
  0x01, 0x00, 0x00, 0x00, 0x00, 0x00, 0x80, 0x3b, 0x1b, 0x00, 0x00, 0x00, 
  0x53, 0x74, 0x61, 0x74, 0x65, 0x66, 0x75, 0x6c, 0x50, 0x61, 0x72, 0x74, 
  0x69, 0x74, 0x69, 0x6f, 0x6e, 0x65, 0x64, 0x43, 0x61, 0x6c, 0x6c, 0x5f, 
  0x31, 0x3a, 0x30, 0x00, 0x02, 0x00, 0x00, 0x00, 0x01, 0x00, 0x00, 0x00, 
  0x04, 0x00, 0x00, 0x00, 0xaa, 0xe3, 0xff, 0xff, 0x00, 0x00, 0x00, 0x01, 
  0x18, 0x00, 0x00, 0x00, 0x20, 0x00, 0x00, 0x00, 0x3c, 0x00, 0x00, 0x00, 
  0x2d, 0x00, 0x00, 0x00, 0x00, 0x00, 0x00, 0x09, 0x50, 0x00, 0x00, 0x00, 
  0x02, 0x00, 0x00, 0x00, 0xff, 0xff, 0xff, 0xff, 0x04, 0x00, 0x00, 0x00, 
  0x94, 0xe3, 0xff, 0xff, 0x08, 0x00, 0x00, 0x00, 0x10, 0x00, 0x00, 0x00, 
  0x01, 0x00, 0x00, 0x00, 0xfc, 0xff, 0xff, 0xff, 0xff, 0xff, 0xff, 0xff, 
  0x01, 0x00, 0x00, 0x00, 0xc5, 0x1c, 0x3e, 0x3d, 0x1a, 0x00, 0x00, 0x00, 
  0x66, 0x6f, 0x72, 0x5f, 0x6c, 0x6f, 0x6f, 0x70, 0x5f, 0x73, 0x6e, 0x6e, 
  0x5f, 0x6d, 0x6f, 0x64, 0x65, 0x6c, 0x5f, 0x31, 0x2f, 0x61, 0x64, 0x64, 
  0x5f, 0x34, 0x00, 0x00, 0x02, 0x00, 0x00, 0x00, 0x01, 0x00, 0x00, 0x00, 
  0x04, 0x00, 0x00, 0x00, 0x22, 0xe4, 0xff, 0xff, 0x00, 0x00, 0x00, 0x01, 
  0x18, 0x00, 0x00, 0x00, 0x20, 0x00, 0x00, 0x00, 0x40, 0x00, 0x00, 0x00, 
  0x2c, 0x00, 0x00, 0x00, 0x00, 0x00, 0x00, 0x09, 0x88, 0x00, 0x00, 0x00, 
  0x02, 0x00, 0x00, 0x00, 0xff, 0xff, 0xff, 0xff, 0x04, 0x00, 0x00, 0x00, 
  0x0c, 0xe4, 0xff, 0xff, 0x08, 0x00, 0x00, 0x00, 0x14, 0x00, 0x00, 0x00, 
  0x01, 0x00, 0x00, 0x00, 0xfc, 0xff, 0xff, 0xff, 0xff, 0xff, 0xff, 0xff, 
  0x00, 0x00, 0x00, 0x00, 0x01, 0x00, 0x00, 0x00, 0xc5, 0x1c, 0x3e, 0x3d, 
  0x4c, 0x00, 0x00, 0x00, 0x66, 0x6f, 0x72, 0x5f, 0x6c, 0x6f, 0x6f, 0x70, 
  0x5f, 0x73, 0x6e, 0x6e, 0x5f, 0x6d, 0x6f, 0x64, 0x65, 0x6c, 0x5f, 0x31, 
  0x2f, 0x64, 0x65, 0x6e, 0x73, 0x65, 0x5f, 0x32, 0x5f, 0x31, 0x2f, 0x4d, 
  0x61, 0x74, 0x4d, 0x75, 0x6c, 0x3b, 0x66, 0x6f, 0x72, 0x5f, 0x6c, 0x6f, 
  0x6f, 0x70, 0x5f, 0x73, 0x6e, 0x6e, 0x5f, 0x6d, 0x6f, 0x64, 0x65, 0x6c, 
  0x5f, 0x31, 0x2f, 0x64, 0x65, 0x6e, 0x73, 0x65, 0x5f, 0x32, 0x5f, 0x31, 
  0x2f, 0x42, 0x69, 0x61, 0x73, 0x41, 0x64, 0x64, 0x00, 0x00, 0x00, 0x00, 
  0x02, 0x00, 0x00, 0x00, 0x01, 0x00, 0x00, 0x00, 0x04, 0x00, 0x00, 0x00, 
  0xd2, 0xe4, 0xff, 0xff, 0x00, 0x00, 0x00, 0x01, 0x18, 0x00, 0x00, 0x00, 
  0x20, 0x00, 0x00, 0x00, 0x40, 0x00, 0x00, 0x00, 0x2b, 0x00, 0x00, 0x00, 
  0x00, 0x00, 0x00, 0x09, 0x60, 0x00, 0x00, 0x00, 0x02, 0x00, 0x00, 0x00, 
  0xff, 0xff, 0xff, 0xff, 0x20, 0x00, 0x00, 0x00, 0xbc, 0xe4, 0xff, 0xff, 
  0x08, 0x00, 0x00, 0x00, 0x14, 0x00, 0x00, 0x00, 0x01, 0x00, 0x00, 0x00, 
  0x80, 0xff, 0xff, 0xff, 0xff, 0xff, 0xff, 0xff, 0x00, 0x00, 0x00, 0x00, 
  0x01, 0x00, 0x00, 0x00, 0x81, 0x80, 0x80, 0x3b, 0x24, 0x00, 0x00, 0x00, 
  0x66, 0x6f, 0x72, 0x5f, 0x6c, 0x6f, 0x6f, 0x70, 0x5f, 0x73, 0x6e, 0x6e, 
  0x5f, 0x6d, 0x6f, 0x64, 0x65, 0x6c, 0x5f, 0x31, 0x2f, 0x63, 0x6c, 0x69, 
  0x70, 0x5f, 0x62, 0x79, 0x5f, 0x76, 0x61, 0x6c, 0x75, 0x65, 0x5f, 0x31, 
  0x00, 0x00, 0x00, 0x00, 0x02, 0x00, 0x00, 0x00, 0x01, 0x00, 0x00, 0x00, 
  0x20, 0x00, 0x00, 0x00, 0x5a, 0xe5, 0xff, 0xff, 0x00, 0x00, 0x00, 0x01, 
  0x18, 0x00, 0x00, 0x00, 0x20, 0x00, 0x00, 0x00, 0x40, 0x00, 0x00, 0x00, 
  0x2a, 0x00, 0x00, 0x00, 0x00, 0x00, 0x00, 0x09, 0x68, 0x00, 0x00, 0x00, 
  0x02, 0x00, 0x00, 0x00, 0xff, 0xff, 0xff, 0xff, 0x20, 0x00, 0x00, 0x00, 
  0x44, 0xe5, 0xff, 0xff, 0x08, 0x00, 0x00, 0x00, 0x14, 0x00, 0x00, 0x00, 
  0x01, 0x00, 0x00, 0x00, 0x6c, 0x00, 0x00, 0x00, 0x00, 0x00, 0x00, 0x00, 
  0x00, 0x00, 0x00, 0x00, 0x01, 0x00, 0x00, 0x00, 0x5c, 0x2e, 0x5a, 0x3d, 
  0x2c, 0x00, 0x00, 0x00, 0x66, 0x6f, 0x72, 0x5f, 0x6c, 0x6f, 0x6f, 0x70, 
  0x5f, 0x73, 0x6e, 0x6e, 0x5f, 0x6d, 0x6f, 0x64, 0x65, 0x6c, 0x5f, 0x31, 
  0x2f, 0x63, 0x6c, 0x69, 0x70, 0x5f, 0x62, 0x79, 0x5f, 0x76, 0x61, 0x6c, 
  0x75, 0x65, 0x5f, 0x31, 0x2f, 0x4d, 0x69, 0x6e, 0x69, 0x6d, 0x75, 0x6d, 
  0x00, 0x00, 0x00, 0x00, 0x02, 0x00, 0x00, 0x00, 0x01, 0x00, 0x00, 0x00, 
  0x20, 0x00, 0x00, 0x00, 0xea, 0xe5, 0xff, 0xff, 0x00, 0x00, 0x00, 0x01, 
  0x18, 0x00, 0x00, 0x00, 0x20, 0x00, 0x00, 0x00, 0x3c, 0x00, 0x00, 0x00, 
  0x29, 0x00, 0x00, 0x00, 0x00, 0x00, 0x00, 0x09, 0x50, 0x00, 0x00, 0x00, 
  0x02, 0x00, 0x00, 0x00, 0xff, 0xff, 0xff, 0xff, 0x20, 0x00, 0x00, 0x00, 
  0xd4, 0xe5, 0xff, 0xff, 0x08, 0x00, 0x00, 0x00, 0x10, 0x00, 0x00, 0x00, 
  0x01, 0x00, 0x00, 0x00, 0x6c, 0x00, 0x00, 0x00, 0x00, 0x00, 0x00, 0x00, 
  0x01, 0x00, 0x00, 0x00, 0x5c, 0x2e, 0x5a, 0x3d, 0x1a, 0x00, 0x00, 0x00, 
  0x66, 0x6f, 0x72, 0x5f, 0x6c, 0x6f, 0x6f, 0x70, 0x5f, 0x73, 0x6e, 0x6e, 
  0x5f, 0x6d, 0x6f, 0x64, 0x65, 0x6c, 0x5f, 0x31, 0x2f, 0x61, 0x64, 0x64, 
  0x5f, 0x33, 0x00, 0x00, 0x02, 0x00, 0x00, 0x00, 0x01, 0x00, 0x00, 0x00, 
  0x20, 0x00, 0x00, 0x00, 0x62, 0xe6, 0xff, 0xff, 0x00, 0x00, 0x00, 0x01, 
  0x18, 0x00, 0x00, 0x00, 0x20, 0x00, 0x00, 0x00, 0x3c, 0x00, 0x00, 0x00, 
  0x28, 0x00, 0x00, 0x00, 0x00, 0x00, 0x00, 0x09, 0x50, 0x00, 0x00, 0x00, 
  0x02, 0x00, 0x00, 0x00, 0xff, 0xff, 0xff, 0xff, 0x20, 0x00, 0x00, 0x00, 
  0x4c, 0xe6, 0xff, 0xff, 0x08, 0x00, 0x00, 0x00, 0x10, 0x00, 0x00, 0x00, 
  0x01, 0x00, 0x00, 0x00, 0x02, 0x00, 0x00, 0x00, 0x00, 0x00, 0x00, 0x00, 
  0x01, 0x00, 0x00, 0x00, 0x08, 0x58, 0xcd, 0x3d, 0x1a, 0x00, 0x00, 0x00, 
  0x66, 0x6f, 0x72, 0x5f, 0x6c, 0x6f, 0x6f, 0x70, 0x5f, 0x73, 0x6e, 0x6e, 
  0x5f, 0x6d, 0x6f, 0x64, 0x65, 0x6c, 0x5f, 0x31, 0x2f, 0x6d, 0x75, 0x6c, 
  0x5f, 0x36, 0x00, 0x00, 0x02, 0x00, 0x00, 0x00, 0x01, 0x00, 0x00, 0x00, 
  0x20, 0x00, 0x00, 0x00, 0xda, 0xe6, 0xff, 0xff, 0x00, 0x00, 0x00, 0x01, 
  0x18, 0x00, 0x00, 0x00, 0x20, 0x00, 0x00, 0x00, 0x3c, 0x00, 0x00, 0x00, 
  0x27, 0x00, 0x00, 0x00, 0x00, 0x00, 0x00, 0x09, 0x50, 0x00, 0x00, 0x00, 
  0x02, 0x00, 0x00, 0x00, 0xff, 0xff, 0xff, 0xff, 0x20, 0x00, 0x00, 0x00, 
  0xc4, 0xe6, 0xff, 0xff, 0x08, 0x00, 0x00, 0x00, 0x10, 0x00, 0x00, 0x00, 
  0x01, 0x00, 0x00, 0x00, 0x05, 0x00, 0x00, 0x00, 0x00, 0x00, 0x00, 0x00, 
  0x01, 0x00, 0x00, 0x00, 0x04, 0x54, 0xc9, 0x3d, 0x1a, 0x00, 0x00, 0x00, 
  0x66, 0x6f, 0x72, 0x5f, 0x6c, 0x6f, 0x6f, 0x70, 0x5f, 0x73, 0x6e, 0x6e, 
  0x5f, 0x6d, 0x6f, 0x64, 0x65, 0x6c, 0x5f, 0x31, 0x2f, 0x73, 0x75, 0x62, 
  0x5f, 0x32, 0x00, 0x00, 0x02, 0x00, 0x00, 0x00, 0x01, 0x00, 0x00, 0x00, 
  0x20, 0x00, 0x00, 0x00, 0x52, 0xe7, 0xff, 0xff, 0x00, 0x00, 0x00, 0x01, 
  0x18, 0x00, 0x00, 0x00, 0x20, 0x00, 0x00, 0x00, 0x3c, 0x00, 0x00, 0x00, 
  0x26, 0x00, 0x00, 0x00, 0x00, 0x00, 0x00, 0x09, 0x50, 0x00, 0x00, 0x00, 
  0x02, 0x00, 0x00, 0x00, 0xff, 0xff, 0xff, 0xff, 0x20, 0x00, 0x00, 0x00, 
  0x3c, 0xe7, 0xff, 0xff, 0x08, 0x00, 0x00, 0x00, 0x10, 0x00, 0x00, 0x00, 
  0x01, 0x00, 0x00, 0x00, 0xfb, 0xff, 0xff, 0xff, 0xff, 0xff, 0xff, 0xff, 
  0x01, 0x00, 0x00, 0x00, 0x14, 0x64, 0xd9, 0x3c, 0x1a, 0x00, 0x00, 0x00, 
  0x66, 0x6f, 0x72, 0x5f, 0x6c, 0x6f, 0x6f, 0x70, 0x5f, 0x73, 0x6e, 0x6e, 
  0x5f, 0x6d, 0x6f, 0x64, 0x65, 0x6c, 0x5f, 0x31, 0x2f, 0x61, 0x64, 0x64, 
  0x5f, 0x32, 0x00, 0x00, 0x02, 0x00, 0x00, 0x00, 0x01, 0x00, 0x00, 0x00, 
  0x20, 0x00, 0x00, 0x00, 0xca, 0xe7, 0xff, 0xff, 0x00, 0x00, 0x00, 0x01, 
  0x18, 0x00, 0x00, 0x00, 0x20, 0x00, 0x00, 0x00, 0x40, 0x00, 0x00, 0x00, 
  0x25, 0x00, 0x00, 0x00, 0x00, 0x00, 0x00, 0x09, 0xa0, 0x00, 0x00, 0x00, 
  0x02, 0x00, 0x00, 0x00, 0xff, 0xff, 0xff, 0xff, 0x20, 0x00, 0x00, 0x00, 
  0xb4, 0xe7, 0xff, 0xff, 0x08, 0x00, 0x00, 0x00, 0x14, 0x00, 0x00, 0x00, 
  0x01, 0x00, 0x00, 0x00, 0xf1, 0xff, 0xff, 0xff, 0xff, 0xff, 0xff, 0xff, 
  0x00, 0x00, 0x00, 0x00, 0x01, 0x00, 0x00, 0x00, 0x04, 0x54, 0xc9, 0x3c, 
  0x67, 0x00, 0x00, 0x00, 0x66, 0x6f, 0x72, 0x5f, 0x6c, 0x6f, 0x6f, 0x70, 
  0x5f, 0x73, 0x6e, 0x6e, 0x5f, 0x6d, 0x6f, 0x64, 0x65, 0x6c, 0x5f, 0x31, 
  0x2f, 0x64, 0x65, 0x6e, 0x73, 0x65, 0x5f, 0x31, 0x5f, 0x32, 0x2f, 0x4d, 
  0x61, 0x74, 0x4d, 0x75, 0x6c, 0x3b, 0x66, 0x6f, 0x72, 0x5f, 0x6c, 0x6f, 
  0x6f, 0x70, 0x5f, 0x73, 0x6e, 0x6e, 0x5f, 0x6d, 0x6f, 0x64, 0x65, 0x6c, 
  0x5f, 0x31, 0x2f, 0x64, 0x65, 0x6e, 0x73, 0x65, 0x5f, 0x31, 0x5f, 0x32, 
  0x2f, 0x42, 0x69, 0x61, 0x73, 0x41, 0x64, 0x64, 0x3b, 0x66, 0x6f, 0x72, 
  0x5f, 0x6c, 0x6f, 0x6f, 0x70, 0x5f, 0x73, 0x6e, 0x6e, 0x5f, 0x6d, 0x6f, 
  0x64, 0x65, 0x6c, 0x5f, 0x31, 0x2f, 0x6d, 0x75, 0x6c, 0x5f, 0x35, 0x00, 
  0x02, 0x00, 0x00, 0x00, 0x01, 0x00, 0x00, 0x00, 0x20, 0x00, 0x00, 0x00, 
  0x92, 0xe8, 0xff, 0xff, 0x00, 0x00, 0x00, 0x01, 0x18, 0x00, 0x00, 0x00, 
  0x20, 0x00, 0x00, 0x00, 0x3c, 0x00, 0x00, 0x00, 0x24, 0x00, 0x00, 0x00, 
  0x00, 0x00, 0x00, 0x09, 0x58, 0x00, 0x00, 0x00, 0x02, 0x00, 0x00, 0x00, 
  0xff, 0xff, 0xff, 0xff, 0x40, 0x00, 0x00, 0x00, 0x7c, 0xe8, 0xff, 0xff, 
  0x08, 0x00, 0x00, 0x00, 0x10, 0x00, 0x00, 0x00, 0x01, 0x00, 0x00, 0x00, 
  0x80, 0xff, 0xff, 0xff, 0xff, 0xff, 0xff, 0xff, 0x01, 0x00, 0x00, 0x00, 
  0x81, 0x80, 0x80, 0x3b, 0x22, 0x00, 0x00, 0x00, 0x66, 0x6f, 0x72, 0x5f, 
  0x6c, 0x6f, 0x6f, 0x70, 0x5f, 0x73, 0x6e, 0x6e, 0x5f, 0x6d, 0x6f, 0x64, 
  0x65, 0x6c, 0x5f, 0x31, 0x2f, 0x63, 0x6c, 0x69, 0x70, 0x5f, 0x62, 0x79, 
  0x5f, 0x76, 0x61, 0x6c, 0x75, 0x65, 0x00, 0x00, 0x02, 0x00, 0x00, 0x00, 
  0x01, 0x00, 0x00, 0x00, 0x40, 0x00, 0x00, 0x00, 0x12, 0xe9, 0xff, 0xff, 
  0x00, 0x00, 0x00, 0x01, 0x18, 0x00, 0x00, 0x00, 0x20, 0x00, 0x00, 0x00, 
  0x3c, 0x00, 0x00, 0x00, 0x23, 0x00, 0x00, 0x00, 0x00, 0x00, 0x00, 0x09, 
  0x60, 0x00, 0x00, 0x00, 0x02, 0x00, 0x00, 0x00, 0xff, 0xff, 0xff, 0xff, 
  0x40, 0x00, 0x00, 0x00, 0xfc, 0xe8, 0xff, 0xff, 0x08, 0x00, 0x00, 0x00, 
  0x10, 0x00, 0x00, 0x00, 0x01, 0x00, 0x00, 0x00, 0x63, 0x00, 0x00, 0x00, 
  0x00, 0x00, 0x00, 0x00, 0x01, 0x00, 0x00, 0x00, 0x2b, 0x6d, 0x11, 0x3d, 
  0x2a, 0x00, 0x00, 0x00, 0x66, 0x6f, 0x72, 0x5f, 0x6c, 0x6f, 0x6f, 0x70, 
  0x5f, 0x73, 0x6e, 0x6e, 0x5f, 0x6d, 0x6f, 0x64, 0x65, 0x6c, 0x5f, 0x31, 
  0x2f, 0x63, 0x6c, 0x69, 0x70, 0x5f, 0x62, 0x79, 0x5f, 0x76, 0x61, 0x6c, 
  0x75, 0x65, 0x2f, 0x4d, 0x69, 0x6e, 0x69, 0x6d, 0x75, 0x6d, 0x00, 0x00, 
  0x02, 0x00, 0x00, 0x00, 0x01, 0x00, 0x00, 0x00, 0x40, 0x00, 0x00, 0x00, 
  0x9a, 0xe9, 0xff, 0xff, 0x00, 0x00, 0x00, 0x01, 0x18, 0x00, 0x00, 0x00, 
  0x20, 0x00, 0x00, 0x00, 0x3c, 0x00, 0x00, 0x00, 0x22, 0x00, 0x00, 0x00, 
  0x00, 0x00, 0x00, 0x09, 0x50, 0x00, 0x00, 0x00, 0x02, 0x00, 0x00, 0x00, 
  0xff, 0xff, 0xff, 0xff, 0x40, 0x00, 0x00, 0x00, 0x84, 0xe9, 0xff, 0xff, 
  0x08, 0x00, 0x00, 0x00, 0x10, 0x00, 0x00, 0x00, 0x01, 0x00, 0x00, 0x00, 
  0x63, 0x00, 0x00, 0x00, 0x00, 0x00, 0x00, 0x00, 0x01, 0x00, 0x00, 0x00, 
  0x2b, 0x6d, 0x11, 0x3d, 0x1a, 0x00, 0x00, 0x00, 0x66, 0x6f, 0x72, 0x5f, 
  0x6c, 0x6f, 0x6f, 0x70, 0x5f, 0x73, 0x6e, 0x6e, 0x5f, 0x6d, 0x6f, 0x64, 
  0x65, 0x6c, 0x5f, 0x31, 0x2f, 0x61, 0x64, 0x64, 0x5f, 0x31, 0x00, 0x00, 
  0x02, 0x00, 0x00, 0x00, 0x01, 0x00, 0x00, 0x00, 0x40, 0x00, 0x00, 0x00, 
  0x12, 0xea, 0xff, 0xff, 0x00, 0x00, 0x00, 0x01, 0x18, 0x00, 0x00, 0x00, 
  0x20, 0x00, 0x00, 0x00, 0x3c, 0x00, 0x00, 0x00, 0x21, 0x00, 0x00, 0x00, 
  0x00, 0x00, 0x00, 0x09, 0x50, 0x00, 0x00, 0x00, 0x02, 0x00, 0x00, 0x00, 
  0xff, 0xff, 0xff, 0xff, 0x40, 0x00, 0x00, 0x00, 0xfc, 0xe9, 0xff, 0xff, 
  0x08, 0x00, 0x00, 0x00, 0x10, 0x00, 0x00, 0x00, 0x01, 0x00, 0x00, 0x00, 
  0x0f, 0x00, 0x00, 0x00, 0x00, 0x00, 0x00, 0x00, 0x01, 0x00, 0x00, 0x00, 
  0x66, 0xa2, 0x75, 0x3d, 0x1a, 0x00, 0x00, 0x00, 0x66, 0x6f, 0x72, 0x5f, 
  0x6c, 0x6f, 0x6f, 0x70, 0x5f, 0x73, 0x6e, 0x6e, 0x5f, 0x6d, 0x6f, 0x64, 
  0x65, 0x6c, 0x5f, 0x31, 0x2f, 0x6d, 0x75, 0x6c, 0x5f, 0x32, 0x00, 0x00, 
  0x02, 0x00, 0x00, 0x00, 0x01, 0x00, 0x00, 0x00, 0x40, 0x00, 0x00, 0x00, 
  0x8a, 0xea, 0xff, 0xff, 0x00, 0x00, 0x00, 0x01, 0x18, 0x00, 0x00, 0x00, 
  0x20, 0x00, 0x00, 0x00, 0x3c, 0x00, 0x00, 0x00, 0x20, 0x00, 0x00, 0x00, 
  0x00, 0x00, 0x00, 0x09, 0x50, 0x00, 0x00, 0x00, 0x02, 0x00, 0x00, 0x00, 
  0xff, 0xff, 0xff, 0xff, 0x40, 0x00, 0x00, 0x00, 0x74, 0xea, 0xff, 0xff, 
  0x08, 0x00, 0x00, 0x00, 0x10, 0x00, 0x00, 0x00, 0x01, 0x00, 0x00, 0x00, 
  0x13, 0x00, 0x00, 0x00, 0x00, 0x00, 0x00, 0x00, 0x01, 0x00, 0x00, 0x00, 
  0x5e, 0x9a, 0x6d, 0x3d, 0x18, 0x00, 0x00, 0x00, 0x66, 0x6f, 0x72, 0x5f, 
  0x6c, 0x6f, 0x6f, 0x70, 0x5f, 0x73, 0x6e, 0x6e, 0x5f, 0x6d, 0x6f, 0x64, 
  0x65, 0x6c, 0x5f, 0x31, 0x2f, 0x73, 0x75, 0x62, 0x00, 0x00, 0x00, 0x00, 
  0x02, 0x00, 0x00, 0x00, 0x01, 0x00, 0x00, 0x00, 0x40, 0x00, 0x00, 0x00, 
  0x02, 0xeb, 0xff, 0xff, 0x00, 0x00, 0x00, 0x01, 0x18, 0x00, 0x00, 0x00, 
  0x20, 0x00, 0x00, 0x00, 0x3c, 0x00, 0x00, 0x00, 0x1f, 0x00, 0x00, 0x00, 
  0x00, 0x00, 0x00, 0x09, 0x50, 0x00, 0x00, 0x00, 0x02, 0x00, 0x00, 0x00, 
  0xff, 0xff, 0xff, 0xff, 0x40, 0x00, 0x00, 0x00, 0xec, 0xea, 0xff, 0xff, 
  0x08, 0x00, 0x00, 0x00, 0x10, 0x00, 0x00, 0x00, 0x01, 0x00, 0x00, 0x00, 
  0x02, 0x00, 0x00, 0x00, 0x00, 0x00, 0x00, 0x00, 0x01, 0x00, 0x00, 0x00, 
  0x3f, 0xdd, 0x86, 0x3c, 0x18, 0x00, 0x00, 0x00, 0x66, 0x6f, 0x72, 0x5f, 
  0x6c, 0x6f, 0x6f, 0x70, 0x5f, 0x73, 0x6e, 0x6e, 0x5f, 0x6d, 0x6f, 0x64, 
  0x65, 0x6c, 0x5f, 0x31, 0x2f, 0x61, 0x64, 0x64, 0x00, 0x00, 0x00, 0x00, 
  0x02, 0x00, 0x00, 0x00, 0x01, 0x00, 0x00, 0x00, 0x40, 0x00, 0x00, 0x00, 
  0x7a, 0xeb, 0xff, 0xff, 0x00, 0x00, 0x00, 0x01, 0x18, 0x00, 0x00, 0x00, 
  0x20, 0x00, 0x00, 0x00, 0x3c, 0x00, 0x00, 0x00, 0x1e, 0x00, 0x00, 0x00, 
  0x00, 0x00, 0x00, 0x09, 0x50, 0x00, 0x00, 0x00, 0x02, 0x00, 0x00, 0x00, 
  0xff, 0xff, 0xff, 0xff, 0x40, 0x00, 0x00, 0x00, 0x64, 0xeb, 0xff, 0xff, 
  0x08, 0x00, 0x00, 0x00, 0x10, 0x00, 0x00, 0x00, 0x01, 0x00, 0x00, 0x00, 
  0xf1, 0xff, 0xff, 0xff, 0xff, 0xff, 0xff, 0xff, 0x01, 0x00, 0x00, 0x00, 
  0x5e, 0x9a, 0x6d, 0x3c, 0x18, 0x00, 0x00, 0x00, 0x66, 0x6f, 0x72, 0x5f, 
  0x6c, 0x6f, 0x6f, 0x70, 0x5f, 0x73, 0x6e, 0x6e, 0x5f, 0x6d, 0x6f, 0x64, 
  0x65, 0x6c, 0x5f, 0x31, 0x2f, 0x6d, 0x75, 0x6c, 0x00, 0x00, 0x00, 0x00, 
  0x02, 0x00, 0x00, 0x00, 0x01, 0x00, 0x00, 0x00, 0x40, 0x00, 0x00, 0x00, 
  0xf2, 0xeb, 0xff, 0xff, 0x00, 0x00, 0x00, 0x01, 0x18, 0x00, 0x00, 0x00, 
  0x20, 0x00, 0x00, 0x00, 0x3c, 0x00, 0x00, 0x00, 0x1d, 0x00, 0x00, 0x00, 
  0x00, 0x00, 0x00, 0x09, 0x44, 0x00, 0x00, 0x00, 0x02, 0x00, 0x00, 0x00, 
  0xff, 0xff, 0xff, 0xff, 0x40, 0x00, 0x00, 0x00, 0xdc, 0xeb, 0xff, 0xff, 
  0x08, 0x00, 0x00, 0x00, 0x10, 0x00, 0x00, 0x00, 0x01, 0x00, 0x00, 0x00, 
  0x00, 0x00, 0x00, 0x00, 0x00, 0x00, 0x00, 0x00, 0x01, 0x00, 0x00, 0x00, 
  0x7b, 0xbe, 0x06, 0x32, 0x0c, 0x00, 0x00, 0x00, 0x74, 0x66, 0x6c, 0x2e, 
  0x71, 0x75, 0x61, 0x6e, 0x74, 0x69, 0x7a, 0x65, 0x00, 0x00, 0x00, 0x00, 
  0x02, 0x00, 0x00, 0x00, 0x01, 0x00, 0x00, 0x00, 0x40, 0x00, 0x00, 0x00, 
  0x26, 0xff, 0xff, 0xff, 0x00, 0x00, 0x00, 0x01, 0x14, 0x00, 0x00, 0x00, 
  0x1c, 0x00, 0x00, 0x00, 0x1c, 0x00, 0x00, 0x00, 0x1c, 0x00, 0x00, 0x00, 
  0x38, 0x00, 0x00, 0x00, 0x02, 0x00, 0x00, 0x00, 0xff, 0xff, 0xff, 0xff, 
  0x40, 0x00, 0x00, 0x00, 0xc8, 0xec, 0xff, 0xff, 0x1f, 0x00, 0x00, 0x00, 
  0x66, 0x6f, 0x72, 0x5f, 0x6c, 0x6f, 0x6f, 0x70, 0x5f, 0x73, 0x6e, 0x6e, 
  0x5f, 0x6d, 0x6f, 0x64, 0x65, 0x6c, 0x5f, 0x31, 0x2f, 0x7a, 0x65, 0x72, 
  0x6f, 0x73, 0x5f, 0x6c, 0x69, 0x6b, 0x65, 0x00, 0x02, 0x00, 0x00, 0x00, 
  0x01, 0x00, 0x00, 0x00, 0x40, 0x00, 0x00, 0x00, 0xba, 0xec, 0xff, 0xff, 
  0x00, 0x00, 0x00, 0x01, 0x18, 0x00, 0x00, 0x00, 0x20, 0x00, 0x00, 0x00, 
  0x40, 0x00, 0x00, 0x00, 0x1b, 0x00, 0x00, 0x00, 0x00, 0x00, 0x00, 0x09, 
  0x54, 0x00, 0x00, 0x00, 0x02, 0x00, 0x00, 0x00, 0xff, 0xff, 0xff, 0xff, 
  0x40, 0x00, 0x00, 0x00, 0xa4, 0xec, 0xff, 0xff, 0x08, 0x00, 0x00, 0x00, 
  0x14, 0x00, 0x00, 0x00, 0x01, 0x00, 0x00, 0x00, 0xf1, 0xff, 0xff, 0xff, 
  0xff, 0xff, 0xff, 0xff, 0x00, 0x00, 0x00, 0x00, 0x01, 0x00, 0x00, 0x00, 
  0x5e, 0x9a, 0x6d, 0x3c, 0x1a, 0x00, 0x00, 0x00, 0x66, 0x6f, 0x72, 0x5f, 
  0x6c, 0x6f, 0x6f, 0x70, 0x5f, 0x73, 0x6e, 0x6e, 0x5f, 0x6d, 0x6f, 0x64, 
  0x65, 0x6c, 0x5f, 0x31, 0x2f, 0x6d, 0x75, 0x6c, 0x5f, 0x31, 0x00, 0x00, 
  0x02, 0x00, 0x00, 0x00, 0x01, 0x00, 0x00, 0x00, 0x40, 0x00, 0x00, 0x00, 
  0x00, 0x00, 0x16, 0x00, 0x1c, 0x00, 0x18, 0x00, 0x00, 0x00, 0x14, 0x00, 
  0x10, 0x00, 0x0c, 0x00, 0x00, 0x00, 0x00, 0x00, 0x08, 0x00, 0x07, 0x00, 
  0x16, 0x00, 0x00, 0x00, 0x00, 0x00, 0x00, 0x01, 0x14, 0x00, 0x00, 0x00, 
  0x1c, 0x00, 0x00, 0x00, 0x1c, 0x00, 0x00, 0x00, 0x1a, 0x00, 0x00, 0x00, 
  0x28, 0x00, 0x00, 0x00, 0x02, 0x00, 0x00, 0x00, 0xff, 0xff, 0xff, 0xff, 
  0x40, 0x00, 0x00, 0x00, 0xb8, 0xed, 0xff, 0xff, 0x0e, 0x00, 0x00, 0x00, 
  0x74, 0x66, 0x6c, 0x2e, 0x64, 0x65, 0x71, 0x75, 0x61, 0x6e, 0x74, 0x69, 
  0x7a, 0x65, 0x00, 0x00, 0x02, 0x00, 0x00, 0x00, 0x01, 0x00, 0x00, 0x00, 
  0x40, 0x00, 0x00, 0x00, 0x9a, 0xed, 0xff, 0xff, 0x00, 0x00, 0x00, 0x01, 
  0x18, 0x00, 0x00, 0x00, 0x20, 0x00, 0x00, 0x00, 0x3c, 0x00, 0x00, 0x00, 
  0x19, 0x00, 0x00, 0x00, 0x00, 0x00, 0x00, 0x09, 0x80, 0x00, 0x00, 0x00, 
  0x02, 0x00, 0x00, 0x00, 0xff, 0xff, 0xff, 0xff, 0x40, 0x00, 0x00, 0x00, 
  0x84, 0xed, 0xff, 0xff, 0x08, 0x00, 0x00, 0x00, 0x10, 0x00, 0x00, 0x00, 
  0x01, 0x00, 0x00, 0x00, 0xf1, 0xff, 0xff, 0xff, 0xff, 0xff, 0xff, 0xff, 
  0x01, 0x00, 0x00, 0x00, 0x5e, 0x9a, 0xed, 0x3c, 0x48, 0x00, 0x00, 0x00, 
  0x66, 0x6f, 0x72, 0x5f, 0x6c, 0x6f, 0x6f, 0x70, 0x5f, 0x73, 0x6e, 0x6e, 
  0x5f, 0x6d, 0x6f, 0x64, 0x65, 0x6c, 0x5f, 0x31, 0x2f, 0x64, 0x65, 0x6e, 
  0x73, 0x65, 0x5f, 0x31, 0x2f, 0x4d, 0x61, 0x74, 0x4d, 0x75, 0x6c, 0x3b, 
  0x66, 0x6f, 0x72, 0x5f, 0x6c, 0x6f, 0x6f, 0x70, 0x5f, 0x73, 0x6e, 0x6e, 
  0x5f, 0x6d, 0x6f, 0x64, 0x65, 0x6c, 0x5f, 0x31, 0x2f, 0x64, 0x65, 0x6e, 
  0x73, 0x65, 0x5f, 0x31, 0x2f, 0x42, 0x69, 0x61, 0x73, 0x41, 0x64, 0x64, 
  0x00, 0x00, 0x00, 0x00, 0x02, 0x00, 0x00, 0x00, 0x01, 0x00, 0x00, 0x00, 
  0x40, 0x00, 0x00, 0x00, 0x42, 0xee, 0xff, 0xff, 0x00, 0x00, 0x00, 0x01, 
  0x18, 0x00, 0x00, 0x00, 0x20, 0x00, 0x00, 0x00, 0x40, 0x00, 0x00, 0x00, 
  0x18, 0x00, 0x00, 0x00, 0x00, 0x00, 0x00, 0x09, 0x58, 0x00, 0x00, 0x00, 
  0x02, 0x00, 0x00, 0x00, 0xff, 0xff, 0xff, 0xff, 0x04, 0x00, 0x00, 0x00, 
  0x2c, 0xee, 0xff, 0xff, 0x08, 0x00, 0x00, 0x00, 0x14, 0x00, 0x00, 0x00, 
  0x01, 0x00, 0x00, 0x00, 0x00, 0x00, 0x00, 0x00, 0x00, 0x00, 0x00, 0x00, 
  0x00, 0x00, 0x00, 0x00, 0x01, 0x00, 0x00, 0x00, 0x7b, 0xbe, 0x06, 0x32, 
  0x1c, 0x00, 0x00, 0x00, 0x66, 0x6f, 0x72, 0x5f, 0x6c, 0x6f, 0x6f, 0x70, 
  0x5f, 0x73, 0x6e, 0x6e, 0x5f, 0x6d, 0x6f, 0x64, 0x65, 0x6c, 0x5f, 0x31, 
  0x2f, 0x7a, 0x65, 0x72, 0x6f, 0x73, 0x5f, 0x31, 0x00, 0x00, 0x00, 0x00, 
  0x02, 0x00, 0x00, 0x00, 0x01, 0x00, 0x00, 0x00, 0x04, 0x00, 0x00, 0x00, 
  0x36, 0xef, 0xff, 0xff, 0x00, 0x00, 0x00, 0x01, 0x14, 0x00, 0x00, 0x00, 
  0x14, 0x00, 0x00, 0x00, 0x17, 0x00, 0x00, 0x00, 0x00, 0x00, 0x00, 0x02, 
  0x30, 0x00, 0x00, 0x00, 0x20, 0xef, 0xff, 0xff, 0x23, 0x00, 0x00, 0x00, 
  0x66, 0x6f, 0x72, 0x5f, 0x6c, 0x6f, 0x6f, 0x70, 0x5f, 0x73, 0x6e, 0x6e, 
  0x5f, 0x6d, 0x6f, 0x64, 0x65, 0x6c, 0x5f, 0x31, 0x2f, 0x7a, 0x65, 0x72, 
  0x6f, 0x73, 0x5f, 0x31, 0x2f, 0x70, 0x61, 0x63, 0x6b, 0x65, 0x64, 0x00, 
  0x01, 0x00, 0x00, 0x00, 0x02, 0x00, 0x00, 0x00, 0x12, 0xef, 0xff, 0xff, 
  0x00, 0x00, 0x00, 0x01, 0x18, 0x00, 0x00, 0x00, 0x20, 0x00, 0x00, 0x00, 
  0x3c, 0x00, 0x00, 0x00, 0x16, 0x00, 0x00, 0x00, 0x00, 0x00, 0x00, 0x09, 
  0x50, 0x00, 0x00, 0x00, 0x02, 0x00, 0x00, 0x00, 0xff, 0xff, 0xff, 0xff, 
  0x20, 0x00, 0x00, 0x00, 0xfc, 0xee, 0xff, 0xff, 0x08, 0x00, 0x00, 0x00, 
  0x10, 0x00, 0x00, 0x00, 0x01, 0x00, 0x00, 0x00, 0xf1, 0xff, 0xff, 0xff, 
  0xff, 0xff, 0xff, 0xff, 0x01, 0x00, 0x00, 0x00, 0x04, 0x54, 0xc9, 0x3c, 
  0x1a, 0x00, 0x00, 0x00, 0x66, 0x6f, 0x72, 0x5f, 0x6c, 0x6f, 0x6f, 0x70, 
  0x5f, 0x73, 0x6e, 0x6e, 0x5f, 0x6d, 0x6f, 0x64, 0x65, 0x6c, 0x5f, 0x31, 
  0x2f, 0x6d, 0x75, 0x6c, 0x5f, 0x34, 0x00, 0x00, 0x02, 0x00, 0x00, 0x00, 
  0x01, 0x00, 0x00, 0x00, 0x20, 0x00, 0x00, 0x00, 0x8a, 0xef, 0xff, 0xff, 
  0x00, 0x00, 0x00, 0x01, 0x18, 0x00, 0x00, 0x00, 0x20, 0x00, 0x00, 0x00, 
  0x40, 0x00, 0x00, 0x00, 0x15, 0x00, 0x00, 0x00, 0x00, 0x00, 0x00, 0x09, 
  0x54, 0x00, 0x00, 0x00, 0x02, 0x00, 0x00, 0x00, 0xff, 0xff, 0xff, 0xff, 
  0x20, 0x00, 0x00, 0x00, 0x74, 0xef, 0xff, 0xff, 0x08, 0x00, 0x00, 0x00, 
  0x14, 0x00, 0x00, 0x00, 0x01, 0x00, 0x00, 0x00, 0x00, 0x00, 0x00, 0x00, 
  0x00, 0x00, 0x00, 0x00, 0x00, 0x00, 0x00, 0x00, 0x01, 0x00, 0x00, 0x00, 
  0x7b, 0xbe, 0x06, 0x32, 0x1a, 0x00, 0x00, 0x00, 0x66, 0x6f, 0x72, 0x5f, 
  0x6c, 0x6f, 0x6f, 0x70, 0x5f, 0x73, 0x6e, 0x6e, 0x5f, 0x6d, 0x6f, 0x64, 
  0x65, 0x6c, 0x5f, 0x31, 0x2f, 0x7a, 0x65, 0x72, 0x6f, 0x73, 0x00, 0x00, 
  0x02, 0x00, 0x00, 0x00, 0x01, 0x00, 0x00, 0x00, 0x20, 0x00, 0x00, 0x00, 
  0x7a, 0xf0, 0xff, 0xff, 0x00, 0x00, 0x00, 0x01, 0x14, 0x00, 0x00, 0x00, 
  0x14, 0x00, 0x00, 0x00, 0x14, 0x00, 0x00, 0x00, 0x00, 0x00, 0x00, 0x02, 
  0x30, 0x00, 0x00, 0x00, 0x64, 0xf0, 0xff, 0xff, 0x21, 0x00, 0x00, 0x00, 
  0x66, 0x6f, 0x72, 0x5f, 0x6c, 0x6f, 0x6f, 0x70, 0x5f, 0x73, 0x6e, 0x6e, 
  0x5f, 0x6d, 0x6f, 0x64, 0x65, 0x6c, 0x5f, 0x31, 0x2f, 0x7a, 0x65, 0x72, 
  0x6f, 0x73, 0x2f, 0x70, 0x61, 0x63, 0x6b, 0x65, 0x64, 0x00, 0x00, 0x00, 
  0x01, 0x00, 0x00, 0x00, 0x02, 0x00, 0x00, 0x00, 0xca, 0xf0, 0xff, 0xff, 
  0x00, 0x00, 0x00, 0x01, 0x14, 0x00, 0x00, 0x00, 0x14, 0x00, 0x00, 0x00, 
  0x13, 0x00, 0x00, 0x00, 0x00, 0x00, 0x00, 0x02, 0x30, 0x00, 0x00, 0x00, 
  0xb4, 0xf0, 0xff, 0xff, 0x22, 0x00, 0x00, 0x00, 0x66, 0x6f, 0x72, 0x5f, 
  0x6c, 0x6f, 0x6f, 0x70, 0x5f, 0x73, 0x6e, 0x6e, 0x5f, 0x6d, 0x6f, 0x64, 
  0x65, 0x6c, 0x5f, 0x31, 0x2f, 0x73, 0x74, 0x72, 0x69, 0x64, 0x65, 0x64, 
  0x5f, 0x73, 0x6c, 0x69, 0x63, 0x65, 0x00, 0x00, 0x00, 0x00, 0x00, 0x00, 
  0x16, 0xf1, 0xff, 0xff, 0x00, 0x00, 0x00, 0x01, 0x14, 0x00, 0x00, 0x00, 
  0x14, 0x00, 0x00, 0x00, 0x12, 0x00, 0x00, 0x00, 0x00, 0x00, 0x00, 0x02, 
  0x28, 0x00, 0x00, 0x00, 0x00, 0xf1, 0xff, 0xff, 0x1a, 0x00, 0x00, 0x00, 
  0x66, 0x6f, 0x72, 0x5f, 0x6c, 0x6f, 0x6f, 0x70, 0x5f, 0x73, 0x6e, 0x6e, 
  0x5f, 0x6d, 0x6f, 0x64, 0x65, 0x6c, 0x5f, 0x31, 0x2f, 0x53, 0x68, 0x61, 
  0x70, 0x65, 0x00, 0x00, 0x01, 0x00, 0x00, 0x00, 0x02, 0x00, 0x00, 0x00, 
  0x5e, 0xf1, 0xff, 0xff, 0x00, 0x00, 0x00, 0x01, 0x14, 0x00, 0x00, 0x00, 
  0x30, 0x00, 0x00, 0x00, 0x10, 0x00, 0x00, 0x00, 0x00, 0x00, 0x00, 0x09, 
  0x3c, 0x00, 0x00, 0x00, 0xc4, 0xf0, 0xff, 0xff, 0x08, 0x00, 0x00, 0x00, 
  0x10, 0x00, 0x00, 0x00, 0x01, 0x00, 0x00, 0x00, 0x00, 0x00, 0x00, 0x00, 
  0x00, 0x00, 0x00, 0x00, 0x01, 0x00, 0x00, 0x00, 0x7b, 0xbe, 0x06, 0x32, 
  0x10, 0x00, 0x00, 0x00, 0x61, 0x72, 0x69, 0x74, 0x68, 0x2e, 0x63, 0x6f, 
  0x6e, 0x73, 0x74, 0x61, 0x6e, 0x74, 0x31, 0x31, 0x00, 0x00, 0x00, 0x00, 
  0x00, 0x00, 0x00, 0x00, 0xb6, 0xf1, 0xff, 0xff, 0x00, 0x00, 0x00, 0x01, 
  0x14, 0x00, 0x00, 0x00, 0x34, 0x00, 0x00, 0x00, 0x10, 0x00, 0x00, 0x00, 
  0x00, 0x00, 0x00, 0x09, 0x3c, 0x00, 0x00, 0x00, 0x1c, 0xf1, 0xff, 0xff, 
  0x08, 0x00, 0x00, 0x00, 0x14, 0x00, 0x00, 0x00, 0x01, 0x00, 0x00, 0x00, 
  0x00, 0x00, 0x00, 0x00, 0x00, 0x00, 0x00, 0x00, 0x00, 0x00, 0x00, 0x00, 
  0x01, 0x00, 0x00, 0x00, 0x7b, 0xbe, 0x06, 0x32, 0x0f, 0x00, 0x00, 0x00, 
  0x61, 0x72, 0x69, 0x74, 0x68, 0x2e, 0x63, 0x6f, 0x6e, 0x73, 0x74, 0x61, 
  0x6e, 0x74, 0x31, 0x00, 0x00, 0x00, 0x00, 0x00, 0x0e, 0xf2, 0xff, 0xff, 
  0x00, 0x00, 0x00, 0x01, 0x14, 0x00, 0x00, 0x00, 0x34, 0x00, 0x00, 0x00, 
  0x0a, 0x00, 0x00, 0x00, 0x00, 0x00, 0x00, 0x09, 0x3c, 0x00, 0x00, 0x00, 
  0x74, 0xf1, 0xff, 0xff, 0x08, 0x00, 0x00, 0x00, 0x14, 0x00, 0x00, 0x00, 
  0x01, 0x00, 0x00, 0x00, 0x80, 0xff, 0xff, 0xff, 0xff, 0xff, 0xff, 0xff, 
  0x00, 0x00, 0x00, 0x00, 0x01, 0x00, 0x00, 0x00, 0x81, 0x80, 0x00, 0x3b, 
  0x0f, 0x00, 0x00, 0x00, 0x61, 0x72, 0x69, 0x74, 0x68, 0x2e, 0x63, 0x6f, 
  0x6e, 0x73, 0x74, 0x61, 0x6e, 0x74, 0x33, 0x00, 0x00, 0x00, 0x00, 0x00, 
  0x66, 0xf2, 0xff, 0xff, 0x00, 0x00, 0x00, 0x01, 0x14, 0x00, 0x00, 0x00, 
  0x28, 0x03, 0x00, 0x00, 0x0e, 0x00, 0x00, 0x00, 0x00, 0x00, 0x00, 0x09, 
  0x44, 0x03, 0x00, 0x00, 0xcc, 0xf1, 0xff, 0xff, 0x08, 0x00, 0x00, 0x00, 
  0x0c, 0x02, 0x00, 0x00, 0x40, 0x00, 0x00, 0x00, 0x00, 0x00, 0x00, 0x00, 
  0x00, 0x00, 0x00, 0x00, 0x00, 0x00, 0x00, 0x00, 0x00, 0x00, 0x00, 0x00, 
  0x00, 0x00, 0x00, 0x00, 0x00, 0x00, 0x00, 0x00, 0x00, 0x00, 0x00, 0x00, 
  0x00, 0x00, 0x00, 0x00, 0x00, 0x00, 0x00, 0x00, 0x00, 0x00, 0x00, 0x00, 
  0x00, 0x00, 0x00, 0x00, 0x00, 0x00, 0x00, 0x00, 0x00, 0x00, 0x00, 0x00, 
  0x00, 0x00, 0x00, 0x00, 0x00, 0x00, 0x00, 0x00, 0x00, 0x00, 0x00, 0x00, 
  0x00, 0x00, 0x00, 0x00, 0x00, 0x00, 0x00, 0x00, 0x00, 0x00, 0x00, 0x00, 
  0x00, 0x00, 0x00, 0x00, 0x00, 0x00, 0x00, 0x00, 0x00, 0x00, 0x00, 0x00, 
  0x00, 0x00, 0x00, 0x00, 0x00, 0x00, 0x00, 0x00, 0x00, 0x00, 0x00, 0x00, 
  0x00, 0x00, 0x00, 0x00, 0x00, 0x00, 0x00, 0x00, 0x00, 0x00, 0x00, 0x00, 
  0x00, 0x00, 0x00, 0x00, 0x00, 0x00, 0x00, 0x00, 0x00, 0x00, 0x00, 0x00, 
  0x00, 0x00, 0x00, 0x00, 0x00, 0x00, 0x00, 0x00, 0x00, 0x00, 0x00, 0x00, 
  0x00, 0x00, 0x00, 0x00, 0x00, 0x00, 0x00, 0x00, 0x00, 0x00, 0x00, 0x00, 
  0x00, 0x00, 0x00, 0x00, 0x00, 0x00, 0x00, 0x00, 0x00, 0x00, 0x00, 0x00, 
  0x00, 0x00, 0x00, 0x00, 0x00, 0x00, 0x00, 0x00, 0x00, 0x00, 0x00, 0x00, 
  0x00, 0x00, 0x00, 0x00, 0x00, 0x00, 0x00, 0x00, 0x00, 0x00, 0x00, 0x00, 
  0x00, 0x00, 0x00, 0x00, 0x00, 0x00, 0x00, 0x00, 0x00, 0x00, 0x00, 0x00, 
  0x00, 0x00, 0x00, 0x00, 0x00, 0x00, 0x00, 0x00, 0x00, 0x00, 0x00, 0x00, 
  0x00, 0x00, 0x00, 0x00, 0x00, 0x00, 0x00, 0x00, 0x00, 0x00, 0x00, 0x00, 
  0x00, 0x00, 0x00, 0x00, 0x00, 0x00, 0x00, 0x00, 0x00, 0x00, 0x00, 0x00, 
  0x00, 0x00, 0x00, 0x00, 0x00, 0x00, 0x00, 0x00, 0x00, 0x00, 0x00, 0x00, 
  0x00, 0x00, 0x00, 0x00, 0x00, 0x00, 0x00, 0x00, 0x00, 0x00, 0x00, 0x00, 
  0x00, 0x00, 0x00, 0x00, 0x00, 0x00, 0x00, 0x00, 0x00, 0x00, 0x00, 0x00, 
  0x00, 0x00, 0x00, 0x00, 0x00, 0x00, 0x00, 0x00, 0x00, 0x00, 0x00, 0x00, 
  0x00, 0x00, 0x00, 0x00, 0x00, 0x00, 0x00, 0x00, 0x00, 0x00, 0x00, 0x00, 
  0x00, 0x00, 0x00, 0x00, 0x00, 0x00, 0x00, 0x00, 0x00, 0x00, 0x00, 0x00, 
  0x00, 0x00, 0x00, 0x00, 0x00, 0x00, 0x00, 0x00, 0x00, 0x00, 0x00, 0x00, 
  0x00, 0x00, 0x00, 0x00, 0x00, 0x00, 0x00, 0x00, 0x00, 0x00, 0x00, 0x00, 
  0x00, 0x00, 0x00, 0x00, 0x00, 0x00, 0x00, 0x00, 0x00, 0x00, 0x00, 0x00, 
  0x00, 0x00, 0x00, 0x00, 0x00, 0x00, 0x00, 0x00, 0x00, 0x00, 0x00, 0x00, 
  0x00, 0x00, 0x00, 0x00, 0x00, 0x00, 0x00, 0x00, 0x00, 0x00, 0x00, 0x00, 
  0x00, 0x00, 0x00, 0x00, 0x00, 0x00, 0x00, 0x00, 0x00, 0x00, 0x00, 0x00, 
  0x00, 0x00, 0x00, 0x00, 0x00, 0x00, 0x00, 0x00, 0x00, 0x00, 0x00, 0x00, 
  0x00, 0x00, 0x00, 0x00, 0x00, 0x00, 0x00, 0x00, 0x00, 0x00, 0x00, 0x00, 
  0x00, 0x00, 0x00, 0x00, 0x00, 0x00, 0x00, 0x00, 0x00, 0x00, 0x00, 0x00, 
  0x00, 0x00, 0x00, 0x00, 0x00, 0x00, 0x00, 0x00, 0x00, 0x00, 0x00, 0x00, 
  0x00, 0x00, 0x00, 0x00, 0x00, 0x00, 0x00, 0x00, 0x00, 0x00, 0x00, 0x00, 
  0x00, 0x00, 0x00, 0x00, 0x00, 0x00, 0x00, 0x00, 0x00, 0x00, 0x00, 0x00, 
  0x00, 0x00, 0x00, 0x00, 0x00, 0x00, 0x00, 0x00, 0x00, 0x00, 0x00, 0x00, 
  0x00, 0x00, 0x00, 0x00, 0x00, 0x00, 0x00, 0x00, 0x00, 0x00, 0x00, 0x00, 
  0x00, 0x00, 0x00, 0x00, 0x00, 0x00, 0x00, 0x00, 0x00, 0x00, 0x00, 0x00, 
  0x00, 0x00, 0x00, 0x00, 0x00, 0x00, 0x00, 0x00, 0x00, 0x00, 0x00, 0x00, 
  0x00, 0x00, 0x00, 0x00, 0x00, 0x00, 0x00, 0x00, 0x00, 0x00, 0x00, 0x00, 
  0x00, 0x00, 0x00, 0x00, 0x00, 0x00, 0x00, 0x00, 0x40, 0x00, 0x00, 0x00, 
