#ifndef MODEL_DATA_H
#define MODEL_DATA_H

#include <stdint.h>

const unsigned char model_data[] = {
  0x20, 0x00, 0x00, 0x00, 0x54, 0x46, 0x4c, 0x33, 0x00, 0x00, 0x00, 0x00, 
  0x14, 0x00, 0x20, 0x00, 0x1c, 0x00, 0x18, 0x00, 0x14, 0x00, 0x10, 0x00, 
  0x0c, 0x00, 0x00, 0x00, 0x08, 0x00, 0x04, 0x00, 0x14, 0x00, 0x00, 0x00, 
  0x1c, 0x00, 0x00, 0x00, 0x8c, 0x00, 0x00, 0x00, 0xe4, 0x00, 0x00, 0x00, 
  0xc4, 0x2d, 0x00, 0x00, 0xd4, 0x2d, 0x00, 0x00, 0x74, 0xf5, 0x00, 0x00, 
  0x03, 0x00, 0x00, 0x00, 0x01, 0x00, 0x00, 0x00, 0x04, 0x00, 0x00, 0x00, 
  0x7a, 0xad, 0xff, 0xff, 0x0c, 0x00, 0x00, 0x00, 0x1c, 0x00, 0x00, 0x00, 
  0x3c, 0x00, 0x00, 0x00, 0x0f, 0x00, 0x00, 0x00, 0x73, 0x65, 0x72, 0x76, 
  0x69, 0x6e, 0x67, 0x5f, 0x64, 0x65, 0x66, 0x61, 0x75, 0x6c, 0x74, 0x00, 
  0x01, 0x00, 0x00, 0x00, 0x04, 0x00, 0x00, 0x00, 0x90, 0xff, 0xff, 0xff, 
  0xfc, 0x00, 0x00, 0x00, 0x04, 0x00, 0x00, 0x00, 0x08, 0x00, 0x00, 0x00, 
  0x6f, 0x75, 0x74, 0x70, 0x75, 0x74, 0x5f, 0x30, 0x00, 0x00, 0x00, 0x00, 
  0x01, 0x00, 0x00, 0x00, 0x04, 0x00, 0x00, 0x00, 0x82, 0xad, 0xff, 0xff, 
  0x04, 0x00, 0x00, 0x00, 0x0c, 0x00, 0x00, 0x00, 0x6b, 0x65, 0x72, 0x61, 
  0x73, 0x5f, 0x74, 0x65, 0x6e, 0x73, 0x6f, 0x72, 0x00, 0x00, 0x00, 0x00, 
  0x02, 0x00, 0x00, 0x00, 0x34, 0x00, 0x00, 0x00, 0x04, 0x00, 0x00, 0x00, 
  0xdc, 0xff, 0xff, 0xff, 0xff, 0x00, 0x00, 0x00, 0x04, 0x00, 0x00, 0x00, 
  0x13, 0x00, 0x00, 0x00, 0x43, 0x4f, 0x4e, 0x56, 0x45, 0x52, 0x53, 0x49, 
  0x4f, 0x4e, 0x5f, 0x4d, 0x45, 0x54, 0x41, 0x44, 0x41, 0x54, 0x41, 0x00, 
  0x08, 0x00, 0x0c, 0x00, 0x08, 0x00, 0x04, 0x00, 0x08, 0x00, 0x00, 0x00, 
  0xfe, 0x00, 0x00, 0x00, 0x04, 0x00, 0x00, 0x00, 0x13, 0x00, 0x00, 0x00, 
  0x6d, 0x69, 0x6e, 0x5f, 0x72, 0x75, 0x6e, 0x74, 0x69, 0x6d, 0x65, 0x5f, 
  0x76, 0x65, 0x72, 0x73, 0x69, 0x6f, 0x6e, 0x00, 0x00, 0x01, 0x00, 0x00, 
  0xdc, 0x2c, 0x00, 0x00, 0xd4, 0x2c, 0x00, 0x00, 0xc0, 0x2c, 0x00, 0x00, 
  0xac, 0x2c, 0x00, 0x00, 0xa4, 0x2c, 0x00, 0x00, 0x90, 0x2c, 0x00, 0x00, 
  0x88, 0x2c, 0x00, 0x00, 0x74, 0x2c, 0x00, 0x00, 0x60, 0x2c, 0x00, 0x00, 
  0x40, 0x2c, 0x00, 0x00, 0x2c, 0x2c, 0x00, 0x00, 0x24, 0x2c, 0x00, 0x00, 
  0x08, 0x2c, 0x00, 0x00, 0xec, 0x2b, 0x00, 0x00, 0xd0, 0x2b, 0x00, 0x00, 
  0xb4, 0x2b, 0x00, 0x00, 0x98, 0x2b, 0x00, 0x00, 0x7c, 0x2b, 0x00, 0x00, 
  0x60, 0x2b, 0x00, 0x00, 0x44, 0x2b, 0x00, 0x00, 0x28, 0x2b, 0x00, 0x00, 
  0x0c, 0x2b, 0x00, 0x00, 0xf0, 0x2a, 0x00, 0x00, 0xd4, 0x2a, 0x00, 0x00, 
  0xb8, 0x2a, 0x00, 0x00, 0x9c, 0x2a, 0x00, 0x00, 0x88, 0x2a, 0x00, 0x00, 
  0x6c, 0x2a, 0x00, 0x00, 0x50, 0x2a, 0x00, 0x00, 0x34, 0x2a, 0x00, 0x00, 
  0x18, 0x2a, 0x00, 0x00, 0xfc, 0x29, 0x00, 0x00, 0xe0, 0x29, 0x00, 0x00, 
  0xcc, 0x29, 0x00, 0x00, 0xac, 0x29, 0x00, 0x00, 0x1c, 0x29, 0x00, 0x00, 
  0x8c, 0x28, 0x00, 0x00, 0x84, 0x28, 0x00, 0x00, 0x7c, 0x28, 0x00, 0x00, 
  0x74, 0x28, 0x00, 0x00, 0x6c, 0x28, 0x00, 0x00, 0x64, 0x28, 0x00, 0x00, 
  0x54, 0x20, 0x00, 0x00, 0x40, 0x20, 0x00, 0x00, 0x38, 0x20, 0x00, 0x00, 
  0x24, 0x20, 0x00, 0x00, 0x1c, 0x20, 0x00, 0x00, 0x14, 0x20, 0x00, 0x00, 
  0x04, 0x1f, 0x00, 0x00, 0xfc, 0x1e, 0x00, 0x00, 0xf4, 0x1e, 0x00, 0x00, 
  0xec, 0x1e, 0x00, 0x00, 0xe4, 0x1e, 0x00, 0x00, 0xdc, 0x1e, 0x00, 0x00, 
  0xcc, 0x06, 0x00, 0x00, 0xc4, 0x06, 0x00, 0x00, 0xbc, 0x06, 0x00, 0x00, 
  0xb4, 0x06, 0x00, 0x00, 0xac, 0x06, 0x00, 0x00, 0xa4, 0x06, 0x00, 0x00, 
  0x9c, 0x06, 0x00, 0x00, 0x94, 0x06, 0x00, 0x00, 0x8c, 0x06, 0x00, 0x00, 
  0x84, 0x06, 0x00, 0x00, 0x7c, 0x06, 0x00, 0x00, 0x74, 0x06, 0x00, 0x00, 
  0x6c, 0x06, 0x00, 0x00, 0x64, 0x06, 0x00, 0x00, 0x5c, 0x06, 0x00, 0x00, 
  0x54, 0x06, 0x00, 0x00, 0x4c, 0x06, 0x00, 0x00, 0x44, 0x06, 0x00, 0x00, 
  0x3c, 0x06, 0x00, 0x00, 0x34, 0x06, 0x00, 0x00, 0x2c, 0x06, 0x00, 0x00, 
  0x24, 0x06, 0x00, 0x00, 0x1c, 0x06, 0x00, 0x00, 0x14, 0x06, 0x00, 0x00, 
  0x0c, 0x06, 0x00, 0x00, 0x04, 0x06, 0x00, 0x00, 0xfc, 0x05, 0x00, 0x00, 
  0xf4, 0x05, 0x00, 0x00, 0xec, 0x05, 0x00, 0x00, 0xe4, 0x05, 0x00, 0x00, 
  0xdc, 0x05, 0x00, 0x00, 0xd4, 0x05, 0x00, 0x00, 0xcc, 0x05, 0x00, 0x00, 
  0xc4, 0x05, 0x00, 0x00, 0xbc, 0x05, 0x00, 0x00, 0xb4, 0x05, 0x00, 0x00, 
  0xac, 0x05, 0x00, 0x00, 0xa4, 0x05, 0x00, 0x00, 0x9c, 0x05, 0x00, 0x00, 
  0x94, 0x05, 0x00, 0x00, 0x8c, 0x05, 0x00, 0x00, 0x84, 0x05, 0x00, 0x00, 
  0x7c, 0x05, 0x00, 0x00, 0x74, 0x05, 0x00, 0x00, 0x6c, 0x05, 0x00, 0x00, 
  0x64, 0x05, 0x00, 0x00, 0x5c, 0x05, 0x00, 0x00, 0x54, 0x05, 0x00, 0x00, 
  0x4c, 0x05, 0x00, 0x00, 0x44, 0x05, 0x00, 0x00, 0x3c, 0x05, 0x00, 0x00, 
  0x34, 0x05, 0x00, 0x00, 0x2c, 0x05, 0x00, 0x00, 0x24, 0x05, 0x00, 0x00, 
  0x1c, 0x05, 0x00, 0x00, 0x14, 0x05, 0x00, 0x00, 0x0c, 0x05, 0x00, 0x00, 
  0x04, 0x05, 0x00, 0x00, 0xfc, 0x04, 0x00, 0x00, 0xf4, 0x04, 0x00, 0x00, 
  0xec, 0x04, 0x00, 0x00, 0xe4, 0x04, 0x00, 0x00, 0xdc, 0x04, 0x00, 0x00, 
  0xd4, 0x04, 0x00, 0x00, 0xcc, 0x04, 0x00, 0x00, 0xc4, 0x04, 0x00, 0x00, 
  0xbc, 0x04, 0x00, 0x00, 0xb4, 0x04, 0x00, 0x00, 0xac, 0x04, 0x00, 0x00, 
  0xa4, 0x04, 0x00, 0x00, 0x9c, 0x04, 0x00, 0x00, 0x94, 0x04, 0x00, 0x00, 
  0x8c, 0x04, 0x00, 0x00, 0x84, 0x04, 0x00, 0x00, 0x7c, 0x04, 0x00, 0x00, 
  0x74, 0x04, 0x00, 0x00, 0x6c, 0x04, 0x00, 0x00, 0x64, 0x04, 0x00, 0x00, 
  0x5c, 0x04, 0x00, 0x00, 0x54, 0x04, 0x00, 0x00, 0x4c, 0x04, 0x00, 0x00, 
  0x44, 0x04, 0x00, 0x00, 0x3c, 0x04, 0x00, 0x00, 0x34, 0x04, 0x00, 0x00, 
  0x2c, 0x04, 0x00, 0x00, 0x24, 0x04, 0x00, 0x00, 0x1c, 0x04, 0x00, 0x00, 
  0x14, 0x04, 0x00, 0x00, 0x0c, 0x04, 0x00, 0x00, 0x04, 0x04, 0x00, 0x00, 
  0xfc, 0x03, 0x00, 0x00, 0xf4, 0x03, 0x00, 0x00, 0xec, 0x03, 0x00, 0x00, 
  0xe4, 0x03, 0x00, 0x00, 0xdc, 0x03, 0x00, 0x00, 0xd4, 0x03, 0x00, 0x00, 
  0xcc, 0x03, 0x00, 0x00, 0xc4, 0x03, 0x00, 0x00, 0xbc, 0x03, 0x00, 0x00, 
  0xb4, 0x03, 0x00, 0x00, 0xac, 0x03, 0x00, 0x00, 0xa4, 0x03, 0x00, 0x00, 
  0x9c, 0x03, 0x00, 0x00, 0x94, 0x03, 0x00, 0x00, 0x8c, 0x03, 0x00, 0x00, 
  0x84, 0x03, 0x00, 0x00, 0x7c, 0x03, 0x00, 0x00, 0x74, 0x03, 0x00, 0x00, 
  0x6c, 0x03, 0x00, 0x00, 0x64, 0x03, 0x00, 0x00, 0x5c, 0x03, 0x00, 0x00, 
  0x54, 0x03, 0x00, 0x00, 0x4c, 0x03, 0x00, 0x00, 0x44, 0x03, 0x00, 0x00, 
  0x3c, 0x03, 0x00, 0x00, 0x34, 0x03, 0x00, 0x00, 0x2c, 0x03, 0x00, 0x00, 
  0x24, 0x03, 0x00, 0x00, 0x1c, 0x03, 0x00, 0x00, 0x14, 0x03, 0x00, 0x00, 
  0x0c, 0x03, 0x00, 0x00, 0x04, 0x03, 0x00, 0x00, 0xfc, 0x02, 0x00, 0x00, 
  0xf4, 0x02, 0x00, 0x00, 0xec, 0x02, 0x00, 0x00, 0xe4, 0x02, 0x00, 0x00, 
  0xdc, 0x02, 0x00, 0x00, 0xd4, 0x02, 0x00, 0x00, 0xcc, 0x02, 0x00, 0x00, 
  0xc4, 0x02, 0x00, 0x00, 0xbc, 0x02, 0x00, 0x00, 0xb4, 0x02, 0x00, 0x00, 
  0xac, 0x02, 0x00, 0x00, 0xa4, 0x02, 0x00, 0x00, 0x9c, 0x02, 0x00, 0x00, 
  0x94, 0x02, 0x00, 0x00, 0x8c, 0x02, 0x00, 0x00, 0x84, 0x02, 0x00, 0x00, 
  0x7c, 0x02, 0x00, 0x00, 0x74, 0x02, 0x00, 0x00, 0x6c, 0x02, 0x00, 0x00, 
  0x64, 0x02, 0x00, 0x00, 0x5c, 0x02, 0x00, 0x00, 0x54, 0x02, 0x00, 0x00, 
  0x4c, 0x02, 0x00, 0x00, 0x44, 0x02, 0x00, 0x00, 0x3c, 0x02, 0x00, 0x00, 
  0x34, 0x02, 0x00, 0x00, 0x2c, 0x02, 0x00, 0x00, 0x24, 0x02, 0x00, 0x00, 
  0x1c, 0x02, 0x00, 0x00, 0x14, 0x02, 0x00, 0x00, 0x0c, 0x02, 0x00, 0x00, 
  0x04, 0x02, 0x00, 0x00, 0xfc, 0x01, 0x00, 0x00, 0xf4, 0x01, 0x00, 0x00, 
  0xec, 0x01, 0x00, 0x00, 0xe4, 0x01, 0x00, 0x00, 0xdc, 0x01, 0x00, 0x00, 
  0xd4, 0x01, 0x00, 0x00, 0xcc, 0x01, 0x00, 0x00, 0xc4, 0x01, 0x00, 0x00, 
  0xbc, 0x01, 0x00, 0x00, 0xb4, 0x01, 0x00, 0x00, 0xac, 0x01, 0x00, 0x00, 
  0xa4, 0x01, 0x00, 0x00, 0x9c, 0x01, 0x00, 0x00, 0x94, 0x01, 0x00, 0x00, 
  0x8c, 0x01, 0x00, 0x00, 0x84, 0x01, 0x00, 0x00, 0x7c, 0x01, 0x00, 0x00, 
  0x74, 0x01, 0x00, 0x00, 0x6c, 0x01, 0x00, 0x00, 0x64, 0x01, 0x00, 0x00, 
  0x5c, 0x01, 0x00, 0x00, 0x54, 0x01, 0x00, 0x00, 0x4c, 0x01, 0x00, 0x00, 
  0x44, 0x01, 0x00, 0x00, 0x3c, 0x01, 0x00, 0x00, 0x34, 0x01, 0x00, 0x00, 
  0x2c, 0x01, 0x00, 0x00, 0x24, 0x01, 0x00, 0x00, 0x1c, 0x01, 0x00, 0x00, 
  0x14, 0x01, 0x00, 0x00, 0x0c, 0x01, 0x00, 0x00, 0x04, 0x01, 0x00, 0x00, 
  0xfc, 0x00, 0x00, 0x00, 0xf4, 0x00, 0x00, 0x00, 0xec, 0x00, 0x00, 0x00, 
  0xe4, 0x00, 0x00, 0x00, 0xdc, 0x00, 0x00, 0x00, 0xd4, 0x00, 0x00, 0x00, 
  0xcc, 0x00, 0x00, 0x00, 0xc4, 0x00, 0x00, 0x00, 0xbc, 0x00, 0x00, 0x00, 
  0xb4, 0x00, 0x00, 0x00, 0xac, 0x00, 0x00, 0x00, 0xa4, 0x00, 0x00, 0x00, 
  0x9c, 0x00, 0x00, 0x00, 0x94, 0x00, 0x00, 0x00, 0x74, 0x00, 0x00, 0x00, 
  0x04, 0x00, 0x00, 0x00, 0xfe, 0xb1, 0xff, 0xff, 0x04, 0x00, 0x00, 0x00, 
  0x60, 0x00, 0x00, 0x00, 0x0c, 0x00, 0x00, 0x00, 0x08, 0x00, 0x0e, 0x00, 
  0x08, 0x00, 0x04, 0x00, 0x08, 0x00, 0x00, 0x00, 0x10, 0x00, 0x00, 0x00, 
  0x28, 0x00, 0x00, 0x00, 0x00, 0x00, 0x06, 0x00, 0x08, 0x00, 0x04, 0x00, 
  0x06, 0x00, 0x00, 0x00, 0x04, 0x00, 0x00, 0x00, 0x01, 0x00, 0x00, 0x00, 
  0xeb, 0x03, 0x00, 0x00, 0x0c, 0x00, 0x18, 0x00, 0x14, 0x00, 0x10, 0x00, 
  0x0c, 0x00, 0x04, 0x00, 0x0c, 0x00, 0x00, 0x00, 0x59, 0x41, 0xa0, 0x75, 
  0xb8, 0x1c, 0x3a, 0xa0, 0x02, 0x00, 0x00, 0x00, 0x02, 0x00, 0x00, 0x00, 
  0x04, 0x00, 0x00, 0x00, 0x06, 0x00, 0x00, 0x00, 0x32, 0x2e, 0x32, 0x31, 
  0x2e, 0x30, 0x00, 0x00, 0x6a, 0xb2, 0xff, 0xff, 0x04, 0x00, 0x00, 0x00, 
  0x10, 0x00, 0x00, 0x00, 0x32, 0x2e, 0x38, 0x2e, 0x30, 0x00, 0x00, 0x00, 
  0x00, 0x00, 0x00, 0x00, 0x00, 0x00, 0x00, 0x00, 0xb8, 0x10, 0xff, 0xff, 
  0xbc, 0x10, 0xff, 0xff, 0xc0, 0x10, 0xff, 0xff, 0xc4, 0x10, 0xff, 0xff, 
  0xc8, 0x10, 0xff, 0xff, 0xcc, 0x10, 0xff, 0xff, 0xd0, 0x10, 0xff, 0xff, 
  0xd4, 0x10, 0xff, 0xff, 0xd8, 0x10, 0xff, 0xff, 0xdc, 0x10, 0xff, 0xff, 
  0xe0, 0x10, 0xff, 0xff, 0xe4, 0x10, 0xff, 0xff, 0xe8, 0x10, 0xff, 0xff, 
  0xec, 0x10, 0xff, 0xff, 0xf0, 0x10, 0xff, 0xff, 0xf4, 0x10, 0xff, 0xff, 
  0xf8, 0x10, 0xff, 0xff, 0xfc, 0x10, 0xff, 0xff, 0x00, 0x11, 0xff, 0xff, 
  0x04, 0x11, 0xff, 0xff, 0x08, 0x11, 0xff, 0xff, 0x0c, 0x11, 0xff, 0xff, 
  0x10, 0x11, 0xff, 0xff, 0x14, 0x11, 0xff, 0xff, 0x18, 0x11, 0xff, 0xff, 
  0x1c, 0x11, 0xff, 0xff, 0x20, 0x11, 0xff, 0xff, 0x24, 0x11, 0xff, 0xff, 
  0x28, 0x11, 0xff, 0xff, 0x2c, 0x11, 0xff, 0xff, 0x30, 0x11, 0xff, 0xff, 
  0x34, 0x11, 0xff, 0xff, 0x38, 0x11, 0xff, 0xff, 0x3c, 0x11, 0xff, 0xff, 
  0x40, 0x11, 0xff, 0xff, 0x44, 0x11, 0xff, 0xff, 0x48, 0x11, 0xff, 0xff, 
  0x4c, 0x11, 0xff, 0xff, 0x50, 0x11, 0xff, 0xff, 0x54, 0x11, 0xff, 0xff, 
  0x58, 0x11, 0xff, 0xff, 0x5c, 0x11, 0xff, 0xff, 0x60, 0x11, 0xff, 0xff, 
  0x64, 0x11, 0xff, 0xff, 0x68, 0x11, 0xff, 0xff, 0x6c, 0x11, 0xff, 0xff, 
  0x70, 0x11, 0xff, 0xff, 0x74, 0x11, 0xff, 0xff, 0x78, 0x11, 0xff, 0xff, 
  0x7c, 0x11, 0xff, 0xff, 0x80, 0x11, 0xff, 0xff, 0x84, 0x11, 0xff, 0xff, 
  0x88, 0x11, 0xff, 0xff, 0x8c, 0x11, 0xff, 0xff, 0x90, 0x11, 0xff, 0xff, 
  0x94, 0x11, 0xff, 0xff, 0x98, 0x11, 0xff, 0xff, 0x9c, 0x11, 0xff, 0xff, 
  0xa0, 0x11, 0xff, 0xff, 0xa4, 0x11, 0xff, 0xff, 0xa8, 0x11, 0xff, 0xff, 
  0xac, 0x11, 0xff, 0xff, 0xb0, 0x11, 0xff, 0xff, 0xb4, 0x11, 0xff, 0xff, 
  0xb8, 0x11, 0xff, 0xff, 0xbc, 0x11, 0xff, 0xff, 0xc0, 0x11, 0xff, 0xff, 
  0xc4, 0x11, 0xff, 0xff, 0xc8, 0x11, 0xff, 0xff, 0xcc, 0x11, 0xff, 0xff, 
  0xd0, 0x11, 0xff, 0xff, 0xd4, 0x11, 0xff, 0xff, 0xd8, 0x11, 0xff, 0xff, 
  0xdc, 0x11, 0xff, 0xff, 0xe0, 0x11, 0xff, 0xff, 0xe4, 0x11, 0xff, 0xff, 
  0xe8, 0x11, 0xff, 0xff, 0xec, 0x11, 0xff, 0xff, 0xf0, 0x11, 0xff, 0xff, 
  0xf4, 0x11, 0xff, 0xff, 0xf8, 0x11, 0xff, 0xff, 0xfc, 0x11, 0xff, 0xff, 
  0x00, 0x12, 0xff, 0xff, 0x04, 0x12, 0xff, 0xff, 0x08, 0x12, 0xff, 0xff, 
  0x0c, 0x12, 0xff, 0xff, 0x10, 0x12, 0xff, 0xff, 0x14, 0x12, 0xff, 0xff, 
  0x18, 0x12, 0xff, 0xff, 0x1c, 0x12, 0xff, 0xff, 0x20, 0x12, 0xff, 0xff, 
  0x24, 0x12, 0xff, 0xff, 0x28, 0x12, 0xff, 0xff, 0x2c, 0x12, 0xff, 0xff, 
  0x30, 0x12, 0xff, 0xff, 0x34, 0x12, 0xff, 0xff, 0x38, 0x12, 0xff, 0xff, 
  0x3c, 0x12, 0xff, 0xff, 0x40, 0x12, 0xff, 0xff, 0x44, 0x12, 0xff, 0xff, 
  0x48, 0x12, 0xff, 0xff, 0x4c, 0x12, 0xff, 0xff, 0x50, 0x12, 0xff, 0xff, 
  0x54, 0x12, 0xff, 0xff, 0x58, 0x12, 0xff, 0xff, 0x5c, 0x12, 0xff, 0xff, 
  0x60, 0x12, 0xff, 0xff, 0x64, 0x12, 0xff, 0xff, 0x68, 0x12, 0xff, 0xff, 
  0x6c, 0x12, 0xff, 0xff, 0x70, 0x12, 0xff, 0xff, 0x74, 0x12, 0xff, 0xff, 
  0x78, 0x12, 0xff, 0xff, 0x7c, 0x12, 0xff, 0xff, 0x80, 0x12, 0xff, 0xff, 
  0x84, 0x12, 0xff, 0xff, 0x88, 0x12, 0xff, 0xff, 0x8c, 0x12, 0xff, 0xff, 
  0x90, 0x12, 0xff, 0xff, 0x94, 0x12, 0xff, 0xff, 0x98, 0x12, 0xff, 0xff, 
  0x9c, 0x12, 0xff, 0xff, 0xa0, 0x12, 0xff, 0xff, 0xa4, 0x12, 0xff, 0xff, 
  0xa8, 0x12, 0xff, 0xff, 0xac, 0x12, 0xff, 0xff, 0xb0, 0x12, 0xff, 0xff, 
  0xb4, 0x12, 0xff, 0xff, 0xb8, 0x12, 0xff, 0xff, 0xbc, 0x12, 0xff, 0xff, 
  0xc0, 0x12, 0xff, 0xff, 0xc4, 0x12, 0xff, 0xff, 0xc8, 0x12, 0xff, 0xff, 
  0xcc, 0x12, 0xff, 0xff, 0xd0, 0x12, 0xff, 0xff, 0xd4, 0x12, 0xff, 0xff, 
  0xd8, 0x12, 0xff, 0xff, 0xdc, 0x12, 0xff, 0xff, 0xe0, 0x12, 0xff, 0xff, 
  0xe4, 0x12, 0xff, 0xff, 0xe8, 0x12, 0xff, 0xff, 0xec, 0x12, 0xff, 0xff, 
  0xf0, 0x12, 0xff, 0xff, 0xf4, 0x12, 0xff, 0xff, 0xf8, 0x12, 0xff, 0xff, 
  0xfc, 0x12, 0xff, 0xff, 0x00, 0x13, 0xff, 0xff, 0x04, 0x13, 0xff, 0xff, 
  0x08, 0x13, 0xff, 0xff, 0x0c, 0x13, 0xff, 0xff, 0x10, 0x13, 0xff, 0xff, 
  0x14, 0x13, 0xff, 0xff, 0x18, 0x13, 0xff, 0xff, 0x1c, 0x13, 0xff, 0xff, 
  0x20, 0x13, 0xff, 0xff, 0x24, 0x13, 0xff, 0xff, 0x28, 0x13, 0xff, 0xff, 
  0x2c, 0x13, 0xff, 0xff, 0x30, 0x13, 0xff, 0xff, 0x34, 0x13, 0xff, 0xff, 
  0x38, 0x13, 0xff, 0xff, 0x3c, 0x13, 0xff, 0xff, 0x40, 0x13, 0xff, 0xff, 
  0x44, 0x13, 0xff, 0xff, 0x48, 0x13, 0xff, 0xff, 0x4c, 0x13, 0xff, 0xff, 
  0x50, 0x13, 0xff, 0xff, 0x54, 0x13, 0xff, 0xff, 0x58, 0x13, 0xff, 0xff, 
  0x5c, 0x13, 0xff, 0xff, 0x60, 0x13, 0xff, 0xff, 0x64, 0x13, 0xff, 0xff, 
  0x68, 0x13, 0xff, 0xff, 0x6c, 0x13, 0xff, 0xff, 0x70, 0x13, 0xff, 0xff, 
  0x74, 0x13, 0xff, 0xff, 0x78, 0x13, 0xff, 0xff, 0x7c, 0x13, 0xff, 0xff, 
  0x80, 0x13, 0xff, 0xff, 0x84, 0x13, 0xff, 0xff, 0x88, 0x13, 0xff, 0xff, 
  0x8c, 0x13, 0xff, 0xff, 0x90, 0x13, 0xff, 0xff, 0x94, 0x13, 0xff, 0xff, 
  0x98, 0x13, 0xff, 0xff, 0x9c, 0x13, 0xff, 0xff, 0xa0, 0x13, 0xff, 0xff, 
  0xa4, 0x13, 0xff, 0xff, 0xa8, 0x13, 0xff, 0xff, 0xac, 0x13, 0xff, 0xff, 
  0xb0, 0x13, 0xff, 0xff, 0xb4, 0x13, 0xff, 0xff, 0xb8, 0x13, 0xff, 0xff, 
  0xbc, 0x13, 0xff, 0xff, 0xc0, 0x13, 0xff, 0xff, 0xc4, 0x13, 0xff, 0xff, 
  0xc8, 0x13, 0xff, 0xff, 0xcc, 0x13, 0xff, 0xff, 0xd0, 0x13, 0xff, 0xff, 
  0xa2, 0xb5, 0xff, 0xff, 0x04, 0x00, 0x00, 0x00, 0x00, 0x18, 0x00, 0x00, 
  0x67, 0x35, 0x74, 0x57, 0x40, 0x20, 0xf4, 0x36, 0x24, 0xf3, 0xcc, 0xd0, 
  0xc1, 0xd2, 0xd0, 0x05, 0xe4, 0xcd, 0xeb, 0xd6, 0xf7, 0x1a, 0x50, 0x2e, 
  0x27, 0x4d, 0x7f, 0x66, 0x60, 0x2b, 0x3c, 0x4f, 0x23, 0x2b, 0x74, 0x18, 
  0x03, 0xfb, 0xfb, 0xce, 0xc9, 0xa6, 0xe7, 0xfa, 0xb6, 0xee, 0x06, 0xa9, 
  0x2e, 0x02, 0x62, 0x3a, 0x2e, 0x0d, 0x4a, 0x4f, 0x5e, 0xff, 0x3c, 0x0c, 
  0x04, 0xcb, 0xe0, 0xbe, 0x20, 0x28, 0x48, 0xf0, 0x39, 0x01, 0x44, 0xf6, 
  0xe8, 0xdb, 0xe6, 0xd2, 0xa7, 0xe3, 0x1c, 0x07, 0xb3, 0xda, 0xd6, 0x0f, 
  0xc5, 0xd5, 0xca, 0xf3, 0xc2, 0x06, 0xd8, 0xd5, 0x09, 0x06, 0x39, 0xdf, 
  0x30, 0x1c, 0x20, 0x17, 0x4b, 0x4c, 0x31, 0xe8, 0xbc, 0xbd, 0xb4, 0xb8, 
  0xcf, 0xaa, 0xa2, 0xe6, 0x02, 0x51, 0x0b, 0x2c, 0x42, 0x29, 0x33, 0xff, 
  0xad, 0x88, 0xa6, 0xdb, 0xa4, 0xcd, 0xd4, 0x04, 0xb5, 0x00, 0x14, 0x16, 
  0x34, 0x40, 0x0d, 0x12, 0xc9, 0xd9, 0x23, 0x34, 0x66, 0x51, 0x42, 0x41, 
  0xea, 0xd0, 0xe0, 0xb0, 0xd7, 0xf3, 0x1d, 0x1c, 0x1d, 0x5a, 0x1b, 0x17, 
  0xfb, 0xc1, 0xa6, 0xf1, 0x2e, 0x22, 0x6e, 0x25, 0x60, 0x33, 0x59, 0xe8, 
  0xf2, 0xdc, 0x06, 0xf4, 0xbc, 0xee, 0xac, 0xb3, 0xbd, 0x08, 0x0b, 0x5b, 
  0x2b, 0x1d, 0x66, 0x7f, 0x74, 0x52, 0x2f, 0x49, 0x1e, 0x3d, 0x20, 0xc3, 
  0xee, 0xa3, 0xbf, 0x90, 0xa4, 0xb3, 0xa0, 0x9e, 0xbe, 0xe5, 0x12, 0xeb, 
  0x07, 0x32, 0xf1, 0xf6, 0x06, 0x3b, 0x21, 0xfe, 0x05, 0x34, 0x31, 0x39, 
  0x64, 0x57, 0x40, 0x22, 0x48, 0x28, 0xf0, 0x0c, 0x1c, 0x1b, 0x1d, 0xb6, 
  0xcb, 0xa4, 0xaa, 0xc3, 0xc5, 0x85, 0xcf, 0xa8, 0xdb, 0x12, 0xfc, 0x37, 
  0x47, 0x56, 0x34, 0x63, 0x38, 0x2d, 0x62, 0x2e, 0x04, 0xb5, 0xd5, 0xcd, 
  0x8a, 0xab, 0x9b, 0x81, 0x9e, 0x98, 0x99, 0x8f, 0xd6, 0x9d, 0xe0, 0xd4, 
  0xd6, 0x0d, 0xea, 0x07, 0xf2, 0x0c, 0x0e, 0x25, 0x22, 0x1c, 0xe4, 0x15, 
  0x31, 0x22, 0xf3, 0x31, 0x2b, 0x17, 0x04, 0x24, 0x45, 0x4f, 0x12, 0x4c, 
  0x27, 0xe4, 0x1d, 0x29, 0x38, 0x50, 0x35, 0x11, 0x05, 0x34, 0x12, 0x2c, 
  0x1f, 0x0e, 0xe5, 0xf1, 0xd1, 0xd4, 0xe5, 0xb8, 0x94, 0x81, 0x90, 0xa3, 
  0xe0, 0xd3, 0xbd, 0xbd, 0xb6, 0xf9, 0x05, 0x20, 0x05, 0xe9, 0xee, 0x14, 
  0x26, 0x00, 0xf9, 0xeb, 0xf3, 0x2c, 0x29, 0xf8, 0xc7, 0xe8, 0xf3, 0xe8, 
  0xf3, 0xaf, 0xc0, 0x09, 0x38, 0x0d, 0xde, 0xde, 0xe7, 0x35, 0x17, 0x04, 
  0xe7, 0xe6, 0x27, 0x04, 0x2f, 0x4a, 0x39, 0x64, 0x50, 0x4e, 0x19, 0x4e, 
  0x66, 0x3c, 0x2c, 0x20, 0x47, 0x68, 0x33, 0xce, 0x0f, 0x19, 0xe6, 0xb4, 
  0xa1, 0x9c, 0xaf, 0x92, 0xaa, 0x92, 0xb1, 0xbd, 0xb0, 0xb5, 0xcc, 0xbe, 
  0x2a, 0x21, 0x66, 0x5f, 0x5f, 0x6a, 0x16, 0xbf, 0xa0, 0x81, 0xa3, 0xd5, 
  0x8e, 0xab, 0xc5, 0xca, 0x05, 0x1b, 0x58, 0x1c, 0x3c, 0x1e, 0x1e, 0xe1, 
  0xee, 0xa7, 0xd4, 0x84, 0xd7, 0x8e, 0xa0, 0xa7, 0xf9, 0xca, 0x17, 0x0e, 
  0x0d, 0x0d, 0xfc, 0x9f, 0xdb, 0x00, 0xf0, 0x09, 0x48, 0x3e, 0x4b, 0x06, 
  0xf5, 0xe8, 0x93, 0xb3, 0xa5, 0xa6, 0x18, 0xdb, 0x4e, 0x13, 0x47, 0xf2, 
  0xaa, 0x99, 0xfe, 0xfd, 0x37, 0x0f, 0x58, 0x4a, 0x6d, 0x68, 0x33, 0x2d, 
  0xd7, 0xc3, 0xa1, 0xe5, 0xdb, 0xbe, 0xf0, 0x9e, 0xfe, 0xee, 0xdf, 0x29, 
  0x47, 0x47, 0x39, 0x67, 0x30, 0x6d, 0x71, 0x33, 0xf0, 0xf6, 0xb8, 0xdf, 
  0x33, 0x4b, 0x2f, 0x15, 0xed, 0xea, 0x02, 0x33, 0x5f, 0x29, 0x15, 0xe3, 
  0xc6, 0x46, 0x3b, 0x45, 0xf7, 0xf0, 0xf9, 0x18, 0x6b, 0x63, 0x4c, 0xf3, 
  0xb5, 0xf9, 0x45, 0x6d, 0x6c, 0x23, 0xdf, 0x0f, 0x37, 0x50, 0x57, 0xcd, 
  0xcd, 0x05, 0x44, 0x53, 0x26, 0xca, 0xda, 0x14, 0x73, 0x54, 0xf2, 0xc3, 
  0x3b, 0x64, 0x7f, 0x27, 0xe8, 0xeb, 0x4e, 0x57, 0x1d, 0xe4, 0xac, 0x29, 
  0x42, 0x0c, 0xc5, 0xf5, 0x08, 0x61, 0x3b, 0xd1, 0xe2, 0x52, 0x44, 0x1f, 
  0xc8, 0x2c, 0x3d, 0x4c, 0x16, 0xdd, 0x07, 0x22, 0x23, 0xcd, 0x1e, 0x26, 
  0x49, 0xf1, 0xc7, 0x0f, 0x62, 0x21, 0xe7, 0xc4, 0x12, 0x47, 0xe8, 0xe7, 
  0x55, 0x3b, 0x27, 0x49, 0x7f, 0x7c, 0x70, 0x58, 0x58, 0x29, 0x63, 0x0f, 
  0x44, 0x1c, 0x3d, 0x32, 0x66, 0x67, 0x62, 0x30, 0x6a, 0x16, 0x19, 0x24, 
  0x2d, 0xe7, 0xc8, 0x07, 0xfc, 0xda, 0x2f, 0x32, 0x14, 0xed, 0x20, 0x0f, 
  0x43, 0x0e, 0xf4, 0x90, 0xf7, 0xef, 0xce, 0x0b, 0xf1, 0x02, 0x35, 0x24, 
  0xdf, 0x09, 0xce, 0xf3, 0x27, 0x1b, 0xf1, 0x20, 0x1c, 0x40, 0x29, 0x06, 
  0x9e, 0xae, 0xa2, 0xf5, 0x28, 0x48, 0x4a, 0x51, 0x4d, 0x40, 0x0c, 0x36, 
  0x27, 0x2e, 0x04, 0xa6, 0xd1, 0xc6, 0xc5, 0xdc, 0xbe, 0xfb, 0x07, 0xc6, 
  0x09, 0x02, 0xef, 0x01, 0x0b, 0xda, 0x2b, 0x0d, 0xcb, 0x0a, 0xd9, 0xe2, 
  0x1a, 0x1c, 0x3f, 0x5d, 0x33, 0x49, 0xeb, 0xc3, 0xf6, 0xd2, 0x86, 0x81, 
  0xba, 0xb2, 0xdf, 0xe7, 0x55, 0x50, 0x5e, 0x3d, 0x2f, 0x47, 0x3d, 0xee, 
  0x06, 0xca, 0x9a, 0xb7, 0xda, 0xdd, 0x9e, 0xbb, 0xfe, 0x33, 0x17, 0x15, 
  0x60, 0x30, 0x10, 0x0f, 0xd4, 0x1e, 0x38, 0x03, 0x08, 0x2c, 0x54, 0xe0, 
  0xb7, 0x98, 0xc0, 0xbd, 0xbb, 0xa8, 0xee, 0x4a, 0x25, 0x25, 0x57, 0x4f, 
  0x0a, 0xf7, 0x13, 0x00, 0x53, 0x30, 0x20, 0x42, 0x43, 0x15, 0xf7, 0x29, 
  0xcf, 0x06, 0xa3, 0xce, 0xd2, 0xb9, 0xc4, 0xb5, 0x13, 0x05, 0x42, 0x3f, 
  0x21, 0x22, 0x3d, 0x1d, 0x24, 0x27, 0x66, 0x0d, 0x45, 0x12, 0x24, 0xf6, 
  0xbf, 0xf1, 0xd8, 0x2e, 0x3c, 0x56, 0x2b, 0xfd, 0x1a, 0x03, 0x12, 0x1c, 
  0x29, 0x38, 0x50, 0x58, 0x74, 0x73, 0x7f, 0x3c, 0x60, 0x23, 0x2c, 0x47, 
  0x05, 0xf2, 0xb2, 0xba, 0xb4, 0xd1, 0xb8, 0xf4, 0xc0, 0xdb, 0x0b, 0x0e, 
  0x07, 0x13, 0xfb, 0x1b, 0x02, 0x20, 0x1b, 0xe2, 0x14, 0x12, 0x2d, 0xd8, 
  0xd7, 0xc1, 0xa9, 0xd6, 0xde, 0xec, 0xf8, 0x0f, 0x3e, 0x3e, 0x3b, 0x12, 
  0x11, 0xfa, 0x10, 0x2f, 0x3e, 0x34, 0xf7, 0x1e, 0x2a, 0xfd, 0xd1, 0xeb, 
  0x1c, 0xce, 0xcb, 0xa7, 0xe5, 0xf0, 0xd6, 0xcf, 0xf6, 0xef, 0x2c, 0x25, 
  0x08, 0x0b, 0x21, 0x30, 0x42, 0x1b, 0x44, 0x48, 0xea, 0x20, 0xff, 0xff, 
  0x1b, 0x33, 0x56, 0x68, 0x2b, 0x55, 0x50, 0x1b, 0x21, 0x09, 0x3d, 0x01, 
  0x48, 0x0e, 0xe8, 0xdf, 0x35, 0x28, 0x27, 0x31, 0x21, 0xff, 0x07, 0x49, 
  0x71, 0x42, 0x7a, 0x4c, 0x47, 0x32, 0x7e, 0x7f, 0x09, 0x3c, 0x37, 0x28, 
  0x58, 0x33, 0xdd, 0x1a, 0x1b, 0xd0, 0xbd, 0xf9, 0xdd, 0xd6, 0xae, 0xf7, 
  0xea, 0xc8, 0xef, 0x3e, 0x03, 0xf7, 0x44, 0x33, 0x1e, 0x5f, 0x0d, 0x1d, 
  0x26, 0x22, 0xf6, 0xd9, 0xc4, 0xd3, 0x18, 0xce, 0xf0, 0xc2, 0xd7, 0xd9, 
  0x09, 0xfb, 0x18, 0x20, 0x06, 0x25, 0x11, 0x47, 0xe9, 0xeb, 0x2d, 0x10, 
  0x05, 0x11, 0xd4, 0xd1, 0xe6, 0x18, 0x0b, 0xf5, 0xd4, 0x2a, 0x23, 0x13, 
  0xf1, 0xfb, 0x1d, 0x48, 0x46, 0x20, 0x46, 0xd4, 0xef, 0xd5, 0xd8, 0xd1, 
  0xbf, 0xd7, 0xbe, 0xd2, 0x48, 0x5c, 0x71, 0x51, 0x03, 0x0a, 0x05, 0x10, 
  0xb3, 0x92, 0xd0, 0xa4, 0xd1, 0x94, 0xb9, 0x0d, 0x28, 0x04, 0x37, 0x03, 
  0x0b, 0x14, 0xd9, 0x96, 0xe9, 0xe1, 0xfd, 0xe8, 0x2f, 0x25, 0xed, 0x1d, 
  0xdb, 0xb7, 0x81, 0xab, 0xc8, 0x22, 0x21, 0x63, 0x26, 0x24, 0xff, 0xd3, 
  0xfe, 0x8e, 0xd9, 0xe8, 0x71, 0x29, 0x61, 0x16, 0x41, 0x0c, 0x32, 0x36, 
  0xca, 0x04, 0xfc, 0x99, 0xaf, 0xa8, 0xc4, 0xa0, 0xd6, 0xb3, 0x27, 0x03, 
  0x5c, 0x5c, 0x4c, 0x78, 0x5a, 0x26, 0x1d, 0x2b, 0x19, 0xeb, 0x19, 0xab, 
  0x2f, 0xef, 0x3b, 0x3c, 0x3f, 0x31, 0x10, 0x13, 0xba, 0xea, 0xef, 0x0f, 
  0xf9, 0x13, 0x22, 0xf9, 0x62, 0x46, 0x7f, 0x4a, 0x6c, 0x58, 0x4f, 0x52, 
  0x65, 0x5c, 0x55, 0xed, 0x45, 0x42, 0x65, 0x17, 0xf7, 0xfa, 0xd9, 0xc7, 
  0xc4, 0xde, 0xc0, 0xd8, 0xd2, 0x12, 0xeb, 0x0f, 0x1f, 0x34, 0x2e, 0x20, 
  0x13, 0xd7, 0xe6, 0xe7, 0x11, 0xfd, 0xea, 0xfe, 0xc8, 0xf0, 0x18, 0xd0, 
  0xb9, 0x9b, 0x05, 0xe9, 0x1f, 0x09, 0x0d, 0x23, 0x5b, 0xf9, 0xd4, 0xf3, 
  0x29, 0xe3, 0xac, 0xc9, 0xd7, 0xed, 0xdf, 0xbd, 0xb7, 0xdf, 0xfa, 0xe7, 
  0xcf, 0x1d, 0x27, 0xe7, 0xf2, 0xe9, 0x02, 0xeb, 0x03, 0xc9, 0x13, 0x09, 
  0xef, 0x3e, 0xef, 0xf6, 0x08, 0x0d, 0x17, 0x47, 0x1b, 0x29, 0x1f, 0xf7, 
  0x2c, 0x48, 0x3c, 0x34, 0x3e, 0x3c, 0xef, 0x57, 0x77, 0x36, 0x46, 0x3f, 
  0x3b, 0x7f, 0x3c, 0x7f, 0x45, 0x3d, 0x4a, 0x1f, 0x37, 0x60, 0x55, 0x29, 
  0xd8, 0x0b, 0xfe, 0x0d, 0xf1, 0xc9, 0xc8, 0xc3, 0x03, 0xdc, 0xa7, 0xdc, 
  0xea, 0x3e, 0x64, 0x5a, 0x43, 0x23, 0x6f, 0x58, 0x04, 0xd2, 0xeb, 0x21, 
  0x31, 0x12, 0x08, 0xc5, 0xe2, 0x2f, 0xf6, 0xe0, 0x0f, 0x1a, 0x07, 0xfa, 
  0x00, 0xfd, 0x63, 0x3b, 0xf7, 0x28, 0x2f, 0x24, 0x1e, 0x06, 0x1d, 0x14, 
  0xef, 0xcd, 0xc9, 0xfc, 0x03, 0xfb, 0xe9, 0xe1, 0x20, 0x05, 0xfb, 0xf4, 
  0x27, 0xf0, 0xf6, 0xfe, 0x3d, 0xf7, 0xff, 0x0d, 0x00, 0xfc, 0x2e, 0x42, 
  0x15, 0x21, 0x0c, 0x0e, 0x08, 0x09, 0x1f, 0x51, 0x41, 0x46, 0x5d, 0x7f, 
  0x4a, 0x56, 0x4f, 0x3a, 0x3c, 0x5e, 0x4b, 0x64, 0x24, 0xf1, 0x02, 0x3c, 
  0x04, 0x09, 0x01, 0xd9, 0x00, 0xd5, 0xca, 0xb9, 0xc2, 0x99, 0xbf, 0x08, 
  0xf2, 0xe3, 0x29, 0x2a, 0x3f, 0x36, 0x0d, 0x28, 0x28, 0x31, 0x1a, 0x0d, 
  0x02, 0xfe, 0xec, 0xd5, 0xf1, 0x0b, 0xed, 0xd8, 0xfb, 0xcc, 0x1d, 0x17, 
  0x36, 0x13, 0x2e, 0x22, 0xff, 0x38, 0xf9, 0x00, 0x1b, 0x1b, 0x00, 0xe1, 
  0xcf, 0xf6, 0x1c, 0xdd, 0xde, 0xe7, 0xfb, 0x14, 0xf5, 0xf5, 0xe1, 0xf8, 
  0x04, 0xda, 0xc8, 0x09, 0x3d, 0x12, 0xed, 0xe5, 0x04, 0xdc, 0xee, 0xf7, 
  0x11, 0x00, 0xf6, 0x3e, 0x37, 0x7f, 0x43, 0x62, 0x74, 0x4c, 0x7c, 0x3c, 
  0x2f, 0x5a, 0x1b, 0xf3, 0xe8, 0x0c, 0xe7, 0x0d, 0xcc, 0xe3, 0xd1, 0xeb, 
  0xe6, 0x24, 0xf2, 0xfa, 0x0a, 0x24, 0x41, 0xf6, 0x12, 0x37, 0x43, 0x39, 
  0x0c, 0xaf, 0xe5, 0xc8, 0xfb, 0xe9, 0xb7, 0xa5, 0x03, 0xeb, 0xfb, 0x04, 
  0xdd, 0xdf, 0x28, 0x3f, 0x16, 0x13, 0x42, 0x1e, 0x07, 0x1d, 0xfa, 0x02, 
  0x0f, 0xd2, 0xd2, 0xe9, 0xe5, 0xc0, 0xa1, 0xd5, 0xdb, 0x0a, 0xf7, 0xe5, 
  0x04, 0x09, 0xf4, 0xef, 0x2b, 0xf8, 0x2f, 0x06, 0xe9, 0x17, 0xed, 0x2e, 
  0x35, 0x43, 0x62, 0x52, 0x49, 0x60, 0x7f, 0x7d, 0x0c, 0x32, 0x31, 0xdb, 
  0xf5, 0xe2, 0xd7, 0xd7, 0xec, 0x58, 0x29, 0x22, 0x61, 0x28, 0x31, 0x09, 
  0x38, 0xe1, 0x08, 0xf2, 0xf8, 0xd8, 0x13, 0x50, 0x2b, 0x3f, 0x24, 0x08, 
  0x08, 0xe8, 0xfb, 0xf3, 0xf1, 0xc2, 0xd6, 0xed, 0xf0, 0x35, 0x52, 0x2f, 
  0xf5, 0xfa, 0x0e, 0x02, 0x33, 0xec, 0x26, 0x2a, 0x4e, 0x1d, 0x29, 0xdd, 
  0xae, 0xd6, 0xd3, 0xb7, 0x2a, 0x29, 0x2f, 0x24, 0x11, 0x42, 0x3c, 0x05, 
  0x14, 0x22, 0xcd, 0xe8, 0xfa, 0xba, 0xec, 0xdf, 0xda, 0xfc, 0x0b, 0x17, 
  0xdd, 0x20, 0x24, 0x2d, 0x4a, 0x3a, 0x27, 0x06, 0xe9, 0xd5, 0x00, 0xf2, 
  0x51, 0x1b, 0x06, 0x2d, 0x28, 0x52, 0x3d, 0x06, 0x1f, 0x37, 0x3b, 0x35, 
  0x11, 0xef, 0xc7, 0xdb, 0xbd, 0xdf, 0xad, 0xb1, 0x81, 0xb5, 0xb1, 0xc0, 
  0x01, 0xfe, 0xf1, 0x07, 0x24, 0x2f, 0x3c, 0x11, 0x21, 0x01, 0xfb, 0x3c, 
  0x22, 0x2b, 0xef, 0x22, 0x11, 0x14, 0x0d, 0xf0, 0xc0, 0xdb, 0xce, 0xce, 
  0xb2, 0xc6, 0x09, 0xff, 0x42, 0x30, 0x16, 0xf7, 0x1f, 0x46, 0x19, 0x33, 
  0x28, 0x18, 0x0a, 0xe8, 0x23, 0x1c, 0x55, 0x62, 0x22, 0x25, 0x0a, 0x30, 
  0x4f, 0x1d, 0xf7, 0xfc, 0x05, 0xf0, 0xdb, 0xb6, 0xb0, 0xb1, 0xa8, 0x94, 
  0x9f, 0xbb, 0xae, 0x90, 0x87, 0x8b, 0xa4, 0xa0, 0xca, 0xbb, 0xc0, 0xe0, 
  0x30, 0xaf, 0xef, 0xf0, 0xfc, 0xd0, 0x2e, 0xf7, 0xe4, 0x24, 0x2e, 0x6c, 
  0xfc, 0xd2, 0x3e, 0xe2, 0xf0, 0xb8, 0x1f, 0x10, 0xd2, 0x16, 0xcb, 0xcc, 
  0xf5, 0x06, 0xeb, 0xf0, 0x16, 0x67, 0x38, 0x22, 0xec, 0xdc, 0xe1, 0xac, 
  0x25, 0x3c, 0x17, 0xf7, 0xf9, 0x4a, 0x2b, 0xaf, 0x00, 0xa0, 0xd0, 0xf3, 
  0xc4, 0x4a, 0xea, 0x15, 0x27, 0x2b, 0xbe, 0xff, 0xfa, 0x3a, 0x1e, 0xdf, 
  0xbd, 0x18, 0x24, 0x33, 0xf9, 0x82, 0x81, 0xfc, 0xc2, 0x8e, 0xeb, 0xed, 
  0x48, 0xdb, 0x32, 0x2c, 0x43, 0xde, 0xc1, 0xcc, 0xf0, 0xfa, 0xe3, 0xd3, 
  0x89, 0x02, 0x10, 0xfb, 0xe4, 0xea, 0x14, 0xf0, 0x0b, 0x0d, 0x49, 0x03, 
  0x38, 0x32, 0x4a, 0x4b, 0x1d, 0xc4, 0xf0, 0x26, 0x44, 0x40, 0x1a, 0xea, 
  0xf0, 0x3f, 0x75, 0x3a, 0x29, 0xf6, 0xf6, 0x01, 0x3c, 0x7f, 0x3e, 0xeb, 
  0xdc, 0x28, 0x5d, 0x49, 0x49, 0x39, 0x02, 0xfe, 0x16, 0x5c, 0x24, 0xf3, 
  0xe6, 0xf5, 0x3e, 0x22, 0xe8, 0xa5, 0xf3, 0x24, 0x65, 0x15, 0xd0, 0xf0, 
  0x4c, 0x68, 0x40, 0x22, 0xcc, 0x26, 0x3a, 0x34, 0x1e, 0xd4, 0xbc, 0x19, 
  0x41, 0x34, 0xb1, 0xc7, 0x25, 0x52, 0x35, 0xc6, 0x09, 0x11, 0x2d, 0x24, 
  0xf2, 0x29, 0x4d, 0x3d, 0x05, 0xd5, 0x3f, 0x5c, 0x03, 0xdd, 0xf6, 0x33, 
  0x4e, 0xcd, 0xab, 0x2d, 0x28, 0x09, 0xd2, 0x0b, 0x4a, 0x19, 0xf8, 0xef, 
  0x3e, 0x32, 0x35, 0x0e, 0x5e, 0x67, 0x2d, 0xed, 0xb3, 0xd4, 0xef, 0x00, 
  0xd8, 0xde, 0x0c, 0x0e, 0x09, 0x55, 0x75, 0x7f, 0x46, 0x4c, 0x70, 0x7e, 
  0x56, 0x36, 0x18, 0x27, 0x1f, 0x12, 0x68, 0x39, 0x0b, 0xf9, 0x0c, 0xe5, 
  0x2f, 0xe3, 0xb1, 0xd1, 0xf8, 0xc9, 0xf0, 0xe8, 0xef, 0x24, 0x06, 0x4b, 
  0xf4, 0x06, 0x08, 0xf6, 0x1a, 0x0c, 0xec, 0xbb, 0xdc, 0x27, 0x1e, 0xf9, 
  0xb0, 0xe5, 0xc6, 0xd6, 0x50, 0x01, 0x47, 0x4c, 0x39, 0x01, 0xf5, 0xff, 
  0x2e, 0xf8, 0xcb, 0xfd, 0xee, 0xf2, 0xea, 0xea, 0x0c, 0xd4, 0xfe, 0xf4, 
  0x0e, 0x06, 0x3e, 0x11, 0x0b, 0xd3, 0x35, 0xf8, 0xd8, 0xa8, 0xc9, 0xda, 
  0x5d, 0x74, 0x6b, 0x7f, 0x78, 0x71, 0x4b, 0x43, 0x5c, 0x63, 0x5e, 0x36, 
  0xfa, 0x53, 0x11, 0x47, 0x43, 0xe4, 0x0d, 0x10, 0x60, 0x03, 0xea, 0xca, 
  0x01, 0xd6, 0x0a, 0x3b, 0x43, 0x31, 0x3c, 0xf3, 0xdf, 0x50, 0x0b, 0x3d, 
  0x2a, 0x44, 0x1e, 0x04, 0x2d, 0xe4, 0xde, 0x33, 0x2f, 0x02, 0xf9, 0xc8, 
  0x11, 0xd1, 0xf1, 0xe2, 0xb7, 0xd7, 0xfc, 0x32, 0x3e, 0x0c, 0xeb, 0x24, 
  0x1d, 0x17, 0xf0, 0x2c, 0x6d, 0x5f, 0x17, 0x2e, 0x44, 0x1e, 0x52, 0x20, 
  0xfb, 0x1a, 0xcb, 0x17, 0xa5, 0xb6, 0xba, 0xfd, 0xf3, 0xdb, 0x04, 0x17, 
  0x0d, 0xd0, 0x0d, 0x02, 0x3f, 0xe9, 0xc8, 0xf9, 0x1a, 0x0a, 0x01, 0xe4, 
  0x62, 0x28, 0x29, 0x2b, 0x16, 0x17, 0x1d, 0xe0, 0xc4, 0xad, 0xbf, 0xba, 
  0xe4, 0xbe, 0x90, 0x88, 0xba, 0xb2, 0xb3, 0xe7, 0xa6, 0x99, 0xf8, 0xf6, 
  0xf8, 0x12, 0x1d, 0xd3, 0xf9, 0x5d, 0x59, 0x5c, 0x3a, 0x37, 0x25, 0x37, 
  0x50, 0x1f, 0xcd, 0xce, 0xa8, 0xeb, 0xbb, 0x9a, 0x81, 0xb1, 0xe1, 0x02, 
  0xf9, 0xf6, 0x1b, 0x43, 0x62, 0x33, 0x23, 0x15, 0x1c, 0x33, 0x16, 0xee, 
  0xcc, 0xcb, 0xcb, 0xce, 0x47, 0x0f, 0x38, 0x10, 0x22, 0x07, 0x16, 0xe2, 
  0x1e, 0xf1, 0xf3, 0xb9, 0xec, 0xe5, 0xd0, 0x99, 0xb2, 0xf7, 0xa9, 0xbc, 
  0xc8, 0xb4, 0xf5, 0xbe, 0xc9, 0xd9, 0xe5, 0x01, 0xcf, 0xe4, 0xd2, 0xf2, 
  0xfa, 0xfe, 0xed, 0x14, 0x0d, 0x48, 0x53, 0x1b, 0x5c, 0x24, 0x21, 0x3d, 
  0x2a, 0x38, 0xfe, 0x10, 0x19, 0xf6, 0xec, 0xd2, 0xa6, 0xa5, 0xa6, 0x88, 
  0xa9, 0xa6, 0xb1, 0xc7, 0xe9, 0xc1, 0xf3, 0xe6, 0x0a, 0xe8, 0xf4, 0xe4, 
  0x0f, 0xf2, 0xe8, 0xfe, 0x2a, 0x03, 0x24, 0x16, 0x1e, 0x01, 0x08, 0x13, 
  0xe3, 0x17, 0x11, 0x0b, 0x12, 0x11, 0xe4, 0x00, 0xcf, 0x13, 0x04, 0xf6, 
  0x21, 0x4d, 0x36, 0xef, 0x4d, 0x5e, 0x35, 0x6e, 0x7a, 0x7f, 0x6b, 0x73, 
  0x4d, 0x72, 0x6f, 0x49, 0x5a, 0x48, 0x6d, 0x26, 0x41, 0x17, 0x0f, 0xea, 
  0xfd, 0xcb, 0xbe, 0xa7, 0x90, 0x90, 0xaa, 0xa4, 0xb6, 0x8c, 0x8f, 0xbc, 
  0x00, 0x14, 0x2e, 0x64, 0x25, 0x5f, 0x25, 0x3f, 0x42, 0x16, 0x00, 0x34, 
  0x1d, 0x06, 0x09, 0x7b, 0x48, 0x6e, 0x61, 0x45, 0x7f, 0x5c, 0x5d, 0x1a, 
  0x26, 0xbd, 0xc8, 0xb2, 0xa1, 0xdb, 0xe9, 0xbf, 0x07, 0x13, 0xfc, 0x05, 
  0x1c, 0x27, 0x13, 0xba, 0xb5, 0xe7, 0xf1, 0xdf, 0x17, 0x19, 0x3d, 0x02, 
  0xe6, 0xe1, 0x9c, 0xc7, 0xc2, 0xd4, 0xfb, 0x1e, 0x3b, 0x2b, 0x34, 0x0d, 
  0xe1, 0xf3, 0xf9, 0x1e, 0x10, 0x27, 0x59, 0x14, 0x48, 0x15, 0x2a, 0x13, 
  0x2f, 0xc9, 0xab, 0xb1, 0xe1, 0xbc, 0xc8, 0xd0, 0xfd, 0xed, 0x0a, 0x35, 
  0x35, 0x28, 0x49, 0x1c, 0x5d, 0x3d, 0x44, 0xfd, 0xee, 0xda, 0xc8, 0xea, 
  0x02, 0x4f, 0x1a, 0x10, 0x01, 0x8f, 0xe2, 0xf7, 0x36, 0x07, 0x03, 0xb8, 
  0xf1, 0x22, 0x55, 0x4a, 0x18, 0xd2, 0x92, 0x03, 0x47, 0x4f, 0xfd, 0x9c, 
  0xa4, 0xce, 0x0e, 0x66, 0x58, 0x02, 0xf2, 0xdc, 0x35, 0x6b, 0x24, 0xf0, 
  0xaf, 0xf6, 0x7f, 0x73, 0x17, 0xe4, 0xe1, 0x54, 0x4d, 0x2c, 0xe4, 0xba, 
  0x55, 0x76, 0x4d, 0x31, 0xab, 0xd9, 0x21, 0x52, 0x18, 0xcc, 0x99, 0x4b, 
  0x5d, 0x09, 0x07, 0xe4, 0x2e, 0x3c, 0x07, 0xb0, 0xe1, 0x4d, 0x5a, 0x17, 
  0xe9, 0xe1, 0x3f, 0x33, 0x17, 0xc8, 0x29, 0x69, 0xf1, 0xb9, 0x20, 0x42, 
  0x20, 0xc1, 0xa7, 0x12, 0x56, 0x20, 0xa4, 0xcb, 0x64, 0x69, 0x19, 0xe8, 
  0xc9, 0x96, 0xb5, 0xf2, 0xe9, 0xfe, 0xee, 0xf6, 0xec, 0x25, 0x57, 0x7f, 
  0x52, 0x65, 0x26, 0x56, 0x30, 0x78, 0x67, 0x05, 0x14, 0x19, 0x08, 0xfb, 
  0x27, 0x1d, 0xc4, 0xac, 0xbc, 0x0e, 0xd5, 0xe5, 0xfb, 0x93, 0xbc, 0xc2, 
  0xec, 0xd8, 0xdf, 0xaa, 0xe2, 0x2b, 0x3d, 0x08, 0xe7, 0xd3, 0xf4, 0x31, 
  0x11, 0x00, 0x06, 0x35, 0x3e, 0xdc, 0xbe, 0x96, 0xcf, 0xf4, 0xcb, 0xb9, 
  0xae, 0xd2, 0x2b, 0x4f, 0xe5, 0xd3, 0xbb, 0x31, 0xe0, 0xdf, 0xbd, 0xfc, 
  0x35, 0xe3, 0xd8, 0xd9, 0xf8, 0x25, 0xf1, 0xdd, 0x1b, 0x2b, 0xdf, 0xbd, 
  0xbb, 0xea, 0x26, 0xfd, 0x98, 0xc4, 0xe9, 0xd7, 0xd8, 0xc8, 0x17, 0x35, 
  0xe9, 0xf7, 0xea, 0xe6, 0x01, 0xf8, 0x48, 0x0e, 0x53, 0x27, 0x4a, 0x58, 
  0x1b, 0x57, 0x02, 0x09, 0x29, 0x09, 0xc6, 0xf3, 0xd6, 0xb4, 0x99, 0x94, 
  0x97, 0x94, 0xba, 0xd4, 0xb8, 0xbe, 0xef, 0xc1, 0x02, 0xcd, 0xd3, 0xec, 
  0xc4, 0xf8, 0x14, 0x18, 0x26, 0x1c, 0x36, 0x28, 0xf4, 0xe7, 0x33, 0x2b, 
  0xee, 0xef, 0x14, 0xf5, 0xee, 0xf7, 0xcf, 0xb0, 0xc3, 0xd6, 0xe6, 0xdb, 
  0x1f, 0x3e, 0x5a, 0x04, 0xf3, 0x31, 0x2f, 0x39, 0x52, 0x1b, 0x61, 0x51, 
  0x62, 0x79, 0x64, 0x45, 0x65, 0x74, 0x65, 0x4d, 0x4e, 0x54, 0xfe, 0x2b, 
  0xfb, 0x06, 0xde, 0xa2, 0xbc, 0xc9, 0xa3, 0xb1, 0x99, 0x81, 0xbd, 0xa8, 
  0x1e, 0x22, 0x46, 0x49, 0x59, 0x3f, 0x7f, 0x5d, 0x2f, 0x38, 0x64, 0x73, 
  0x65, 0x58, 0x4d, 0x35, 0x19, 0x05, 0x04, 0x15, 0xc6, 0xc9, 0xd1, 0x00, 
  0xe4, 0xd5, 0xf9, 0x37, 0xfd, 0x0d, 0x3e, 0x13, 0xe8, 0xb8, 0xd1, 0x05, 
  0xd0, 0x00, 0x19, 0x0f, 0xfe, 0x32, 0x1e, 0x09, 0xf1, 0xe5, 0x26, 0x09, 
  0xe0, 0xe9, 0x0a, 0x32, 0x28, 0x2f, 0xf1, 0x0e, 0xda, 0x05, 0xdc, 0x16, 
  0x0b, 0x03, 0xee, 0x35, 0x21, 0xea, 0xe8, 0x0c, 0xe2, 0xf7, 0x3e, 0x41, 
  0x45, 0x3c, 0x3d, 0x36, 0xfc, 0x38, 0x2d, 0xe0, 0xec, 0x0e, 0xc6, 0xc4, 
  0xdc, 0xe5, 0xbb, 0xbc, 0xe1, 0xea, 0xbe, 0xd0, 0xa1, 0x05, 0x04, 0x1d, 
  0x18, 0xe0, 0xfd, 0xcb, 0xe7, 0x25, 0x0c, 0xfe, 0x2c, 0x40, 0x16, 0x64, 
  0x5a, 0x20, 0x45, 0x4f, 0x23, 0x70, 0x7d, 0x73, 0x72, 0x72, 0x74, 0x7f, 
  0x4d, 0x5e, 0x5a, 0x3d, 0x21, 0x2b, 0x2b, 0x2e, 0x33, 0x07, 0xe6, 0xdd, 
  0xc0, 0xc2, 0xd4, 0xc7, 0xc0, 0xc7, 0x05, 0xc0, 0x05, 0xed, 0x0a, 0xe7, 
  0xf0, 0x30, 0x1a, 0x2c, 0x47, 0x05, 0x2f, 0xeb, 0xcf, 0xfd, 0x14, 0xeb, 
  0xee, 0xe9, 0xbb, 0x07, 0x3a, 0x12, 0x01, 0x2b, 0x08, 0x37, 0xe7, 0x29, 
  0x1c, 0x16, 0x04, 0xf3, 0x13, 0xdd, 0xf7, 0xe8, 0x06, 0xd2, 0x02, 0xbc, 
  0xae, 0xca, 0xd8, 0xce, 0xbc, 0xf2, 0xf4, 0x11, 0xcf, 0x02, 0xda, 0x24, 
  0x03, 0x20, 0x0d, 0xdd, 0x0b, 0xd1, 0x21, 0x1b, 0xfd, 0x21, 0x0e, 0x43, 
  0x18, 0x04, 0x5b, 0x43, 0x28, 0x57, 0x45, 0x36, 0x4d, 0x66, 0x59, 0x72, 
  0x6c, 0x3b, 0x59, 0x7f, 0x46, 0x3b, 0x1b, 0x01, 0x51, 0x34, 0x2d, 0xfe, 
  0xdb, 0xda, 0xc8, 0xc9, 0xe7, 0xb1, 0xa5, 0xd8, 0xf6, 0x06, 0x1b, 0xfa, 
  0xf5, 0x17, 0x38, 0x40, 0x59, 0x33, 0x0a, 0x1f, 0xe9, 0x0f, 0xea, 0xdb, 
  0x00, 0x08, 0xc7, 0xd3, 0xed, 0x1a, 0xe2, 0xe2, 0xee, 0xe6, 0xf4, 0xfe, 
  0xf3, 0xe8, 0x25, 0x1e, 0x20, 0xef, 0x26, 0xfc, 0x13, 0x28, 0x1c, 0xd9, 
  0xd0, 0x0e, 0xf8, 0x00, 0xdc, 0xc0, 0xe8, 0xe0, 0x0b, 0xdc, 0xf8, 0xda, 
  0xc7, 0x2f, 0x14, 0x0d, 0xd2, 0x91, 0xec, 0xf9, 0x13, 0xec, 0xc9, 0x99, 
  0x98, 0xc6, 0xe6, 0x01, 0xe3, 0xb4, 0x8b, 0xfa, 0x37, 0x51, 0x34, 0xd8, 
  0x8a, 0xff, 0x1c, 0x2b, 0x23, 0xd5, 0xad, 0xc7, 0xf9, 0x68, 0x10, 0x0e, 
  0xb3, 0x07, 0x2e, 0x2a, 0x3b, 0xb0, 0xc0, 0x48, 0x7d, 0x33, 0xc7, 0xe1, 
  0x2f, 0x76, 0x6f, 0xd0, 0xc4, 0xbf, 0x15, 0x6c, 0xe8, 0xac, 0xe1, 0x47, 
  0x3e, 0x23, 0x01, 0x03, 0x0e, 0x47, 0x4e, 0x25, 0x02, 0x34, 0x42, 0x2e, 
  0xca, 0x49, 0x7f, 0x1e, 0xd5, 0xfe, 0x37, 0x57, 0x13, 0xd1, 0x0c, 0x3f, 
  0x6b, 0xca, 0xc6, 0xf3, 0x55, 0xf7, 0xda, 0xd4, 0x1f, 0x4c, 0x18, 0xef, 
  0xde, 0x21, 0x25, 0x17, 0x16, 0x21, 0x14, 0x4d, 0x7e, 0x7f, 0x53, 0x65, 
  0x46, 0x69, 0x49, 0x44, 0x24, 0x4b, 0x2d, 0x18, 0x42, 0x55, 0x2f, 0x1d, 
  0xfe, 0x2a, 0x15, 0x1d, 0x2c, 0xef, 0xce, 0xe2, 0xff, 0xf9, 0xf9, 0x05, 
  0xe2, 0x0e, 0x20, 0x28, 0xee, 0xe7, 0xf0, 0xf6, 0x1b, 0xfa, 0x1c, 0xe6, 
  0x07, 0x24, 0x30, 0x15, 0xf4, 0x3a, 0x1f, 0x00, 0x26, 0xe6, 0x01, 0xfa, 
  0x3b, 0x1c, 0xe1, 0xfa, 0xe4, 0xfb, 0x2a, 0xd5, 0xe3, 0x0a, 0x0f, 0xef, 
  0x27, 0x28, 0x18, 0x04, 0x01, 0x23, 0x13, 0x20, 0x14, 0xee, 0xf4, 0x0f, 
  0xf3, 0x09, 0xe4, 0x24, 0x05, 0x20, 0xcd, 0x00, 0xe7, 0x36, 0xf1, 0xfc, 
  0x17, 0x43, 0x3c, 0x47, 0x3f, 0x41, 0x0e, 0x37, 0x27, 0xef, 0xc2, 0x81, 
  0xd1, 0xa2, 0xd6, 0x03, 0x31, 0x35, 0x30, 0x54, 0x71, 0x43, 0x1f, 0xfb, 
  0xe5, 0xc5, 0xe4, 0xc9, 0xcd, 0xbf, 0xd4, 0x04, 0x05, 0x4c, 0x25, 0x05, 
  0x19, 0xe8, 0xff, 0xc6, 0xd3, 0x9d, 0xb8, 0x2f, 0x1f, 0x47, 0x13, 0x3c, 
  0xe3, 0x01, 0xb7, 0xf6, 0xc6, 0x0a, 0x16, 0x5d, 0x46, 0x55, 0xf5, 0x01, 
  0xd8, 0xdd, 0x9c, 0xcb, 0x37, 0x6a, 0x29, 0x12, 0x59, 0x62, 0x1a, 0xfe, 
  0x14, 0xdd, 0xd3, 0xe5, 0xdf, 0xd0, 0xad, 0xe1, 0xb2, 0xac, 0xd1, 0x2f, 
  0xfc, 0x36, 0x0a, 0x3b, 0x71, 0x2a, 0x08, 0x34, 0x29, 0xe6, 0x06, 0xf3, 
  0xcd, 0x9c, 0x83, 0xd4, 0xa2, 0xe2, 0xc6, 0xad, 0xc2, 0xdb, 0x0d, 0x58, 
  0x5a, 0x4f, 0x24, 0x44, 0x53, 0x2a, 0x5a, 0x31, 0x25, 0x2a, 0x16, 0x3a, 
  0x2c, 0x59, 0x34, 0xfc, 0xd5, 0xe3, 0xf7, 0xdb, 0x03, 0xd2, 0xd7, 0xda, 
  0xd5, 0xa5, 0x89, 0xbd, 0xb1, 0xe3, 0xef, 0xc4, 0xf3, 0x01, 0x16, 0x6c, 
  0x40, 0x4f, 0x16, 0x2e, 0x68, 0x09, 0xc8, 0xa6, 0xcf, 0xda, 0xbc, 0x81, 
  0x94, 0xcb, 0xfe, 0xb5, 0x00, 0xe6, 0xbb, 0xe1, 0xdd, 0xba, 0xdf, 0xfb, 
  0x21, 0xea, 0x1b, 0x02, 0x0a, 0x50, 0x10, 0x1c, 0x07, 0x4d, 0x2e, 0xd0, 
  0x12, 0x1c, 0x05, 0xf8, 0xf4, 0x18, 0xf8, 0x1f, 0xe7, 0xcf, 0x1e, 0xf9, 
  0xe8, 0x0c, 0x2f, 0x2e, 0x6f, 0x7f, 0x60, 0x31, 0x2a, 0x48, 0x4b, 0x12, 
  0x25, 0x35, 0x4c, 0x33, 0x5e, 0x39, 0x26, 0x74, 0x4e, 0x36, 0x21, 0x0a, 
  0xcd, 0xf0, 0xe7, 0xf3, 0xde, 0xb9, 0xb1, 0xc0, 0x1f, 0x21, 0x3f, 0x4c, 
  0x2d, 0x27, 0xf5, 0xf2, 0xdf, 0xe0, 0xcd, 0xe6, 0xea, 0xf4, 0x08, 0xe6, 
  0xd2, 0xec, 0xcd, 0xf0, 0xca, 0xf2, 0x21, 0x10, 0x23, 0x36, 0x36, 0xfd, 
  0xc5, 0xf1, 0xe6, 0xf9, 0x0c, 0x37, 0x17, 0x4f, 0x3a, 0x0a, 0x03, 0x3f, 
  0xef, 0x00, 0x10, 0xaf, 0xbe, 0xed, 0xdd, 0xd6, 0xba, 0xfa, 0x24, 0x1f, 
  0xfc, 0x0c, 0x2e, 0x19, 0x4a, 0x1d, 0xfc, 0xe6, 0xd7, 0xdd, 0xfc, 0xe2, 
  0xb4, 0xba, 0xd6, 0xc5, 0x30, 0x2d, 0xfe, 0x06, 0xfc, 0x37, 0x5b, 0x56, 
  0x79, 0x4b, 0x31, 0x28, 0x40, 0x7f, 0x5f, 0x3a, 0x15, 0x1c, 0x2a, 0xef, 
  0x4b, 0xea, 0x17, 0xc3, 0xd9, 0x0b, 0xdc, 0xd3, 0xd0, 0xda, 0xcd, 0xec, 
  0xe8, 0xc6, 0xd7, 0xf2, 0x19, 0x53, 0xfa, 0xd8, 0xd0, 0x23, 0xee, 0x10, 
  0xea, 0xdd, 0xf4, 0x22, 0xff, 0xe3, 0xb4, 0xa7, 0xd1, 0x27, 0x03, 0xd5, 
  0xc9, 0xff, 0x17, 0x01, 0xe8, 0xee, 0xeb, 0x0f, 0xc6, 0xf6, 0x9f, 0xef, 
  0xbd, 0xd7, 0xa3, 0xf5, 0xd4, 0x05, 0xf8, 0xf9, 0x0d, 0xf5, 0xe5, 0xc2, 
  0xbf, 0x14, 0xff, 0xcc, 0xcf, 0xe7, 0xe3, 0xf4, 0xe9, 0x04, 0x24, 0x22, 
  0x11, 0x75, 0x74, 0x44, 0xc1, 0xdc, 0xec, 0x32, 0x63, 0x3e, 0xc7, 0xc0, 
  0xab, 0x2c, 0x42, 0x6a, 0x2c, 0xb8, 0x86, 0xfe, 0x6b, 0x7f, 0x0d, 0xbd, 
  0xb2, 0xdc, 0x39, 0x5f, 0x4b, 0x2a, 0xd1, 0xb8, 0x11, 0x49, 0x2f, 0xe2, 
  0xa6, 0xce, 0x39, 0x53, 0xfb, 0xb5, 0xf6, 0x3d, 0x53, 0x37, 0xb8, 0xe7, 
  0x2f, 0x60, 0x63, 0x1a, 0x9a, 0xcb, 0x5d, 0x66, 0x21, 0x9e, 0xd4, 0x29, 
  0x78, 0x4a, 0xb4, 0xcc, 0x0b, 0x55, 0x57, 0xff, 0xd0, 0x3b, 0x24, 0xf4, 
  0xb2, 0x19, 0x58, 0x3f, 0x0c, 0xe9, 0x39, 0x7c, 0x00, 0x9b, 0xda, 0x65, 
  0x63, 0xd6, 0xbe, 0x25, 0x7c, 0x44, 0xb0, 0x04, 0x44, 0x24, 0x07, 0xd8, 
  0x20, 0x46, 0x65, 0x44, 0xc1, 0x90, 0xfe, 0x2c, 0x4f, 0x4a, 0xaf, 0xd3, 
  0xce, 0x23, 0x29, 0x5a, 0x06, 0x98, 0xb9, 0xf5, 0x2c, 0x7f, 0x3a, 0xe3, 
  0xeb, 0x18, 0x10, 0x55, 0x2c, 0xd2, 0xa8, 0xc5, 0x36, 0x5f, 0x2c, 0x17, 
  0xba, 0xbe, 0x58, 0x7c, 0x29, 0xb4, 0xae, 0x2f, 0x6e, 0x28, 0xfd, 0xde, 
  0x2a, 0x3e, 0x3f, 0xf4, 0xdc, 0xe2, 0x2f, 0x5b, 0x07, 0x91, 0xb8, 0x58, 
  0x2b, 0x13, 0xea, 0xf3, 0x43, 0x3d, 0x53, 0xb4, 0x1b, 0x33, 0x42, 0x2d, 
  0xad, 0x1b, 0x67, 0x59, 0xce, 0xcb, 0x52, 0x35, 0x32, 0x8f, 0xf5, 0x36, 
  0x50, 0xe6, 0xb9, 0x33, 0x41, 0x4f, 0xcf, 0xfa, 0x22, 0x48, 0xe8, 0xf1, 
  0x0e, 0x0c, 0x44, 0x09, 0x35, 0x5a, 0x41, 0x5b, 0x7f, 0x65, 0x3e, 0x6f, 
  0x39, 0x6f, 0x4f, 0x2e, 0x14, 0xe9, 0xe9, 0x2c, 0x23, 0x09, 0xe9, 0xe0, 
  0x0d, 0xe9, 0x2d, 0x17, 0x3e, 0x20, 0x2c, 0x0a, 0x10, 0x00, 0x21, 0x12, 
  0xc5, 0xf0, 0xe4, 0x23, 0x1f, 0x08, 0xe9, 0x00, 0x14, 0x0d, 0xda, 0x18, 
  0x13, 0x2a, 0x37, 0x4b, 0x0d, 0x0d, 0x12, 0x11, 0x03, 0xf6, 0xd6, 0xf2, 
  0x01, 0x32, 0x01, 0xd7, 0x25, 0x05, 0xee, 0x0c, 0x0f, 0x25, 0x3a, 0x30, 
  0xf6, 0x29, 0x10, 0x26, 0xfc, 0xdd, 0xef, 0x19, 0x1d, 0xc7, 0xf8, 0xf2, 
  0xcd, 0xff, 0xe8, 0xe9, 0x11, 0xde, 0xf0, 0xca, 0x00, 0x09, 0xf0, 0x1e, 
  0xf2, 0x64, 0x17, 0x09, 0xae, 0x9f, 0xf2, 0xef, 0x39, 0x3e, 0xe3, 0x8f, 
  0xd1, 0x14, 0x4c, 0x52, 0xff, 0x9c, 0xc0, 0xc4, 0x34, 0x42, 0x16, 0xca, 
  0xa4, 0xc9, 0x37, 0x3f, 0x50, 0x00, 0xd8, 0x01, 0x3f, 0x31, 0x56, 0xcd, 
  0xb5, 0xf6, 0x47, 0x35, 0x27, 0xbe, 0xf3, 0x51, 0x30, 0x3f, 0xe5, 0xed, 
  0x2e, 0x7f, 0x5b, 0xf9, 0xcc, 0xe9, 0x19, 0x2e, 0xfb, 0xb9, 0xb5, 0x59, 
  0x53, 0x19, 0xef, 0xfb, 0xfc, 0x65, 0x27, 0xdb, 0x0f, 0x32, 0x5b, 0x19, 
  0xd3, 0x14, 0x4b, 0x19, 0xe9, 0xc2, 0x0f, 0x3b, 0x09, 0xea, 0x0e, 0x5a, 
  0x20, 0xd8, 0xd9, 0x18, 0x20, 0x2f, 0xdc, 0xf2, 0x23, 0x37, 0xfe, 0xcd, 
  0xe5, 0x02, 0x10, 0x35, 0x39, 0x33, 0x35, 0x15, 0xe4, 0xa0, 0xbf, 0x98, 
  0xc6, 0xea, 0xd3, 0xc1, 0xfa, 0x0d, 0x11, 0x22, 0x10, 0x56, 0xed, 0xde, 
  0xb4, 0xc5, 0xc5, 0x81, 0xc7, 0xc1, 0xbe, 0xe8, 0xe5, 0x14, 0x24, 0xf4, 
  0x13, 0x16, 0xf5, 0xe7, 0xd4, 0xb7, 0xe0, 0x3a, 0x23, 0x32, 0x25, 0x4b, 
  0x41, 0xdf, 0xdd, 0xee, 0xe9, 0xff, 0xf8, 0x01, 0xfa, 0x19, 0x18, 0xae, 
  0xf5, 0xcb, 0xf0, 0xbd, 0x4a, 0x3f, 0x52, 0x3a, 0x1b, 0x27, 0x3f, 0xd6, 
  0x24, 0xe3, 0xff, 0xb6, 0xb6, 0xed, 0xee, 0xe1, 0xa5, 0xca, 0x12, 0x23, 
  0xf7, 0x12, 0x52, 0x5f, 0x2a, 0x2d, 0x50, 0x1e, 0x41, 0xe7, 0xd4, 0xf7, 
  0x21, 0x1f, 0x19, 0x15, 0x29, 0x60, 0x1e, 0xe9, 0xfc, 0xb1, 0xed, 0xda, 
  0xe1, 0xae, 0xe8, 0xe2, 0x1c, 0x4f, 0x52, 0x53, 0x2c, 0x2e, 0xfa, 0x1d, 
  0xca, 0xe9, 0xbf, 0x81, 0xd0, 0xcd, 0xd5, 0xf2, 0x07, 0xef, 0x27, 0x17, 
  0x5d, 0xf7, 0xc9, 0xf1, 0xbc, 0xe4, 0xf2, 0x0f, 0x3a, 0x2a, 0x3e, 0x2c, 
  0xcf, 0x8d, 0x86, 0xda, 0xbe, 0xdc, 0x06, 0x13, 0x0f, 0x1d, 0x3c, 0xc6, 
  0xe0, 0xd2, 0x00, 0x0a, 0x18, 0x5c, 0x0e, 0x43, 0x30, 0x43, 0x39, 0xe2, 
  0x18, 0x14, 0xb5, 0xa0, 0xd8, 0xc6, 0xe5, 0xd1, 0xf9, 0xe3, 0xea, 0xdf, 
  0x47, 0x23, 0x1b, 0x26, 0x50, 0x10, 0x36, 0x44, 0x01, 0x11, 0x0d, 0xf6, 
  0xf5, 0x4f, 0x5a, 0x64, 0x09, 0xeb, 0x0f, 0xed, 0xdb, 0xf1, 0xd4, 0x86, 
  0xb0, 0xa8, 0xfe, 0x1a, 0x08, 0x49, 0x4a, 0x0c, 0x60, 0x21, 0xf8, 0x0b, 
  0xea, 0x91, 0xa2, 0xe2, 0xe4, 0xea, 0x8b, 0xa5, 0x1d, 0x3e, 0x5c, 0x59, 
  0xfc, 0xfa, 0x1e, 0x14, 0xaa, 0xae, 0xca, 0x2c, 0x26, 0x2c, 0x09, 0x22, 
  0x1e, 0xcf, 0xe5, 0xb8, 0xba, 0xf1, 0x1d, 0x26, 0x48, 0x4c, 0x24, 0xf7, 
  0xd9, 0x08, 0xf3, 0xcc, 0x1d, 0x7f, 0x75, 0x17, 0x67, 0x10, 0x56, 0xf0, 
  0xb3, 0x0e, 0x0e, 0xc8, 0xd4, 0xd9, 0xd9, 0x01, 0xe4, 0xf2, 0xd8, 0x29, 
  0x52, 0xf9, 0x50, 0x7c, 0x42, 0x13, 0x2a, 0x17, 0x24, 0x4e, 0x03, 0xce, 
  0xf4, 0x62, 0x4d, 0x1d, 0xee, 0xb0, 0xf2, 0x32, 0x3e, 0x07, 0xfd, 0x86, 
  0xda, 0xf4, 0x4e, 0x49, 0x13, 0xda, 0x91, 0xce, 0x0f, 0x65, 0x13, 0xd6, 
  0xca, 0xf1, 0x39, 0x6c, 0x54, 0x1a, 0xad, 0xf4, 0x20, 0x60, 0x69, 0xf2, 
  0xa1, 0xef, 0x42, 0x5b, 0x0c, 0xd5, 0xcf, 0x7f, 0x6a, 0x4e, 0x03, 0xbd, 
  0x47, 0x7d, 0x40, 0xef, 0xd4, 0x18, 0x59, 0x45, 0xfb, 0x8a, 0xb6, 0x13, 
  0x5f, 0x63, 0xce, 0xda, 0x13, 0x47, 0x1c, 0xe0, 0xed, 0x46, 0x4f, 0xf1, 
  0xc7, 0x3f, 0x66, 0x38, 0xe5, 0xf7, 0x50, 0x50, 0x3e, 0xee, 0x0e, 0x66, 
  0x51, 0xc4, 0x91, 0xed, 0x6d, 0x3f, 0xdf, 0xdb, 0x50, 0x4a, 0x1d, 0xb1, 
  0x17, 0x28, 0xe5, 0x18, 0x14, 0x3d, 0x6e, 0x1f, 0x46, 0x2d, 0x7f, 0x5f, 
  0x53, 0x1c, 0xd1, 0xc1, 0x1e, 0x0c, 0xdc, 0x01, 0xdb, 0x8a, 0xe9, 0x04, 
  0xe7, 0xf2, 0x1b, 0xf3, 0xe6, 0x4e, 0x2d, 0x74, 0x03, 0xe9, 0xe1, 0xed, 
  0x15, 0x05, 0xd6, 0xea, 0x15, 0x1f, 0x35, 0xc0, 0xa9, 0xf7, 0xff, 0x42, 
  0xc1, 0x8c, 0xb4, 0x1c, 0x4a, 0x31, 0xfd, 0xe8, 0xed, 0xf1, 0xf2, 0xf2, 
  0x9c, 0xf5, 0x17, 0xec, 0xdf, 0x20, 0x2f, 0x3a, 0xfb, 0xb1, 0x11, 0x3e, 
  0x45, 0x19, 0xef, 0x15, 0x24, 0x57, 0x0a, 0xde, 0xec, 0xee, 0xe4, 0xc6, 
  0xb1, 0x07, 0x0e, 0x85, 0xa6, 0x98, 0xda, 0xb3, 0xe9, 0xc3, 0xc4, 0xf7, 
  0xc7, 0xe3, 0xd3, 0x0d, 0xf5, 0x28, 0x0b, 0x48, 0x2e, 0x7f, 0x38, 0x5f, 
  0x6f, 0x6b, 0x35, 0x3b, 0x2d, 0x41, 0x5b, 0x2a, 0x10, 0x2e, 0x53, 0x17, 
  0x01, 0x04, 0x13, 0x2d, 0xf1, 0xe0, 0xc8, 0xb0, 0xd2, 0xcf, 0x0a, 0xe3, 
  0xc0, 0xdb, 0x08, 0x15, 0xff, 0x0a, 0x23, 0xf2, 0x0d, 0xf7, 0x28, 0x32, 
  0x46, 0x27, 0x23, 0x07, 0xfe, 0x07, 0xe5, 0xff, 0xd1, 0x05, 0xdb, 0x0d, 
  0xef, 0x0f, 0xd5, 0xdc, 0xc9, 0xe0, 0xcf, 0x0d, 0xda, 0x28, 0xea, 0x23, 
  0xe7, 0x30, 0x3f, 0x35, 0x34, 0x22, 0xfd, 0xf7, 0xfe, 0xe1, 0x20, 0x23, 
  0x34, 0xd5, 0xe2, 0xe7, 0x0f, 0x0b, 0xd2, 0xe7, 0x25, 0xec, 0xcc, 0x13, 
  0xe3, 0xd5, 0xbc, 0xc0, 0xbf, 0xcd, 0x94, 0xbc, 0xb3, 0xc6, 0xf8, 0x08, 
  0xd3, 0xf9, 0x01, 0x1d, 0x30, 0xde, 0x15, 0x2b, 0x2e, 0x22, 0x22, 0x2c, 
  0x6b, 0x48, 0x2e, 0x4d, 0x6f, 0x44, 0x08, 0xda, 0x57, 0x35, 0xf8, 0xe2, 
  0xd1, 0x93, 0xcc, 0xaf, 0x81, 0xae, 0xc9, 0xcd, 0xef, 0xfd, 0xea, 0x40, 
  0x78, 0x59, 0x5b, 0x34, 0x7e, 0x55, 0x5a, 0x13, 0xf5, 0xd0, 0x9d, 0xb4, 
  0x88, 0x8d, 0xb7, 0xaa, 0xf6, 0xde, 0xf2, 0xc1, 0xb7, 0xb7, 0xc8, 0xac, 
  0xd3, 0x04, 0xf4, 0xf8, 0xfb, 0xe5, 0xe2, 0x1f, 0x22, 0xd0, 0xeb, 0x1b, 
  0x1d, 0x12, 0xe9, 0xff, 0x31, 0x21, 0x12, 0x2d, 0x0f, 0x24, 0x58, 0x48, 
  0xac, 0xa4, 0xa6, 0x86, 0x95, 0xaf, 0xa2, 0xc1, 0xd2, 0xcd, 0x15, 0x28, 
  0x08, 0x18, 0x22, 0x0c, 0x12, 0x3b, 0x42, 0x25, 0x47, 0x4a, 0x3a, 0x46, 
  0x1a, 0x2a, 0x47, 0x0e, 0xf5, 0xf2, 0xe9, 0xa5, 0x03, 0x18, 0xb1, 0xb4, 
  0xc8, 0xa8, 0x94, 0x8d, 0x9e, 0xc4, 0xc3, 0x08, 0x3c, 0x54, 0x5a, 0x45, 
  0x47, 0x47, 0x58, 0x68, 0x2c, 0x1a, 0xde, 0xec, 0xb5, 0xc7, 0x81, 0xa6, 
  0xa1, 0xcb, 0xb4, 0xa6, 0xa3, 0xb9, 0x9c, 0xad, 0xd0, 0xcc, 0xdd, 0xf7, 
  0xdc, 0x29, 0xfa, 0xf2, 0x0b, 0x43, 0x31, 0x29, 0x24, 0x35, 0x4b, 0x12, 
  0x30, 0x29, 0x08, 0x2a, 0x48, 0x25, 0x31, 0x11, 0x21, 0x1a, 0x1c, 0xeb, 
  0x09, 0x18, 0x2e, 0xff, 0xfa, 0xa8, 0xd5, 0xfc, 0x09, 0x3b, 0xd1, 0xd7, 
  0xe5, 0x27, 0x1a, 0x56, 0x39, 0xe1, 0xc6, 0xf3, 0x2a, 0x45, 0x0c, 0xd6, 
  0xb3, 0xc5, 0xce, 0x1f, 0xf4, 0xe9, 0x8e, 0x9b, 0xe1, 0x16, 0x2e, 0xee, 
  0xac, 0xd3, 0x0c, 0x0e, 0xf9, 0xde, 0x20, 0x71, 0x56, 0x62, 0x25, 0x1b, 
  0x18, 0x42, 0x3b, 0x19, 0x99, 0xdd, 0x24, 0x21, 0xfd, 0xb9, 0xac, 0x26, 
  0x2c, 0x36, 0x00, 0xc5, 0x11, 0x41, 0x2a, 0xeb, 0x12, 0x56, 0x5d, 0x1e, 
  0x4e, 0x44, 0x7f, 0x45, 0x46, 0x5a, 0x51, 0x78, 0x7c, 0x08, 0x62, 0x70, 
  0x39, 0x2e, 0x1e, 0x4d, 0x3f, 0x0c, 0xe0, 0xb4, 0x09, 0xf5, 0xc0, 0xd0, 
  0xed, 0x11, 0x26, 0x73, 0x6b, 0x66, 0x30, 0x20, 0x28, 0x57, 0x6d, 0x6e, 
  0x36, 0x71, 0x3d, 0x39, 0x58, 0x61, 0x7f, 0x3a, 0x3b, 0x34, 0x2a, 0x13, 
  0x00, 0xed, 0xb1, 0xd6, 0xe3, 0xb9, 0xf5, 0xc8, 0xe1, 0x3a, 0x4d, 0x5c, 
  0x2f, 0x3e, 0x2f, 0xd5, 0xc8, 0xe8, 0x0c, 0xe4, 0xcd, 0xe8, 0x1b, 0x18, 
  0xc6, 0xe9, 0xbc, 0x00, 0xed, 0x10, 0x32, 0x23, 0x50, 0x21, 0x54, 0xf5, 
  0xd7, 0xdf, 0xcf, 0x01, 0x16, 0x08, 0x49, 0x2a, 0x00, 0x19, 0x0f, 0x23, 
  0x1d, 0x29, 0xe6, 0xcf, 0xd6, 0xba, 0x9d, 0xe0, 0xee, 0xf0, 0x15, 0x02, 
  0x0a, 0x31, 0x1e, 0x2a, 0x33, 0xff, 0x0f, 0x1d, 0xe4, 0xcb, 0xd0, 0xcd, 
  0x40, 0x3f, 0x58, 0x65, 0x3e, 0x5b, 0x39, 0x64, 0x2a, 0x31, 0xe7, 0xd1, 
  0xc9, 0x22, 0x18, 0x15, 0xe9, 0xb9, 0xe0, 0x2c, 0x27, 0x35, 0xf2, 0xb5, 
  0xf3, 0xf2, 0xe5, 0xea, 0xe7, 0x38, 0xe4, 0x24, 0x1b, 0x26, 0x28, 0x49, 
  0x43, 0x40, 0x1e, 0x1a, 0x03, 0x9e, 0xf9, 0xf4, 0x19, 0xf1, 0xcd, 0xd3, 
  0xcc, 0x34, 0x40, 0xfb, 0x0b, 0xf7, 0x63, 0x4b, 0x31, 0x2c, 0x22, 0x05, 
  0xee, 0xd9, 0x9f, 0xf0, 0x6b, 0x7f, 0x42, 0x64, 0x6b, 0x4c, 0x32, 0x4b, 
  0x1e, 0x2b, 0x1f, 0x1e, 0xe5, 0xa7, 0xc8, 0xd8, 0xc2, 0xa2, 0x93, 0xb8, 
  0xb3, 0x91, 0xd3, 0xbc, 0xf6, 0xc5, 0xbf, 0xa9, 0xb4, 0xff, 0xa6, 0xe2, 
  0xf7, 0x65, 0x25, 0x0c, 0x06, 0xfe, 0xf9, 0x28, 0x18, 0xd9, 0xcd, 0xad, 
  0x8a, 0x9a, 0xd8, 0x18, 0xff, 0xb6, 0xdd, 0xfd, 0x13, 0x5b, 0xcc, 0x8f, 
  0xab, 0x9e, 0xbc, 0xc7, 0xf2, 0xa7, 0xa2, 0xfa, 0xf0, 0x5e, 0x60, 0xd9, 
  0xd0, 0xa8, 0xf9, 0xf2, 0xea, 0xa9, 0xbc, 0x32, 0x74, 0x2d, 0x59, 0x57, 
  0x43, 0x7f, 0x49, 0x07, 0x8e, 0x03, 0xf6, 0x61, 0xe5, 0xff, 0xb4, 0x03, 
  0x1c, 0x04, 0xbb, 0xc3, 0x51, 0x2d, 0x6d, 0x0e, 0x4b, 0x51, 0x42, 0x42, 
  0xc5, 0x05, 0x05, 0xd4, 0xa9, 0xd4, 0xc4, 0x3b, 0xd6, 0xc3, 0x26, 0x49, 
  0x6e, 0x0d, 0x34, 0x0f, 0x52, 0x1c, 0x01, 0xe8, 0x5e, 0x2f, 0xf4, 0xcd, 
  0xef, 0x54, 0x0c, 0x0a, 0xf0, 0xa8, 0xb8, 0x3f, 0x38, 0x0f, 0x05, 0xf0, 
  0xe8, 0x3c, 0x32, 0x5e, 0xcd, 0xe3, 0x85, 0xfe, 0x19, 0x27, 0x18, 0x9e, 
  0x99, 0xfc, 0x32, 0x68, 0x38, 0x02, 0xc3, 0x15, 0x01, 0x30, 0x38, 0xff, 
  0xe1, 0xfc, 0x34, 0x43, 0xf0, 0xac, 0xfe, 0x1a, 0x76, 0x33, 0xd3, 0xe7, 
  0x48, 0x7f, 0x72, 0x37, 0xfe, 0x0f, 0x2b, 0x20, 0xca, 0xa6, 0xa5, 0xe0, 
  0x4e, 0x4f, 0x06, 0xf7, 0x14, 0x38, 0x36, 0x06, 0x09, 0x4f, 0x4f, 0x38, 
  0xea, 0x46, 0x44, 0x6b, 0x19, 0xfe, 0x48, 0x5e, 0x25, 0xf2, 0x0d, 0x5c, 
  0x0b, 0x9f, 0xd5, 0xdf, 0x1e, 0xfa, 0x8e, 0xda, 0xfa, 0x08, 0xaf, 0xf8, 
  0xf1, 0x58, 0x1d, 0x59, 0x64, 0x1d, 0x06, 0x0b, 0xbf, 0xcd, 0xc2, 0xb9, 
  0xaf, 0x85, 0xbb, 0xca, 0xf1, 0x27, 0x51, 0x3d, 0x4e, 0x14, 0x32, 0xf5, 
  0xd9, 0xb3, 0x81, 0xa4, 0x83, 0xcb, 0xed, 0xe5, 0xdb, 0xdf, 0x40, 0x38, 
  0xfc, 0x28, 0xf3, 0xc9, 0xb8, 0xec, 0xe1, 0x38, 0x3a, 0x67, 0x63, 0x34, 
  0x19, 0x95, 0xdc, 0xd7, 0xf1, 0xe8, 0x10, 0xff, 0x63, 0x20, 0x17, 0xd7, 
  0xda, 0xa7, 0xe7, 0xcb, 0x17, 0x4c, 0x31, 0x20, 0x1f, 0x59, 0x07, 0x1e, 
  0xdf, 0xd7, 0xaa, 0xe2, 0xe7, 0xda, 0xe7, 0xcb, 0xdd, 0xba, 0x03, 0x19, 
  0x15, 0x52, 0x3b, 0x3a, 0x41, 0x1a, 0x3e, 0x45, 0xf2, 0x19, 0xc1, 0xf8, 
  0x09, 0xf4, 0x64, 0x36, 0x36, 0x7b, 0x2a, 0x20, 0xc9, 0xd5, 0xd0, 0xbf, 
  0x9d, 0x9e, 0xbc, 0x09, 0x53, 0x23, 0x5e, 0x3e, 0x18, 0x0f, 0xf7, 0xfc, 
  0x02, 0xce, 0xa7, 0xc4, 0x81, 0xcf, 0xbb, 0xe7, 0x0b, 0x15, 0x39, 0x44, 
  0x09, 0xfa, 0xd0, 0xe2, 0xc1, 0xc1, 0xdf, 0x33, 0x61, 0x52, 0x2e, 0x36, 
  0x15, 0xcd, 0x83, 0xb2, 0xb8, 0xf7, 0x2c, 0x0a, 0xfc, 0x1e, 0xfe, 0xe5, 
  0xdb, 0xbc, 0x0d, 0xde, 0x33, 0x54, 0x11, 0x5d, 0x4c, 0x38, 0x32, 0x12, 
  0x17, 0xd0, 0xbe, 0xd1, 0xe9, 0xed, 0xbc, 0xa5, 0xb8, 0x23, 0xd3, 0x0e, 
  0x27, 0x4c, 0x22, 0x22, 0x16, 0x31, 0x6e, 0x68, 0xe0, 0x27, 0xe4, 0xd5, 
  0x19, 0x15, 0x67, 0x25, 0x1b, 0x2e, 0x6a, 0x2c, 0x50, 0x0f, 0x6c, 0x61, 
  0x26, 0xfa, 0x03, 0x1a, 0x23, 0xee, 0x20, 0xf3, 0x31, 0xf4, 0x21, 0x21, 
  0x57, 0x41, 0x74, 0x5f, 0x7f, 0x7f, 0x7b, 0x5a, 0x0f, 0x21, 0xf2, 0x1a, 
  0xef, 0x2f, 0x3c, 0x32, 0x17, 0xca, 0x02, 0xc5, 0xb4, 0xbb, 0xfb, 0x06, 
  0xbb, 0x09, 0xec, 0x04, 0x32, 0x32, 0x2c, 0x34, 0x11, 0x23, 0xec, 0x28, 
  0x1d, 0xec, 0x16, 0x19, 0xd4, 0xf2, 0x11, 0xc6, 0xef, 0xbc, 0xff, 0x17, 
  0x17, 0xdf, 0xed, 0x22, 0xf1, 0xfd, 0x08, 0xde, 0x28, 0x16, 0xf6, 0x09, 
  0xfd, 0xe0, 0xe5, 0xdf, 0x08, 0xfc, 0xd7, 0x07, 0x1d, 0x34, 0xdc, 0x0e, 
  0x03, 0x50, 0x37, 0x02, 0xf9, 0xae, 0xcb, 0xfe, 0x0a, 0xfe, 0x00, 0xad, 
  0xd1, 0x1d, 0x25, 0x10, 0xe1, 0x9f, 0xaf, 0xc2, 0x32, 0x18, 0xe4, 0xec, 
  0x95, 0xf6, 0x17, 0x61, 0x09, 0xe0, 0x05, 0xe7, 0xf5, 0x33, 0x09, 0xbf, 
  0xc4, 0x14, 0x3f, 0x3a, 0x18, 0xe0, 0xea, 0x5b, 0x55, 0x3a, 0xeb, 0xb6, 
  0x2c, 0x7f, 0x7f, 0x19, 0xac, 0x14, 0x19, 0x55, 0xec, 0xc4, 0xbe, 0x31, 
  0x79, 0x25, 0xdb, 0x06, 0xe9, 0x31, 0xf3, 0xf4, 0xdd, 0x4a, 0x24, 0xf4, 
  0xb6, 0x15, 0x3a, 0x48, 0x1b, 0xca, 0x4e, 0x46, 0x2c, 0x0f, 0x0b, 0x3e, 
  0x5f, 0xd5, 0xac, 0x09, 0x27, 0x18, 0xbe, 0xca, 0x0d, 0x33, 0x31, 0x13, 
  0x89, 0xcb, 0x81, 0x86, 0xb2, 0xa2, 0xdf, 0xe6, 0x34, 0x4c, 0x0f, 0x30, 
  0x74, 0x4a, 0x67, 0x6a, 0x5b, 0x5c, 0x58, 0x38, 0x5b, 0x34, 0x17, 0x15, 
  0x40, 0x0b, 0x30, 0xfb, 0x1a, 0xcb, 0xec, 0xb7, 0x24, 0xdb, 0xc4, 0xd2, 
  0xbb, 0x94, 0xb1, 0xdf, 0x94, 0xf8, 0xeb, 0x15, 0x40, 0x34, 0x2d, 0x62, 
  0x55, 0x4b, 0x73, 0x56, 0x39, 0x04, 0xc5, 0xb6, 0xa5, 0x82, 0xbc, 0x96, 
  0xc0, 0xba, 0xeb, 0x01, 0xe0, 0xcc, 0xd8, 0xe7, 0xf6, 0x09, 0xe7, 0x40, 
  0xf7, 0xfc, 0x28, 0x21, 0x0f, 0x3a, 0x4a, 0x4c, 0x0b, 0x50, 0x2f, 0xff, 
  0x2e, 0x27, 0xe2, 0xf5, 0x2a, 0xfb, 0xf7, 0xed, 0xe7, 0x10, 0xbd, 0xcb, 
  0x1f, 0x25, 0x34, 0x2c, 0xfe, 0xbb, 0xe4, 0x43, 0x64, 0x4e, 0xf2, 0xb3, 
  0xd8, 0x08, 0x6f, 0x3f, 0x10, 0xd3, 0xf7, 0xf5, 0x55, 0x71, 0x55, 0xc9, 
  0xd4, 0x05, 0x35, 0x68, 0x43, 0x14, 0xf8, 0xbb, 0x1b, 0x4a, 0x5c, 0xef, 
  0xe5, 0x00, 0x45, 0x69, 0x14, 0xcb, 0xb9, 0x51, 0x7f, 0x4e, 0xde, 0xcf, 
  0x3f, 0x37, 0x2c, 0x00, 0xb9, 0x23, 0x3b, 0x6f, 0x1b, 0xc7, 0xc0, 0xfd, 
  0x60, 0x3b, 0xd6, 0xb8, 0x21, 0x5d, 0x47, 0xd9, 0xf4, 0x2f, 0x66, 0x31, 
  0xc3, 0x01, 0x27, 0x13, 0xd3, 0xe5, 0x28, 0x4a, 0x37, 0xcc, 0x0f, 0x65, 
  0x2c, 0x02, 0xc0, 0x0a, 0x6e, 0x18, 0xc3, 0x0d, 0x56, 0x2b, 0x0a, 0xc9, 
  0x2f, 0xe4, 0x15, 0x4c, 0x0a, 0x20, 0x09, 0xd6, 0xa5, 0xd0, 0xd6, 0xce, 
  0xd1, 0xb8, 0xb0, 0xb7, 0x1a, 0x3d, 0x07, 0x39, 0x2e, 0xe7, 0x21, 0xc2, 
  0xe0, 0x91, 0xb8, 0x8e, 0x8a, 0x81, 0xda, 0xc7, 0xe9, 0x1c, 0x1a, 0x43, 
  0x07, 0x02, 0xf8, 0x96, 0xa9, 0xcf, 0xd7, 0xfd, 0x39, 0x2c, 0x64, 0x51, 
  0x1f, 0xbc, 0x99, 0xd9, 0xf1, 0xe0, 0x12, 0xef, 0x53, 0x40, 0x05, 0xc7, 
  0xd2, 0x97, 0xdc, 0xc6, 0x5c, 0x2f, 0x53, 0x4c, 0x38, 0x26, 0x30, 0x3e, 
  0x01, 0x06, 0xdc, 0x9c, 0xc5, 0xaf, 0xa3, 0xeb, 0xc6, 0x13, 0xed, 0xee, 
  0xf1, 0x16, 0x3e, 0x2b, 0x40, 0x1d, 0x41, 0xf7, 0x42, 0xf2, 0x07, 0xc7, 
  0x41, 0x65, 0x31, 0x3a, 0x4e, 0x50, 0x32, 0x42, 0x58, 0x40, 0x08, 0x52, 
  0x09, 0x0c, 0xd5, 0xe9, 0x08, 0xe9, 0xdb, 0x16, 0xe6, 0x14, 0xf9, 0x24, 
  0x54, 0x3c, 0x2f, 0x5c, 0x7f, 0x6c, 0x2e, 0x4d, 0x29, 0xff, 0xfd, 0x15, 
  0xfb, 0x17, 0x38, 0xde, 0x18, 0xff, 0xe0, 0xcf, 0xa2, 0xef, 0xbb, 0xb0, 
  0xf7, 0xf1, 0x13, 0x15, 0x10, 0x14, 0x25, 0x28, 0x2f, 0x11, 0x07, 0xf6, 
  0x33, 0xfe, 0xd0, 0x14, 0xe2, 0xc9, 0xcd, 0x0c, 0x08, 0xd5, 0xc5, 0x22, 
  0x13, 0xe8, 0x0c, 0xf5, 0xd8, 0x27, 0xe1, 0xda, 0xff, 0xcf, 0xce, 0xda, 
  0x15, 0xde, 0xeb, 0x06, 0x03, 0x12, 0xef, 0x01, 0xdb, 0x21, 0xf9, 0x1f, 
  0x20, 0x0d, 0x01, 0x0a, 0x18, 0xd1, 0xa9, 0x91, 0x81, 0xc0, 0xc9, 0xbd, 
  0xd4, 0xc5, 0xae, 0xb1, 0xdc, 0xf0, 0x2a, 0x0f, 0x00, 0x23, 0x15, 0x5b, 
  0x51, 0x63, 0x4f, 0x2e, 0x33, 0x2f, 0x5c, 0x13, 0x44, 0xee, 0x18, 0xf5, 
  0xfa, 0xca, 0x9c, 0xbe, 0x89, 0x9f, 0xd8, 0x9b, 0xec, 0xff, 0x0b, 0x55, 
  0x3b, 0x3e, 0x1a, 0x32, 0x5c, 0x2c, 0x3a, 0x03, 0x03, 0x0c, 0xb7, 0xd0, 
  0x92, 0xa5, 0xa2, 0xce, 0xea, 0x10, 0xe0, 0x07, 0xde, 0xde, 0xaf, 0xa9, 
  0xbd, 0xbb, 0xcc, 0x9c, 0xe7, 0xcf, 0xba, 0xc3, 0xa7, 0xe3, 0xf2, 0xd8, 
  0xcb, 0x1d, 0x02, 0x1d, 0x07, 0x15, 0x4c, 0x48, 0xf9, 0xff, 0x10, 0x5e, 
  0xff, 0xef, 0x4e, 0x21, 0x33, 0x28, 0x38, 0xe7, 0xc7, 0xd4, 0xda, 0xe0, 
  0xcf, 0x8b, 0xb7, 0xb8, 0x26, 0x54, 0x45, 0x4d, 0x40, 0x2a, 0x0e, 0xf3, 
  0xce, 0xc0, 0xc4, 0x81, 0x9c, 0xbc, 0xf4, 0xb4, 0x14, 0xe7, 0x4f, 0x40, 
  0x52, 0x23, 0xb5, 0xc3, 0xa9, 0xba, 0x20, 0xde, 0xda, 0x2f, 0x04, 0x31, 
  0xdc, 0xe2, 0xe2, 0xb4, 0xdf, 0xf9, 0x05, 0x1d, 0xff, 0x42, 0x3c, 0xe3, 
  0xb9, 0xe3, 0xa2, 0xfa, 0x21, 0x51, 0x42, 0x23, 0x41, 0x35, 0x07, 0x3f, 
  0x38, 0x0d, 0xaf, 0xd2, 0x9f, 0xb0, 0xa9, 0xd7, 0xb3, 0xe8, 0xf3, 0x21, 
  0x29, 0x5a, 0x38, 0x33, 0x3d, 0x4e, 0x50, 0xee, 0xf1, 0xde, 0xf7, 0xb7, 
  0xdd, 0x27, 0xee, 0xf2, 0x2a, 0x32, 0x2a, 0xe3, 0xe6, 0xe5, 0xd4, 0xf8, 
  0xca, 0x0b, 0x3a, 0x57, 0x2e, 0x75, 0x5b, 0x66, 0x45, 0x7f, 0x74, 0x28, 
  0x41, 0xe7, 0xed, 0xf5, 0xc0, 0xc6, 0xad, 0xbc, 0x10, 0x08, 0x1a, 0x3f, 
  0xfc, 0x28, 0x20, 0x02, 0xde, 0xde, 0xfe, 0xf5, 0xfb, 0xf7, 0x31, 0xe7, 
  0xd5, 0x0b, 0xde, 0xc9, 0xb0, 0xf7, 0x2e, 0x24, 0x19, 0x18, 0xec, 0x26, 
  0xee, 0xe1, 0xf3, 0xfe, 0x0c, 0x1b, 0x21, 0x4c, 0x34, 0x29, 0x19, 0x30, 
  0x02, 0xe0, 0xf6, 0xc1, 0xce, 0xb2, 0xea, 0xbc, 0xfc, 0xe8, 0x1a, 0x29, 
  0x49, 0x0e, 0x0c, 0x32, 0x21, 0x21, 0x29, 0x24, 0x09, 0xfb, 0x17, 0xc7, 
  0xe0, 0x2b, 0xff, 0xff, 0xe4, 0x2b, 0xff, 0xff, 0xe8, 0x2b, 0xff, 0xff, 
  0xec, 0x2b, 0xff, 0xff, 0xf0, 0x2b, 0xff, 0xff, 0xc2, 0xcd, 0xff, 0xff, 
  0x04, 0x00, 0x00, 0x00, 0x00, 0x01, 0x00, 0x00, 0x8b, 0x16, 0x00, 0x00, 
  0xb2, 0x26, 0x00, 0x00, 0x1c, 0x43, 0x00, 0x00, 0x66, 0x44, 0x00, 0x00, 
  0x7e, 0x43, 0x00, 0x00, 0x52, 0x2f, 0x00, 0x00, 0xa0, 0xfc, 0xff, 0xff, 
  0x9e, 0x2e, 0x00, 0x00, 0xaa, 0x0b, 0x00, 0x00, 0x21, 0xe9, 0xff, 0xff, 
  0xda, 0x22, 0x00, 0x00, 0x20, 0xf4, 0xff, 0xff, 0xb0, 0xfe, 0xff, 0xff, 
  0x80, 0xef, 0xff, 0xff, 0x19, 0xf1, 0xff, 0xff, 0x67, 0xfb, 0xff, 0xff, 
  0x21, 0x4a, 0x00, 0x00, 0x20, 0xb6, 0xff, 0xff, 0x92, 0x2a, 0x00, 0x00, 
  0xd3, 0xeb, 0xff, 0xff, 0xc0, 0xe7, 0xff, 0xff, 0xbe, 0x42, 0x00, 0x00, 
  0xfd, 0x52, 0x00, 0x00, 0x79, 0x1c, 0x00, 0x00, 0x97, 0x36, 0x00, 0x00, 
  0xdd, 0xfa, 0xff, 0xff, 0xac, 0x49, 0x00, 0x00, 0x0d, 0xf4, 0xff, 0xff, 
  0x4d, 0xed, 0xff, 0xff, 0x05, 0xfb, 0xff, 0xff, 0x56, 0x57, 0x00, 0x00, 
  0x24, 0x0c, 0x00, 0x00, 0x0d, 0x36, 0x00, 0x00, 0x00, 0x36, 0x00, 0x00, 
  0x67, 0x0b, 0x00, 0x00, 0xc5, 0xe3, 0xff, 0xff, 0x70, 0x34, 0x00, 0x00, 
  0x08, 0x36, 0x00, 0x00, 0xad, 0xf5, 0xff, 0xff, 0x3a, 0x36, 0x00, 0x00, 
  0x0f, 0x20, 0x00, 0x00, 0xa1, 0x16, 0x00, 0x00, 0x41, 0x37, 0x00, 0x00, 
  0xb7, 0x37, 0x00, 0x00, 0xb3, 0xf9, 0xff, 0xff, 0xcf, 0x09, 0x00, 0x00, 
  0xdb, 0x4b, 0x00, 0x00, 0x62, 0x49, 0x00, 0x00, 0x51, 0x52, 0x00, 0x00, 
  0xbc, 0x08, 0x00, 0x00, 0xd4, 0x36, 0x00, 0x00, 0x37, 0x5c, 0x00, 0x00, 
  0x20, 0x53, 0x00, 0x00, 0xe5, 0x2d, 0x00, 0x00, 0x12, 0x0d, 0x00, 0x00, 
  0xba, 0xf1, 0xff, 0xff, 0x5d, 0x3f, 0x00, 0x00, 0xc2, 0x42, 0x00, 0x00, 
  0x05, 0x33, 0x00, 0x00, 0x2c, 0x2b, 0x00, 0x00, 0xb0, 0xf4, 0xff, 0xff, 
  0x88, 0x45, 0x00, 0x00, 0x99, 0x3b, 0x00, 0x00, 0x34, 0x0d, 0x00, 0x00, 
  0x00, 0x2d, 0xff, 0xff, 0x04, 0x2d, 0xff, 0xff, 0xd6, 0xce, 0xff, 0xff, 
  0x04, 0x00, 0x00, 0x00, 0x01, 0x00, 0x00, 0x00, 0x00, 0x00, 0x00, 0x00, 
  0x18, 0x2d, 0xff, 0xff, 0xea, 0xce, 0xff, 0xff, 0x04, 0x00, 0x00, 0x00, 
  0x01, 0x00, 0x00, 0x00, 0x7f, 0x00, 0x00, 0x00, 0xfa, 0xce, 0xff, 0xff, 
  0x04, 0x00, 0x00, 0x00, 0x00, 0x08, 0x00, 0x00, 0x1e, 0x14, 0xdb, 0xf1, 
  0x09, 0xfd, 0x19, 0x2e, 0x15, 0xd4, 0x48, 0x2e, 0xff, 0xd4, 0x2b, 0x25, 
  0xd2, 0x15, 0xfb, 0x0f, 0x27, 0xec, 0x04, 0x4d, 0x00, 0xe2, 0x00, 0xca, 
  0x25, 0xf4, 0x0f, 0xe6, 0x2a, 0x04, 0xfc, 0x7f, 0xe6, 0xd3, 0xe9, 0xe7, 
  0x46, 0x27, 0x3c, 0xcf, 0xc7, 0xeb, 0xd2, 0x1f, 0x06, 0x4d, 0x26, 0xfa, 
  0xb9, 0x44, 0x2c, 0xdb, 0x9c, 0xf2, 0xc6, 0x04, 0xd8, 0x11, 0x45, 0x41, 
  0x2d, 0xba, 0xfc, 0xd6, 0xab, 0x1c, 0x48, 0x8e, 0x72, 0x63, 0x9f, 0x5e, 
  0x28, 0x37, 0x3f, 0x61, 0x0f, 0xee, 0x2f, 0x64, 0x50, 0x04, 0x05, 0x36, 
  0x35, 0xfe, 0xf7, 0x21, 0x7f, 0x3c, 0x78, 0x3a, 0x34, 0x11, 0x58, 0x49, 
  0x22, 0x4e, 0x4a, 0x23, 0xfb, 0xed, 0xaf, 0x60, 0x1d, 0x09, 0x24, 0xee, 
  0x11, 0x4a, 0xf9, 0x14, 0x19, 0xf7, 0xe7, 0x51, 0x44, 0x27, 0x45, 0xb9, 
  0x32, 0xf6, 0x9c, 0x63, 0x0f, 0xc3, 0x1e, 0x47, 0xcc, 0xdc, 0x21, 0xd3, 
  0x06, 0x09, 0xd4, 0x0a, 0xef, 0x1c, 0xcb, 0xdc, 0x45, 0xf7, 0xc9, 0xec, 
  0x03, 0x4a, 0x46, 0xce, 0xa1, 0x12, 0x1d, 0x1f, 0xad, 0x04, 0xa2, 0x06, 
  0xd7, 0x36, 0xe6, 0xd1, 0xa6, 0xc1, 0x0e, 0xc5, 0xe1, 0xbe, 0xcd, 0xde, 
  0x2c, 0x01, 0x3a, 0x3b, 0x18, 0xeb, 0x23, 0xb1, 0xff, 0xdd, 0xf9, 0x15, 
  0x81, 0x32, 0xaf, 0xda, 0xff, 0x43, 0xeb, 0xbf, 0x25, 0xc4, 0x32, 0x44, 
  0x04, 0xa6, 0xce, 0xec, 0x9a, 0xb6, 0xc7, 0xcf, 0xfb, 0xcd, 0xa7, 0xa0, 
  0x1f, 0xe4, 0x99, 0xae, 0xf7, 0x44, 0x29, 0xa4, 0xb7, 0xf5, 0x5a, 0x08, 
  0x8a, 0xea, 0xdb, 0x0c, 0x97, 0x37, 0xa0, 0xc5, 0xae, 0x89, 0xde, 0xbc, 
  0xdc, 0xea, 0xf3, 0x81, 0xf9, 0x04, 0x2b, 0x2c, 0x16, 0x88, 0x16, 0xca, 
  0x1f, 0xd2, 0xd2, 0xf5, 0xba, 0x1e, 0x94, 0xd3, 0xef, 0x48, 0x07, 0x82, 
  0x1c, 0x29, 0xef, 0xf8, 0x36, 0xe6, 0x44, 0x12, 0x3d, 0x2d, 0x29, 0x35, 
  0x20, 0x1a, 0x39, 0x1a, 0x00, 0xf2, 0x1a, 0x57, 0x46, 0x0a, 0xeb, 0x36, 
  0xde, 0x1d, 0xfc, 0x15, 0x4b, 0x3a, 0xef, 0x2b, 0x2c, 0x16, 0x42, 0x54, 
  0xfd, 0xea, 0x20, 0xd9, 0xfe, 0x21, 0x0e, 0xd8, 0x1a, 0x32, 0xf4, 0x0e, 
  0x03, 0x2e, 0x10, 0x0d, 0xfb, 0x02, 0x22, 0x33, 0x81, 0xf6, 0xd1, 0x0e, 
  0x15, 0x17, 0x1f, 0x33, 0x32, 0x51, 0xac, 0x29, 0x6b, 0xf7, 0x55, 0x3e, 
  0x6b, 0xf0, 0x22, 0x21, 0x91, 0xfe, 0x0d, 0x78, 0xa1, 0xcf, 0xf2, 0x50, 
  0x6c, 0xed, 0xf3, 0x4e, 0x0a, 0xa4, 0xe4, 0xb0, 0xb1, 0xb6, 0xb2, 0xe0, 
  0x12, 0x1a, 0x6a, 0xa4, 0x04, 0xb0, 0xdd, 0x92, 0xff, 0x0a, 0xf4, 0xf7, 
  0x9d, 0xff, 0x23, 0x12, 0x28, 0xf7, 0x1a, 0x0a, 0x81, 0x74, 0x49, 0xb6, 
  0xb9, 0xb9, 0xad, 0x20, 0xbc, 0x2d, 0x64, 0x5a, 0xff, 0x0c, 0x10, 0x1b, 
  0xdb, 0x1d, 0xb0, 0xca, 0xa8, 0xb3, 0xd7, 0xd0, 0x13, 0xd3, 0xb4, 0xcc, 
  0x10, 0x01, 0x44, 0x9e, 0x08, 0x08, 0x05, 0xc6, 0x2d, 0xc0, 0x35, 0xf1, 
  0x92, 0xff, 0x6d, 0x08, 0xf3, 0xf8, 0xa6, 0x81, 0x48, 0x3c, 0x00, 0x3a, 
  0xda, 0x00, 0x0f, 0x48, 0xee, 0x1b, 0x42, 0x05, 0x31, 0xac, 0x0a, 0x20, 
  0x35, 0xf4, 0xd3, 0xe2, 0x52, 0x28, 0x38, 0xea, 0xf2, 0x15, 0xd7, 0xb2, 
  0x17, 0x0c, 0x25, 0xd8, 0xc7, 0x4d, 0xe9, 0xfa, 0xc1, 0xf5, 0xef, 0xbf, 
  0x40, 0xe0, 0xcd, 0xfa, 0xed, 0xe0, 0x43, 0xa7, 0x0b, 0xd3, 0x18, 0x19, 
  0x39, 0xb8, 0x0a, 0xdf, 0xff, 0x02, 0x7f, 0x22, 0x24, 0xc7, 0x0f, 0xbc, 
  0x49, 0x2b, 0x1a, 0x36, 0xfc, 0xb3, 0x0c, 0x4f, 0xab, 0x15, 0x13, 0x18, 
  0x17, 0xca, 0x2b, 0xfc, 0x2c, 0xda, 0xee, 0x01, 0x65, 0xe9, 0x2a, 0x0d, 
  0x1f, 0xe9, 0xd2, 0xe3, 0xfa, 0x19, 0x09, 0x27, 0xff, 0xe3, 0x08, 0x1a, 
  0x03, 0xd2, 0x17, 0x13, 0xdd, 0xed, 0x1e, 0x17, 0x0a, 0xee, 0xab, 0xf9, 
  0xe0, 0x28, 0x1e, 0x20, 0xd6, 0xe1, 0x12, 0xce, 0x81, 0xd6, 0xee, 0xcb, 
  0xff, 0x07, 0xff, 0x96, 0xd6, 0xed, 0xbd, 0xc8, 0x1c, 0x1a, 0x17, 0xe4, 
  0x06, 0xd8, 0x1f, 0x27, 0x37, 0x08, 0x05, 0x22, 0x06, 0x1a, 0x10, 0xe5, 
  0xac, 0x06, 0xff, 0x11, 0xd9, 0x0a, 0x0d, 0x0d, 0xf8, 0x06, 0xef, 0xd5, 
  0x2a, 0x30, 0x2d, 0xf9, 0x1c, 0xe5, 0x0e, 0x1d, 0x02, 0xf3, 0x08, 0x0e, 
  0xfa, 0x04, 0x4c, 0x0a, 0x21, 0xe4, 0x10, 0x2a, 0x16, 0xc2, 0xdd, 0xe1, 
  0xe0, 0x01, 0x7f, 0x02, 0x1f, 0xe9, 0x14, 0xb4, 0x2b, 0x3c, 0xf9, 0x2b, 
  0x1d, 0x2e, 0x0f, 0x40, 0xa0, 0xf1, 0x03, 0xfa, 0x3b, 0x2b, 0x20, 0x2b, 
  0x05, 0x22, 0x00, 0xea, 0x40, 0xfc, 0x33, 0x05, 0x05, 0x05, 0x26, 0x25, 
  0x2a, 0x0e, 0x01, 0xe4, 0x4a, 0x52, 0x01, 0x4c, 0x01, 0xeb, 0x3d, 0x01, 
  0x04, 0xd5, 0x17, 0x13, 0xe1, 0x05, 0x27, 0xfb, 0xfc, 0xca, 0xfa, 0x11, 
  0x37, 0xd5, 0xfe, 0xd5, 0xe1, 0xf8, 0x7f, 0x03, 0x16, 0xca, 0x36, 0xd6, 
  0x43, 0x2b, 0x16, 0x47, 0x03, 0x33, 0x44, 0x2a, 0xd3, 0xe6, 0x26, 0xfe, 
  0x2c, 0x0b, 0x1f, 0x2d, 0x36, 0x4d, 0x25, 0x09, 0x31, 0xf6, 0x52, 0x3b, 
  0xf0, 0xf9, 0x1b, 0x2a, 0x2d, 0xf4, 0x34, 0x1b, 0xe9, 0x48, 0xd1, 0x06, 
  0x84, 0xc5, 0x0b, 0xc8, 0x0c, 0xb7, 0x81, 0xbf, 0x29, 0xe4, 0xfb, 0x82, 
  0xe5, 0x28, 0x2e, 0x88, 0x37, 0xed, 0x29, 0xf5, 0xa5, 0xd5, 0x78, 0xfc, 
  0xba, 0x04, 0x9f, 0xb7, 0x27, 0x40, 0xca, 0x4c, 0xc9, 0xb0, 0xf8, 0x32, 
  0xf3, 0xe3, 0xf5, 0x3d, 0x42, 0x9f, 0x1e, 0x08, 0x3c, 0xdc, 0xce, 0xc5, 
  0x68, 0x1a, 0x4d, 0xdd, 0xb4, 0x3e, 0xe4, 0xcc, 0x10, 0xbd, 0x17, 0x02, 
  0xdd, 0xd3, 0x54, 0x9f, 0x23, 0x62, 0xab, 0x44, 0x4a, 0x38, 0x4e, 0x69, 
  0x1d, 0xfd, 0x12, 0x3a, 0x44, 0xfe, 0xe6, 0x5b, 0xd6, 0x31, 0x02, 0x44, 
  0x7f, 0x42, 0xe4, 0x33, 0xf2, 0x0d, 0x5a, 0x51, 0xd6, 0xa3, 0x19, 0xea, 
  0xdf, 0xaf, 0x03, 0xe0, 0x10, 0x4a, 0x16, 0xf4, 0xfd, 0x4f, 0x26, 0xdc, 
  0xe5, 0xc4, 0xcb, 0x24, 0xae, 0x1e, 0xf6, 0xc9, 0x43, 0x0f, 0xad, 0x49, 
  0x3a, 0xcc, 0x39, 0x07, 0x8c, 0xd9, 0x71, 0x87, 0x45, 0x7b, 0xd4, 0x67, 
  0x34, 0x69, 0x51, 0x5b, 0xfd, 0x33, 0x09, 0x75, 0x2b, 0x29, 0x0a, 0x5e, 
  0xbc, 0x73, 0x34, 0x5c, 0x7f, 0x46, 0x8f, 0x44, 0xcf, 0xf8, 0x5f, 0x3d, 
  0xef, 0x86, 0xf5, 0x88, 0xc8, 0xeb, 0x98, 0xad, 0xee, 0x31, 0xe5, 0x25, 
  0x0d, 0x5b, 0x1b, 0x93, 0x04, 0xd5, 0xb3, 0x37, 0xb7, 0x37, 0x88, 0xc4, 
  0x56, 0x08, 0xdb, 0x39, 0x0d, 0x16, 0x05, 0x2e, 0x1e, 0xf0, 0xe7, 0x0b, 
  0x06, 0xb2, 0xfc, 0xfc, 0xa7, 0xb0, 0xf4, 0x08, 0x0e, 0xf4, 0xcd, 0xfb, 
  0xc5, 0x12, 0x28, 0x0b, 0xd4, 0xeb, 0x12, 0xd9, 0x81, 0xca, 0xbe, 0xc4, 
  0x13, 0x19, 0xf7, 0x92, 0xdf, 0xd0, 0xcf, 0xe1, 0x20, 0x15, 0x1f, 0xd8, 
  0xdc, 0xc8, 0x2e, 0x19, 0x22, 0x08, 0x16, 0x0b, 0x0b, 0x1a, 0x21, 0xd3, 
  0xb5, 0x0f, 0xf8, 0x21, 0xd7, 0x1a, 0x05, 0x19, 0x59, 0x91, 0x5a, 0x75, 
  0xe6, 0x32, 0x1e, 0xfa, 0x16, 0x4f, 0xef, 0xf6, 0x24, 0x58, 0xfb, 0x2f, 
  0x36, 0x25, 0x2a, 0x2d, 0x43, 0x66, 0x37, 0xcc, 0x1c, 0x58, 0x78, 0x1e, 
  0x24, 0x18, 0xa2, 0x51, 0xc9, 0x7f, 0xcd, 0x1b, 0x36, 0x17, 0x5c, 0x47, 
  0xa9, 0xd2, 0x82, 0x4b, 0x3b, 0x39, 0x54, 0x2c, 0x50, 0xf8, 0x43, 0xd1, 
  0x0a, 0x89, 0xac, 0x59, 0x09, 0x7b, 0x5d, 0xb0, 0x26, 0x4a, 0xb3, 0xee, 
  0x0e, 0xe2, 0x05, 0xdc, 0xb9, 0x3d, 0x09, 0xc0, 0xa5, 0x19, 0xf5, 0xad, 
  0x11, 0xf6, 0xd0, 0x03, 0xf0, 0x25, 0x4d, 0xc3, 0x41, 0xd8, 0x09, 0xcd, 
  0x13, 0xe1, 0xf1, 0xf1, 0xef, 0x2a, 0x7f, 0x2d, 0x2c, 0xda, 0x0e, 0xe7, 
  0x62, 0x49, 0xfb, 0x31, 0x07, 0xae, 0xeb, 0x4f, 0x96, 0xe1, 0x19, 0xf6, 
  0x2b, 0x0c, 0x2d, 0x24, 0x23, 0xf8, 0xc9, 0x1a, 0x56, 0x0c, 0x2c, 0x05, 
  0x0e, 0xf8, 0xf6, 0x23, 0x3e, 0xfe, 0x3e, 0x19, 0xd0, 0x04, 0x11, 0xd4, 
  0xf5, 0x04, 0xbb, 0x10, 0x34, 0x12, 0x00, 0x1e, 0x40, 0xe3, 0xf6, 0xfe, 
  0x18, 0x1f, 0x40, 0x09, 0x81, 0x21, 0x3d, 0x31, 0x0b, 0x44, 0xa3, 0x22, 
  0xf3, 0x2f, 0xe2, 0x1b, 0xb6, 0xa1, 0x2a, 0x8e, 0xbf, 0xd4, 0xe9, 0xf8, 
  0x18, 0x32, 0x37, 0x34, 0x32, 0x25, 0x1a, 0xd0, 0x17, 0xdc, 0xbf, 0x23, 
  0x8b, 0x39, 0x08, 0xbd, 0x46, 0x27, 0xc7, 0xef, 0x18, 0xe7, 0x26, 0x14, 
  0xf2, 0x10, 0xb4, 0xe9, 0xdb, 0xd9, 0xec, 0xa6, 0xf0, 0xce, 0x96, 0x9b, 
  0x21, 0xf8, 0x36, 0x94, 0xc7, 0x22, 0x0e, 0xaf, 0x09, 0xc8, 0x0d, 0x16, 
  0xb6, 0xee, 0x5e, 0xdd, 0xc3, 0x04, 0x9c, 0x81, 0x11, 0x3d, 0xf3, 0x11, 
  0xe4, 0xe7, 0xf7, 0x33, 0xf0, 0x01, 0x25, 0x12, 0x4a, 0xd3, 0x2c, 0x2e, 
  0x2f, 0xd4, 0xff, 0xec, 0x41, 0x30, 0x46, 0x08, 0xd1, 0x1c, 0xe3, 0xd0, 
  0x06, 0x2e, 0x15, 0x31, 0x27, 0xd2, 0xfa, 0x2b, 0xd7, 0xa8, 0x0e, 0xe9, 
  0xb5, 0xdf, 0xe0, 0xeb, 0x25, 0xef, 0x81, 0xc9, 0xda, 0x16, 0x1e, 0xfc, 
  0xd4, 0xf2, 0x26, 0xd9, 0x93, 0xb8, 0xcb, 0xc5, 0x2c, 0x0e, 0xec, 0x9c, 
  0xd0, 0xc9, 0xd0, 0xcc, 0x1a, 0x02, 0x2c, 0xd5, 0xef, 0xee, 0x24, 0x29, 
  0x22, 0xce, 0x0e, 0x10, 0xe5, 0x13, 0x10, 0xba, 0xc2, 0x0f, 0xda, 0x37, 
  0xd9, 0x26, 0x1d, 0xe6, 0xf4, 0x41, 0x09, 0xf6, 0x1d, 0x75, 0x15, 0x38, 
  0x4b, 0xe0, 0x2a, 0x2f, 0xe7, 0xc7, 0xfa, 0x4c, 0xc4, 0xf6, 0x7a, 0xfd, 
  0x4e, 0xdb, 0xd8, 0x07, 0x3a, 0x9f, 0xcd, 0xd3, 0xc0, 0xf2, 0x7c, 0x19, 
  0x27, 0xb3, 0x46, 0x9e, 0x7e, 0x2a, 0x24, 0x59, 0x4b, 0x24, 0x29, 0x33, 
  0x81, 0xee, 0x18, 0xe6, 0x61, 0x0d, 0x18, 0x36, 0x52, 0x48, 0x34, 0xe3, 
  0x6a, 0xf7, 0x34, 0x16, 0x12, 0x27, 0x04, 0x3a, 0x0a, 0x3a, 0xde, 0xd9, 
  0x28, 0x3f, 0x33, 0x4d, 0x07, 0x03, 0x37, 0x35, 0xf3, 0xd4, 0xf9, 0x05, 
  0xfc, 0x20, 0x6e, 0x38, 0x3c, 0xfc, 0xeb, 0x4f, 0x76, 0xbc, 0xea, 0xdc, 
  0xee, 0xf3, 0x5d, 0x11, 0x37, 0xbf, 0x32, 0xb3, 0x23, 0x49, 0x0d, 0x6d, 
  0x37, 0x46, 0x2d, 0x3c, 0xd2, 0xe4, 0xee, 0x33, 0x45, 0xf8, 0x00, 0x4b, 
  0x10, 0x44, 0xf5, 0xc3, 0x7f, 0xff, 0x57, 0x21, 0xe7, 0x0b, 0xfb, 0x45, 
  0x68, 0xaf, 0x09, 0x1e, 0xd2, 0x60, 0x1d, 0xb6, 0x18, 0x35, 0xc3, 0x12, 
  0x43, 0x67, 0xe8, 0xe4, 0x2b, 0x31, 0x54, 0x07, 0x29, 0x3c, 0x57, 0xe4, 
  0x51, 0x20, 0x4e, 0x6c, 0x4e, 0x67, 0x3e, 0x66, 0xdb, 0x55, 0xe9, 0x2e, 
  0x3e, 0x11, 0x6f, 0x4b, 0xfd, 0x81, 0xe0, 0x06, 0xfe, 0x70, 0x3d, 0x5b, 
  0x4c, 0x2b, 0x4f, 0xe2, 0x56, 0xe9, 0xc1, 0x29, 0x37, 0x58, 0x5a, 0xba, 
  0x5b, 0x5a, 0xd1, 0xe8, 0x32, 0xf0, 0xfc, 0xf7, 0x09, 0x4e, 0x50, 0x32, 
  0x6d, 0x63, 0x11, 0x5a, 0x55, 0x65, 0x6c, 0x7f, 0xfd, 0x06, 0x38, 0x56, 
  0x6a, 0xee, 0xe9, 0x46, 0xff, 0x23, 0xdf, 0x12, 0x58, 0x47, 0x77, 0x38, 
  0x49, 0x1d, 0x3d, 0x6a, 0x46, 0x68, 0x4f, 0x2c, 0xf4, 0xf7, 0xfb, 0x27, 
  0xf7, 0x11, 0x18, 0x08, 0x03, 0x7f, 0x2c, 0x09, 0x3c, 0x20, 0x26, 0x51, 
  0x4a, 0x0c, 0x58, 0x08, 0x24, 0xea, 0x2c, 0x6b, 0x34, 0xdf, 0x37, 0x17, 
  0xc5, 0x17, 0x32, 0xea, 0x77, 0x6f, 0xaf, 0x49, 0x35, 0x46, 0x37, 0x45, 
  0x04, 0xd7, 0x0c, 0x61, 0x04, 0xf9, 0xe2, 0x43, 0xdf, 0x0f, 0x0d, 0x39, 
  0x3b, 0x59, 0xb5, 0x54, 0x23, 0x09, 0x4c, 0x4a, 0xae, 0xe1, 0x5b, 0xb4, 
  0xc2, 0x81, 0xdc, 0xa7, 0x2c, 0x3f, 0xff, 0xf5, 0xf7, 0x3c, 0x27, 0xbc, 
  0xe3, 0xbd, 0xe3, 0x2b, 0xf3, 0x08, 0x05, 0xe4, 0x24, 0xfb, 0x9b, 0x40, 
  0x03, 0x12, 0xf6, 0xe6, 0x4e, 0xa6, 0x5e, 0x4b, 0x4e, 0x6a, 0x2f, 0x78, 
  0x2e, 0x27, 0x6e, 0x4c, 0x11, 0xe0, 0x20, 0x7f, 0x20, 0xec, 0x1c, 0x68, 
  0xcd, 0x37, 0xdb, 0x42, 0x7b, 0x41, 0xcd, 0x2a, 0x23, 0xfb, 0x5a, 0x61, 
  0xd0, 0xcc, 0x40, 0x9a, 0x3c, 0x44, 0xeb, 0x9e, 0x25, 0x5a, 0x26, 0x12, 
  0xef, 0x50, 0x25, 0x0a, 0x0a, 0x1d, 0x31, 0x4e, 0xca, 0xf1, 0xcc, 0x3c, 
  0x53, 0x1f, 0x2e, 0x58, 0x2c, 0xfd, 0x2f, 0x34, 0x33, 0x8f, 0x2b, 0x19, 
  0x3b, 0x23, 0x0e, 0x04, 0xf5, 0x0c, 0x24, 0x2d, 0x3c, 0xfc, 0x99, 0x27, 
  0x03, 0x46, 0x50, 0x24, 0x93, 0x1f, 0x3c, 0x05, 0x1f, 0x1f, 0xa7, 0x05, 
  0x31, 0x46, 0x14, 0x20, 0xa2, 0xd5, 0x2a, 0xb6, 0x17, 0x2a, 0xf4, 0x9a, 
  0x5d, 0x15, 0x2c, 0x29, 0x27, 0x26, 0x2a, 0xe5, 0xe4, 0x37, 0xf4, 0xf2, 
  0x81, 0x2d, 0xe1, 0x38, 0x1a, 0x57, 0x34, 0x0a, 0xe3, 0x38, 0x04, 0xf8, 
  0x33, 0xcd, 0x1b, 0x1a, 0x48, 0x06, 0x07, 0x33, 0xc1, 0xca, 0x37, 0x28, 
  0xfe, 0xdc, 0xf9, 0xfb, 0x2a, 0x05, 0xe9, 0x09, 0xaa, 0x88, 0xfb, 0xbe, 
  0xcc, 0xfc, 0xf4, 0xd4, 0x33, 0xb7, 0x22, 0xe4, 0x0b, 0xc7, 0xe5, 0xf3, 
  0x37, 0x32, 0x1a, 0xcf, 0x81, 0xd7, 0x1d, 0x27, 0xfb, 0x47, 0x27, 0x2a, 
  0xdf, 0x3b, 0x23, 0xe0, 0xc6, 0xef, 0x10, 0x03, 0xf2, 0xf9, 0x23, 0x30, 
  0x30, 0xf9, 0x1c, 0x03, 0x02, 0x21, 0xdd, 0xfa, 0xb2, 0xbe, 0xe2, 0xb1, 
  0x11, 0xe9, 0x9c, 0x89, 0x46, 0x06, 0x2a, 0x95, 0xc3, 0x04, 0x17, 0x87, 
  0x19, 0xc8, 0x25, 0xef, 0x94, 0xfe, 0x65, 0xe6, 0xb8, 0xfb, 0xaa, 0xad, 
  0x3e, 0x51, 0xdb, 0x33, 0x0c, 0xb7, 0x0f, 0x32, 0xdf, 0x01, 0x21, 0x22, 
  0x5e, 0xa7, 0x2f, 0x31, 0x2c, 0xe8, 0xed, 0xc9, 0x44, 0x28, 0x5d, 0xc8, 
  0xc7, 0x08, 0xc6, 0x81, 0x07, 0x13, 0x23, 0x33, 0x1b, 0xe3, 0xfa, 0x20, 
  0x20, 0xb6, 0x0f, 0x01, 0xb8, 0xbf, 0xfa, 0x0e, 0x16, 0xf3, 0xa5, 0xf7, 
  0xe2, 0x0d, 0x2b, 0x09, 0xd4, 0xd9, 0x12, 0xbf, 0x86, 0xc5, 0xbb, 0xce, 
  0x1f, 0x19, 0x10, 0x81, 0xd0, 0xe7, 0xa7, 0xcb, 0x21, 0x00, 0x18, 0xff, 
  0xe5, 0xda, 0x17, 0x2a, 0x1b, 0x15, 0x18, 0x09, 0xff, 0x1c, 0x0b, 0xe2, 
  0xb9, 0x0a, 0x08, 0x06, 0xe3, 0x1a, 0x13, 0x20, 0x31, 0x11, 0xfd, 0xff, 
  0x28, 0x51, 0x41, 0x02, 0x25, 0x3b, 0xfd, 0x09, 0x02, 0xd1, 0x51, 0x42, 
  0xc2, 0x00, 0x51, 0x1c, 0x5a, 0x0e, 0xfd, 0x14, 0x0b, 0xb7, 0xd6, 0x1d, 
  0x44, 0x17, 0x7f, 0x3e, 0x24, 0x04, 0x37, 0x65, 0x6a, 0x33, 0x10, 0x13, 
  0xf8, 0x30, 0x3d, 0x51, 0xf5, 0x12, 0xeb, 0x0a, 0x32, 0x32, 0x36, 0x4d, 
  0x36, 0xfb, 0x45, 0xf5, 0x5d, 0xfb, 0x45, 0x22, 0xe2, 0x14, 0x40, 0x17, 
  0x16, 0x30, 0xed, 0xf9, 0x2b, 0x4e, 0x36, 0x1a, 0x2a, 0x38, 0x28, 0x21, 
  0x34, 0x3b, 0x2e, 0x38, 0xda, 0x00, 0x59, 0x33, 0x69, 0x13, 0xda, 0x3d, 
  0x11, 0x15, 0xe1, 0x2d, 0x7c, 0x3a, 0x7f, 0x42, 0x31, 0x0a, 0x3e, 0x6c, 
  0x1c, 0x2e, 0x39, 0x50, 0x2b, 0x07, 0x29, 0x49, 0x34, 0x33, 0xfb, 0x00, 
  0x06, 0x20, 0x1b, 0x35, 0xec, 0x10, 0x21, 0x31, 0x38, 0x0f, 0x5d, 0x34, 
  0x11, 0x0a, 0x30, 0x26, 0x38, 0x35, 0xff, 0xff, 0x3c, 0x35, 0xff, 0xff, 
  0x40, 0x35, 0xff, 0xff, 0x44, 0x35, 0xff, 0xff, 0x48, 0x35, 0xff, 0xff, 
  0x1a, 0xd7, 0xff, 0xff, 0x04, 0x00, 0x00, 0x00, 0x80, 0x00, 0x00, 0x00, 
  0xbc, 0x0d, 0x00, 0x00, 0xe3, 0xe7, 0xff, 0xff, 0x25, 0x31, 0x00, 0x00, 
  0x7a, 0x44, 0x00, 0x00, 0xc6, 0xf9, 0xff, 0xff, 0x2d, 0x28, 0x00, 0x00, 
  0x96, 0x39, 0x00, 0x00, 0xe6, 0x0d, 0x00, 0x00, 0xe0, 0x16, 0x00, 0x00, 
  0x06, 0x14, 0x00, 0x00, 0x81, 0x12, 0x00, 0x00, 0xe3, 0x38, 0x00, 0x00, 
  0x2c, 0xe6, 0xff, 0xff, 0xaa, 0xf4, 0xff, 0xff, 0xfb, 0x23, 0x00, 0x00, 
  0x6c, 0x4b, 0x00, 0x00, 0xdd, 0x0b, 0x00, 0x00, 0x44, 0x21, 0x00, 0x00, 
  0x08, 0x30, 0x00, 0x00, 0x65, 0x3a, 0x00, 0x00, 0x88, 0x1b, 0x00, 0x00, 
  0x0b, 0x11, 0x00, 0x00, 0x96, 0x33, 0x00, 0x00, 0xaa, 0xec, 0xff, 0xff, 
  0xce, 0xeb, 0xff, 0xff, 0x7a, 0xf0, 0xff, 0xff, 0x25, 0x34, 0x00, 0x00, 
  0x75, 0x16, 0x00, 0x00, 0xf9, 0x43, 0x00, 0x00, 0xe7, 0x15, 0x00, 0x00, 
  0xac, 0x09, 0x00, 0x00, 0xf8, 0x0a, 0x00, 0x00, 0xa6, 0xd7, 0xff, 0xff, 
  0x04, 0x00, 0x00, 0x00, 0x80, 0x00, 0x00, 0x00, 0xee, 0x91, 0x49, 0x58, 
  0x84, 0xcf, 0x22, 0xbf, 0x40, 0xa9, 0xc1, 0x43, 0xb0, 0xdc, 0x2a, 0x0d, 
  0xb3, 0x1f, 0x2d, 0x45, 0xab, 0xa2, 0x16, 0x84, 0x96, 0x9e, 0x20, 0xd0, 
  0x37, 0x38, 0x8a, 0x81, 0xfb, 0x7f, 0x03, 0xe0, 0x6c, 0xcb, 0xaa, 0xb6, 
  0xa2, 0xa0, 0xbb, 0x92, 0x75, 0x57, 0x8b, 0x11, 0xb7, 0x4b, 0x8e, 0x87, 
  0xad, 0xb6, 0x3c, 0x63, 0x7f, 0x2a, 0x22, 0xc5, 0x9b, 0x8b, 0xd4, 0x29, 
  0x4a, 0xbd, 0x81, 0xa8, 0x46, 0x2b, 0xb9, 0xa8, 0x5c, 0x33, 0x1a, 0x86, 
  0xbf, 0xb5, 0xfc, 0x8d, 0xaa, 0xa2, 0x85, 0x2c, 0x35, 0x25, 0x9c, 0x16, 
  0xc0, 0x06, 0x1e, 0x22, 0xb2, 0x4c, 0x2c, 0x3e, 0xea, 0x35, 0x8f, 0xb7, 
  0xc9, 0xc0, 0x5b, 0x54, 0xd4, 0x3c, 0x26, 0x4c, 0xd2, 0xa7, 0xa8, 0xeb, 
  0x3c, 0xf6, 0x30, 0x87, 0x34, 0x01, 0x1d, 0x31, 0xd0, 0x96, 0x81, 0xc1, 
  0x4e, 0xad, 0x37, 0x08, 0x32, 0xd8, 0xff, 0xff, 0x04, 0x00, 0x00, 0x00, 
  0x10, 0x00, 0x00, 0x00, 0x1a, 0x1a, 0x00, 0x00, 0x44, 0xf6, 0xff, 0xff, 
  0xa7, 0xe9, 0xff, 0xff, 0x9c, 0xf0, 0xff, 0xff, 0x4e, 0xd8, 0xff, 0xff, 
  0x04, 0x00, 0x00, 0x00, 0x04, 0x00, 0x00, 0x00, 0x20, 0x00, 0x00, 0x00, 
  0x5e, 0xd8, 0xff, 0xff, 0x04, 0x00, 0x00, 0x00, 0x0c, 0x00, 0x00, 0x00, 
  0x06, 0x00, 0x00, 0x00, 0x00, 0x00, 0x00, 0x00, 0x40, 0x00, 0x00, 0x00, 
  0x76, 0xd8, 0xff, 0xff, 0x04, 0x00, 0x00, 0x00, 0x0c, 0x00, 0x00, 0x00, 
  0x05, 0x00, 0x00, 0x00, 0x00, 0x00, 0x00, 0x00, 0x40, 0x00, 0x00, 0x00, 
  0x8e, 0xd8, 0xff, 0xff, 0x04, 0x00, 0x00, 0x00, 0x0c, 0x00, 0x00, 0x00, 
  0x04, 0x00, 0x00, 0x00, 0x00, 0x00, 0x00, 0x00, 0x40, 0x00, 0x00, 0x00, 
  0xa6, 0xd8, 0xff, 0xff, 0x04, 0x00, 0x00, 0x00, 0x0c, 0x00, 0x00, 0x00, 
  0x03, 0x00, 0x00, 0x00, 0x00, 0x00, 0x00, 0x00, 0x40, 0x00, 0x00, 0x00, 
  0xbe, 0xd8, 0xff, 0xff, 0x04, 0x00, 0x00, 0x00, 0x0c, 0x00, 0x00, 0x00, 
  0x02, 0x00, 0x00, 0x00, 0x00, 0x00, 0x00, 0x00, 0x40, 0x00, 0x00, 0x00, 
  0xd6, 0xd8, 0xff, 0xff, 0x04, 0x00, 0x00, 0x00, 0x0c, 0x00, 0x00, 0x00, 
  0x01, 0x00, 0x00, 0x00, 0x00, 0x00, 0x00, 0x00, 0x40, 0x00, 0x00, 0x00, 
  0xee, 0xd8, 0xff, 0xff, 0x04, 0x00, 0x00, 0x00, 0x04, 0x00, 0x00, 0x00, 
  0x40, 0x00, 0x00, 0x00, 0xfe, 0xd8, 0xff, 0xff, 0x04, 0x00, 0x00, 0x00, 
  0x0c, 0x00, 0x00, 0x00, 0x06, 0x00, 0x00, 0x00, 0x00, 0x00, 0x00, 0x00, 
  0x60, 0x00, 0x00, 0x00, 0x16, 0xd9, 0xff, 0xff, 0x04, 0x00, 0x00, 0x00, 
  0x0c, 0x00, 0x00, 0x00, 0x05, 0x00, 0x00, 0x00, 0x00, 0x00, 0x00, 0x00, 
  0x00, 0x00, 0x00, 0x00, 0x2e, 0xd9, 0xff, 0xff, 0x04, 0x00, 0x00, 0x00, 
  0x0c, 0x00, 0x00, 0x00, 0x05, 0x00, 0x00, 0x00, 0x00, 0x00, 0x00, 0x00, 
  0x60, 0x00, 0x00, 0x00, 0x46, 0xd9, 0xff, 0xff, 0x04, 0x00, 0x00, 0x00, 
  0x0c, 0x00, 0x00, 0x00, 0x04, 0x00, 0x00, 0x00, 0x00, 0x00, 0x00, 0x00, 
  0x00, 0x00, 0x00, 0x00, 0x5e, 0xd9, 0xff, 0xff, 0x04, 0x00, 0x00, 0x00, 
  0x0c, 0x00, 0x00, 0x00, 0x04, 0x00, 0x00, 0x00, 0x00, 0x00, 0x00, 0x00, 
  0x60, 0x00, 0x00, 0x00, 0x76, 0xd9, 0xff, 0xff, 0x04, 0x00, 0x00, 0x00, 
  0x0c, 0x00, 0x00, 0x00, 0x03, 0x00, 0x00, 0x00, 0x00, 0x00, 0x00, 0x00, 
  0x00, 0x00, 0x00, 0x00, 0x8e, 0xd9, 0xff, 0xff, 0x04, 0x00, 0x00, 0x00, 
  0x0c, 0x00, 0x00, 0x00, 0x03, 0x00, 0x00, 0x00, 0x00, 0x00, 0x00, 0x00, 
  0x60, 0x00, 0x00, 0x00, 0xa6, 0xd9, 0xff, 0xff, 0x04, 0x00, 0x00, 0x00, 
  0x0c, 0x00, 0x00, 0x00, 0x02, 0x00, 0x00, 0x00, 0x00, 0x00, 0x00, 0x00, 
  0x00, 0x00, 0x00, 0x00, 0xbe, 0xd9, 0xff, 0xff, 0x04, 0x00, 0x00, 0x00, 
  0x0c, 0x00, 0x00, 0x00, 0x02, 0x00, 0x00, 0x00, 0x00, 0x00, 0x00, 0x00, 
  0x60, 0x00, 0x00, 0x00, 0xd6, 0xd9, 0xff, 0xff, 0x04, 0x00, 0x00, 0x00, 
  0x0c, 0x00, 0x00, 0x00, 0x01, 0x00, 0x00, 0x00, 0x00, 0x00, 0x00, 0x00, 
  0x00, 0x00, 0x00, 0x00, 0xee, 0xd9, 0xff, 0xff, 0x04, 0x00, 0x00, 0x00, 
  0x0c, 0x00, 0x00, 0x00, 0x01, 0x00, 0x00, 0x00, 0x01, 0x00, 0x00, 0x00, 
  0x01, 0x00, 0x00, 0x00, 0x06, 0xda, 0xff, 0xff, 0x04, 0x00, 0x00, 0x00, 
  0x0c, 0x00, 0x00, 0x00, 0x01, 0x00, 0x00, 0x00, 0x00, 0x00, 0x00, 0x00, 
  0x60, 0x00, 0x00, 0x00, 0x1e, 0xda, 0xff, 0xff, 0x04, 0x00, 0x00, 0x00, 
  0x0c, 0x00, 0x00, 0x00, 0x00, 0x00, 0x00, 0x00, 0x00, 0x00, 0x00, 0x00, 
  0x00, 0x00, 0x00, 0x00, 0x36, 0xda, 0xff, 0xff, 0x04, 0x00, 0x00, 0x00, 
  0x0c, 0x00, 0x00, 0x00, 0x01, 0x00, 0x00, 0x00, 0x00, 0x00, 0x00, 0x00, 
  0x02, 0x00, 0x00, 0x00, 0x80, 0x38, 0xff, 0xff, 0x52, 0xda, 0xff, 0xff, 
  0x04, 0x00, 0x00, 0x00, 0x04, 0x00, 0x00, 0x00, 0x06, 0x00, 0x00, 0x00, 
  0x62, 0xda, 0xff, 0xff, 0x04, 0x00, 0x00, 0x00, 0x10, 0x00, 0x00, 0x00, 
  0x01, 0x00, 0x00, 0x00, 0x01, 0x00, 0x00, 0x00, 0x06, 0x00, 0x00, 0x00, 
  0x01, 0x00, 0x00, 0x00, 0x7e, 0xda, 0xff, 0xff, 0x04, 0x00, 0x00, 0x00, 
  0x04, 0x00, 0x00, 0x00, 0x02, 0x00, 0x00, 0x00, 0x8e, 0xda, 0xff, 0xff, 
  0x04, 0x00, 0x00, 0x00, 0x04, 0x00, 0x00, 0x00, 0x60, 0x00, 0x00, 0x00, 
  0xd0, 0x38, 0xff, 0xff, 0xa2, 0xda, 0xff, 0xff, 0x04, 0x00, 0x00, 0x00, 
  0x04, 0x00, 0x00, 0x00, 0x01, 0x00, 0x00, 0x00, 0xe4, 0x38, 0xff, 0xff, 
  0xb6, 0xda, 0xff, 0xff, 0x04, 0x00, 0x00, 0x00, 0x04, 0x00, 0x00, 0x00, 
  0x00, 0x00, 0x80, 0x3f, 0xc6, 0xda, 0xff, 0xff, 0x04, 0x00, 0x00, 0x00, 
  0x04, 0x00, 0x00, 0x00, 0x00, 0x00, 0x00, 0x00, 0x08, 0x39, 0xff, 0xff, 
  0x0c, 0x39, 0xff, 0xff, 0x0f, 0x00, 0x00, 0x00, 0x4d, 0x4c, 0x49, 0x52, 
  0x20, 0x43, 0x6f, 0x6e, 0x76, 0x65, 0x72, 0x74, 0x65, 0x64, 0x2e, 0x00, 
  0x01, 0x00, 0x00, 0x00, 0x14, 0x00, 0x00, 0x00, 0x00, 0x00, 0x0e, 0x00, 
  0x18, 0x00, 0x14, 0x00, 0x10, 0x00, 0x0c, 0x00, 0x08, 0x00, 0x04, 0x00, 
  0x0e, 0x00, 0x00, 0x00, 0x14, 0x00, 0x00, 0x00, 0x1c, 0x00, 0x00, 0x00, 
  0xb0, 0x25, 0x00, 0x00, 0xb4, 0x25, 0x00, 0x00, 0xb8, 0x25, 0x00, 0x00, 
  0x04, 0x00, 0x00, 0x00, 0x6d, 0x61, 0x69, 0x6e, 0x00, 0x00, 0x00, 0x00, 
  0xbd, 0x00, 0x00, 0x00, 0x60, 0x25, 0x00, 0x00, 0x00, 0x25, 0x00, 0x00, 
  0xac, 0x24, 0x00, 0x00, 0x84, 0x24, 0x00, 0x00, 0x44, 0x24, 0x00, 0x00, 
  0x0c, 0x24, 0x00, 0x00, 0xdc, 0x23, 0x00, 0x00, 0x8c, 0x23, 0x00, 0x00, 
  0x54, 0x23, 0x00, 0x00, 0x2c, 0x23, 0x00, 0x00, 0x04, 0x23, 0x00, 0x00, 
  0xac, 0x22, 0x00, 0x00, 0x64, 0x22, 0x00, 0x00, 0x1c, 0x22, 0x00, 0x00, 
  0xd4, 0x21, 0x00, 0x00, 0x8c, 0x21, 0x00, 0x00, 0x44, 0x21, 0x00, 0x00, 
  0x0c, 0x21, 0x00, 0x00, 0xd4, 0x20, 0x00, 0x00, 0x9c, 0x20, 0x00, 0x00, 
  0x64, 0x20, 0x00, 0x00, 0x2c, 0x20, 0x00, 0x00, 0xf4, 0x1f, 0x00, 0x00, 
  0xac, 0x1f, 0x00, 0x00, 0x84, 0x1f, 0x00, 0x00, 0x54, 0x1f, 0x00, 0x00, 
  0x14, 0x1f, 0x00, 0x00, 0xdc, 0x1e, 0x00, 0x00, 0xb4, 0x1e, 0x00, 0x00, 
  0x6c, 0x1e, 0x00, 0x00, 0x38, 0x1e, 0x00, 0x00, 0x04, 0x1e, 0x00, 0x00, 
  0xd0, 0x1d, 0x00, 0x00, 0x9c, 0x1d, 0x00, 0x00, 0x74, 0x1d, 0x00, 0x00, 
  0x50, 0x1d, 0x00, 0x00, 0x1c, 0x1d, 0x00, 0x00, 0xf8, 0x1c, 0x00, 0x00, 
  0xc4, 0x1c, 0x00, 0x00, 0xa0, 0x1c, 0x00, 0x00, 0x6c, 0x1c, 0x00, 0x00, 
  0x38, 0x1c, 0x00, 0x00, 0x04, 0x1c, 0x00, 0x00, 0xd0, 0x1b, 0x00, 0x00, 
  0x9c, 0x1b, 0x00, 0x00, 0x68, 0x1b, 0x00, 0x00, 0x40, 0x1b, 0x00, 0x00, 
  0x1c, 0x1b, 0x00, 0x00, 0xe8, 0x1a, 0x00, 0x00, 0xc4, 0x1a, 0x00, 0x00, 
  0x90, 0x1a, 0x00, 0x00, 0x6c, 0x1a, 0x00, 0x00, 0x38, 0x1a, 0x00, 0x00, 
  0x04, 0x1a, 0x00, 0x00, 0xd0, 0x19, 0x00, 0x00, 0x9c, 0x19, 0x00, 0x00, 
  0x68, 0x19, 0x00, 0x00, 0x34, 0x19, 0x00, 0x00, 0x0c, 0x19, 0x00, 0x00, 
  0xe8, 0x18, 0x00, 0x00, 0xb4, 0x18, 0x00, 0x00, 0x90, 0x18, 0x00, 0x00, 
  0x5c, 0x18, 0x00, 0x00, 0x38, 0x18, 0x00, 0x00, 0x04, 0x18, 0x00, 0x00, 
  0xd0, 0x17, 0x00, 0x00, 0x9c, 0x17, 0x00, 0x00, 0x68, 0x17, 0x00, 0x00, 
  0x34, 0x17, 0x00, 0x00, 0x00, 0x17, 0x00, 0x00, 0xd8, 0x16, 0x00, 0x00, 
  0xb4, 0x16, 0x00, 0x00, 0x80, 0x16, 0x00, 0x00, 0x5c, 0x16, 0x00, 0x00, 
  0x28, 0x16, 0x00, 0x00, 0x04, 0x16, 0x00, 0x00, 0xd0, 0x15, 0x00, 0x00, 
  0x9c, 0x15, 0x00, 0x00, 0x68, 0x15, 0x00, 0x00, 0x34, 0x15, 0x00, 0x00, 
  0x00, 0x15, 0x00, 0x00, 0xcc, 0x14, 0x00, 0x00, 0xa4, 0x14, 0x00, 0x00, 
  0x80, 0x14, 0x00, 0x00, 0x4c, 0x14, 0x00, 0x00, 0x28, 0x14, 0x00, 0x00, 
  0xf4, 0x13, 0x00, 0x00, 0xd0, 0x13, 0x00, 0x00, 0x9c, 0x13, 0x00, 0x00, 
  0x68, 0x13, 0x00, 0x00, 0x34, 0x13, 0x00, 0x00, 0x00, 0x13, 0x00, 0x00, 
  0xcc, 0x12, 0x00, 0x00, 0x98, 0x12, 0x00, 0x00, 0x70, 0x12, 0x00, 0x00, 
  0x4c, 0x12, 0x00, 0x00, 0x04, 0x12, 0x00, 0x00, 0xe0, 0x11, 0x00, 0x00, 
  0x98, 0x11, 0x00, 0x00, 0x60, 0x11, 0x00, 0x00, 0x18, 0x11, 0x00, 0x00, 
  0xe0, 0x10, 0x00, 0x00, 0x98, 0x10, 0x00, 0x00, 0x60, 0x10, 0x00, 0x00, 
  0x18, 0x10, 0x00, 0x00, 0xe0, 0x0f, 0x00, 0x00, 0x98, 0x0f, 0x00, 0x00, 
  0x60, 0x0f, 0x00, 0x00, 0x18, 0x0f, 0x00, 0x00, 0xe0, 0x0e, 0x00, 0x00, 
  0x98, 0x0e, 0x00, 0x00, 0x70, 0x0e, 0x00, 0x00, 0x40, 0x0e, 0x00, 0x00, 
  0x00, 0x0e, 0x00, 0x00, 0xc8, 0x0d, 0x00, 0x00, 0xa0, 0x0d, 0x00, 0x00, 
  0x58, 0x0d, 0x00, 0x00, 0x24, 0x0d, 0x00, 0x00, 0xf0, 0x0c, 0x00, 0x00, 
  0xbc, 0x0c, 0x00, 0x00, 0x88, 0x0c, 0x00, 0x00, 0x60, 0x0c, 0x00, 0x00, 
  0x3c, 0x0c, 0x00, 0x00, 0x08, 0x0c, 0x00, 0x00, 0xe4, 0x0b, 0x00, 0x00, 
  0xb0, 0x0b, 0x00, 0x00, 0x8c, 0x0b, 0x00, 0x00, 0x58, 0x0b, 0x00, 0x00, 
  0x24, 0x0b, 0x00, 0x00, 0xf0, 0x0a, 0x00, 0x00, 0xbc, 0x0a, 0x00, 0x00, 
  0x88, 0x0a, 0x00, 0x00, 0x54, 0x0a, 0x00, 0x00, 0x2c, 0x0a, 0x00, 0x00, 
  0x08, 0x0a, 0x00, 0x00, 0xd4, 0x09, 0x00, 0x00, 0xb0, 0x09, 0x00, 0x00, 
  0x7c, 0x09, 0x00, 0x00, 0x58, 0x09, 0x00, 0x00, 0x24, 0x09, 0x00, 0x00, 
  0xf0, 0x08, 0x00, 0x00, 0xbc, 0x08, 0x00, 0x00, 0x88, 0x08, 0x00, 0x00, 
  0x54, 0x08, 0x00, 0x00, 0x20, 0x08, 0x00, 0x00, 0xf8, 0x07, 0x00, 0x00, 
  0xd4, 0x07, 0x00, 0x00, 0xa0, 0x07, 0x00, 0x00, 0x7c, 0x07, 0x00, 0x00, 
  0x48, 0x07, 0x00, 0x00, 0x24, 0x07, 0x00, 0x00, 0xf0, 0x06, 0x00, 0x00, 
  0xbc, 0x06, 0x00, 0x00, 0x88, 0x06, 0x00, 0x00, 0x54, 0x06, 0x00, 0x00, 
  0x20, 0x06, 0x00, 0x00, 0xec, 0x05, 0x00, 0x00, 0xc4, 0x05, 0x00, 0x00, 
  0xa0, 0x05, 0x00, 0x00, 0x6c, 0x05, 0x00, 0x00, 0x48, 0x05, 0x00, 0x00, 
  0x14, 0x05, 0x00, 0x00, 0xf0, 0x04, 0x00, 0x00, 0xbc, 0x04, 0x00, 0x00, 
  0x88, 0x04, 0x00, 0x00, 0x54, 0x04, 0x00, 0x00, 0x20, 0x04, 0x00, 0x00, 
  0xec, 0x03, 0x00, 0x00, 0xb8, 0x03, 0x00, 0x00, 0x90, 0x03, 0x00, 0x00, 
  0x6c, 0x03, 0x00, 0x00, 0x38, 0x03, 0x00, 0x00, 0x14, 0x03, 0x00, 0x00, 
  0xe0, 0x02, 0x00, 0x00, 0xbc, 0x02, 0x00, 0x00, 0x88, 0x02, 0x00, 0x00, 
  0x54, 0x02, 0x00, 0x00, 0x20, 0x02, 0x00, 0x00, 0xec, 0x01, 0x00, 0x00, 
  0xb8, 0x01, 0x00, 0x00, 0x84, 0x01, 0x00, 0x00, 0x5c, 0x01, 0x00, 0x00, 
  0x38, 0x01, 0x00, 0x00, 0xf0, 0x00, 0x00, 0x00, 0xcc, 0x00, 0x00, 0x00, 
  0xa4, 0x00, 0x00, 0x00, 0x70, 0x00, 0x00, 0x00, 0x38, 0x00, 0x00, 0x00, 
  0x04, 0x00, 0x00, 0x00, 0xae, 0xde, 0xff, 0xff, 0x14, 0x00, 0x00, 0x00, 
  0x00, 0x00, 0x00, 0x09, 0x14, 0x00, 0x00, 0x00, 0x18, 0x00, 0x00, 0x00, 
  0x12, 0x00, 0x00, 0x00, 0x3e, 0xde, 0xff, 0xff, 0x00, 0x00, 0x80, 0x3f, 
  0x01, 0x00, 0x00, 0x00, 0xfc, 0x00, 0x00, 0x00, 0x01, 0x00, 0x00, 0x00, 
  0xfb, 0x00, 0x00, 0x00, 0xde, 0xde, 0xff, 0xff, 0x14, 0x00, 0x00, 0x00, 
  0x00, 0x00, 0x00, 0x08, 0x10, 0x00, 0x00, 0x00, 0x14, 0x00, 0x00, 0x00, 
  0x08, 0x00, 0x00, 0x00, 0xa0, 0x3c, 0xff, 0xff, 0x01, 0x00, 0x00, 0x00, 
  0xfb, 0x00, 0x00, 0x00, 0x03, 0x00, 0x00, 0x00, 0xfa, 0x00, 0x00, 0x00, 
  0x22, 0x00, 0x00, 0x00, 0x21, 0x00, 0x00, 0x00, 0x12, 0xdf, 0xff, 0xff, 
  0x14, 0x00, 0x00, 0x00, 0x00, 0x00, 0x00, 0x1b, 0x10, 0x00, 0x00, 0x00, 
  0x14, 0x00, 0x00, 0x00, 0x11, 0x00, 0x00, 0x00, 0xd4, 0x3c, 0xff, 0xff, 
  0x01, 0x00, 0x00, 0x00, 0xfa, 0x00, 0x00, 0x00, 0x02, 0x00, 0x00, 0x00, 
  0xf9, 0x00, 0x00, 0x00, 0x05, 0x00, 0x00, 0x00, 0x02, 0xdf, 0xff, 0xff, 
  0x0c, 0x00, 0x00, 0x00, 0x10, 0x00, 0x00, 0x00, 0x07, 0x00, 0x00, 0x00, 
  0x01, 0x00, 0x00, 0x00, 0xf9, 0x00, 0x00, 0x00, 0x02, 0x00, 0x00, 0x00, 
  0xf8, 0x00, 0x00, 0x00, 0x0b, 0x00, 0x00, 0x00, 0x26, 0xdf, 0xff, 0xff, 
  0x0c, 0x00, 0x00, 0x00, 0x10, 0x00, 0x00, 0x00, 0x10, 0x00, 0x00, 0x00, 
  0x01, 0x00, 0x00, 0x00, 0xf8, 0x00, 0x00, 0x00, 0x01, 0x00, 0x00, 0x00, 
  0xf7, 0x00, 0x00, 0x00, 0x86, 0xdf, 0xff, 0xff, 0x14, 0x00, 0x00, 0x00, 
  0x00, 0x00, 0x00, 0x3b, 0x14, 0x00, 0x00, 0x00, 0x18, 0x00, 0x00, 0x00, 
  0x02, 0x00, 0x00, 0x00, 0x16, 0xdf, 0xff, 0xff, 0x06, 0x00, 0x00, 0x00, 
  0x01, 0x00, 0x00, 0x00, 0xf7, 0x00, 0x00, 0x00, 0x06, 0x00, 0x00, 0x00, 
  0xba, 0x00, 0x00, 0x00, 0xc6, 0x00, 0x00, 0x00, 0xd2, 0x00, 0x00, 0x00, 
  0xde, 0x00, 0x00, 0x00, 0xea, 0x00, 0x00, 0x00, 0xf6, 0x00, 0x00, 0x00, 
  0x8a, 0xdf, 0xff, 0xff, 0x0c, 0x00, 0x00, 0x00, 0x10, 0x00, 0x00, 0x00, 
  0x0f, 0x00, 0x00, 0x00, 0x01, 0x00, 0x00, 0x00, 0xf6, 0x00, 0x00, 0x00, 
  0x01, 0x00, 0x00, 0x00, 0xf5, 0x00, 0x00, 0x00, 0xaa, 0xdf, 0xff, 0xff, 
  0x0c, 0x00, 0x00, 0x00, 0x10, 0x00, 0x00, 0x00, 0x0e, 0x00, 0x00, 0x00, 
  0x01, 0x00, 0x00, 0x00, 0xf5, 0x00, 0x00, 0x00, 0x02, 0x00, 0x00, 0x00, 
  0xf4, 0x00, 0x00, 0x00, 0x2e, 0x00, 0x00, 0x00, 0x0e, 0xe0, 0xff, 0xff, 
  0x14, 0x00, 0x00, 0x00, 0x00, 0x00, 0x00, 0x1c, 0x10, 0x00, 0x00, 0x00, 
  0x14, 0x00, 0x00, 0x00, 0x0b, 0x00, 0x00, 0x00, 0xd0, 0x3d, 0xff, 0xff, 
  0x01, 0x00, 0x00, 0x00, 0xf4, 0x00, 0x00, 0x00, 0x02, 0x00, 0x00, 0x00, 
  0xf3, 0x00, 0x00, 0x00, 0x2a, 0x00, 0x00, 0x00, 0x3e, 0xe0, 0xff, 0xff, 
  0x14, 0x00, 0x00, 0x00, 0x00, 0x00, 0x00, 0x0b, 0x10, 0x00, 0x00, 0x00, 
  0x14, 0x00, 0x00, 0x00, 0x0d, 0x00, 0x00, 0x00, 0x00, 0x3e, 0xff, 0xff, 
  0x01, 0x00, 0x00, 0x00, 0xf3, 0x00, 0x00, 0x00, 0x02, 0x00, 0x00, 0x00, 
  0xf0, 0x00, 0x00, 0x00, 0xf2, 0x00, 0x00, 0x00, 0x6e, 0xe0, 0xff, 0xff, 
  0x14, 0x00, 0x00, 0x00, 0x00, 0x00, 0x00, 0x15, 0x10, 0x00, 0x00, 0x00, 
  0x14, 0x00, 0x00, 0x00, 0x0c, 0x00, 0x00, 0x00, 0x30, 0x3e, 0xff, 0xff, 
  0x01, 0x00, 0x00, 0x00, 0xf2, 0x00, 0x00, 0x00, 0x02, 0x00, 0x00, 0x00, 
  0xf1, 0x00, 0x00, 0x00, 0x2b, 0x00, 0x00, 0x00, 0x9e, 0xe0, 0xff, 0xff, 
  0x14, 0x00, 0x00, 0x00, 0x00, 0x00, 0x00, 0x1c, 0x10, 0x00, 0x00, 0x00, 
  0x14, 0x00, 0x00, 0x00, 0x0b, 0x00, 0x00, 0x00, 0x60, 0x3e, 0xff, 0xff, 
  0x01, 0x00, 0x00, 0x00, 0xf1, 0x00, 0x00, 0x00, 0x02, 0x00, 0x00, 0x00, 
  0xb4, 0x00, 0x00, 0x00, 0xf0, 0x00, 0x00, 0x00, 0xce, 0xe0, 0xff, 0xff, 
  0x14, 0x00, 0x00, 0x00, 0x00, 0x00, 0x00, 0x0b, 0x10, 0x00, 0x00, 0x00, 
  0x14, 0x00, 0x00, 0x00, 0x0d, 0x00, 0x00, 0x00, 0x90, 0x3e, 0xff, 0xff, 
  0x01, 0x00, 0x00, 0x00, 0xf0, 0x00, 0x00, 0x00, 0x02, 0x00, 0x00, 0x00, 
  0xec, 0x00, 0x00, 0x00, 0xef, 0x00, 0x00, 0x00, 0xfe, 0xe0, 0xff, 0xff, 
  0x14, 0x00, 0x00, 0x00, 0x00, 0x00, 0x00, 0x15, 0x10, 0x00, 0x00, 0x00, 
  0x14, 0x00, 0x00, 0x00, 0x0c, 0x00, 0x00, 0x00, 0xc0, 0x3e, 0xff, 0xff, 
  0x01, 0x00, 0x00, 0x00, 0xef, 0x00, 0x00, 0x00, 0x02, 0x00, 0x00, 0x00, 
  0xee, 0x00, 0x00, 0x00, 0xe7, 0x00, 0x00, 0x00, 0xee, 0xe0, 0xff, 0xff, 
  0x0c, 0x00, 0x00, 0x00, 0x10, 0x00, 0x00, 0x00, 0x10, 0x00, 0x00, 0x00, 
  0x01, 0x00, 0x00, 0x00, 0xee, 0x00, 0x00, 0x00, 0x01, 0x00, 0x00, 0x00, 
  0xed, 0x00, 0x00, 0x00, 0x4e, 0xe1, 0xff, 0xff, 0x14, 0x00, 0x00, 0x00, 
  0x00, 0x00, 0x00, 0x1c, 0x10, 0x00, 0x00, 0x00, 0x14, 0x00, 0x00, 0x00, 
  0x0b, 0x00, 0x00, 0x00, 0x10, 0x3f, 0xff, 0xff, 0x01, 0x00, 0x00, 0x00, 
  0xed, 0x00, 0x00, 0x00, 0x02, 0x00, 0x00, 0x00, 0x02, 0x00, 0x00, 0x00, 
  0xea, 0x00, 0x00, 0x00, 0x3e, 0xe1, 0xff, 0xff, 0x0c, 0x00, 0x00, 0x00, 
  0x10, 0x00, 0x00, 0x00, 0x10, 0x00, 0x00, 0x00, 0x01, 0x00, 0x00, 0x00, 
  0xec, 0x00, 0x00, 0x00, 0x01, 0x00, 0x00, 0x00, 0xeb, 0x00, 0x00, 0x00, 
  0x9e, 0xe1, 0xff, 0xff, 0x14, 0x00, 0x00, 0x00, 0x00, 0x00, 0x00, 0x15, 
  0x10, 0x00, 0x00, 0x00, 0x14, 0x00, 0x00, 0x00, 0x0c, 0x00, 0x00, 0x00, 
  0x60, 0x3f, 0xff, 0xff, 0x01, 0x00, 0x00, 0x00, 0xeb, 0x00, 0x00, 0x00, 
  0x02, 0x00, 0x00, 0x00, 0xea, 0x00, 0x00, 0x00, 0x01, 0x00, 0x00, 0x00, 
  0x8e, 0xe1, 0xff, 0xff, 0x0c, 0x00, 0x00, 0x00, 0x10, 0x00, 0x00, 0x00, 
  0x0f, 0x00, 0x00, 0x00, 0x01, 0x00, 0x00, 0x00, 0xea, 0x00, 0x00, 0x00, 
  0x01, 0x00, 0x00, 0x00, 0xe9, 0x00, 0x00, 0x00, 0xae, 0xe1, 0xff, 0xff, 
  0x0c, 0x00, 0x00, 0x00, 0x10, 0x00, 0x00, 0x00, 0x0e, 0x00, 0x00, 0x00, 
  0x01, 0x00, 0x00, 0x00, 0xe9, 0x00, 0x00, 0x00, 0x02, 0x00, 0x00, 0x00, 
  0xe8, 0x00, 0x00, 0x00, 0x2e, 0x00, 0x00, 0x00, 0x12, 0xe2, 0xff, 0xff, 
  0x14, 0x00, 0x00, 0x00, 0x00, 0x00, 0x00, 0x1c, 0x10, 0x00, 0x00, 0x00, 
  0x14, 0x00, 0x00, 0x00, 0x0b, 0x00, 0x00, 0x00, 0xd4, 0x3f, 0xff, 0xff, 
  0x01, 0x00, 0x00, 0x00, 0xe8, 0x00, 0x00, 0x00, 0x02, 0x00, 0x00, 0x00, 
  0xe7, 0x00, 0x00, 0x00, 0x2a, 0x00, 0x00, 0x00, 0x42, 0xe2, 0xff, 0xff, 
  0x14, 0x00, 0x00, 0x00, 0x00, 0x00, 0x00, 0x0b, 0x10, 0x00, 0x00, 0x00, 
  0x14, 0x00, 0x00, 0x00, 0x0d, 0x00, 0x00, 0x00, 0x04, 0x40, 0xff, 0xff, 
  0x01, 0x00, 0x00, 0x00, 0xe7, 0x00, 0x00, 0x00, 0x02, 0x00, 0x00, 0x00, 
  0xe4, 0x00, 0x00, 0x00, 0xe6, 0x00, 0x00, 0x00, 0x72, 0xe2, 0xff, 0xff, 
  0x14, 0x00, 0x00, 0x00, 0x00, 0x00, 0x00, 0x15, 0x10, 0x00, 0x00, 0x00, 
  0x14, 0x00, 0x00, 0x00, 0x0c, 0x00, 0x00, 0x00, 0x34, 0x40, 0xff, 0xff, 
  0x01, 0x00, 0x00, 0x00, 0xe6, 0x00, 0x00, 0x00, 0x02, 0x00, 0x00, 0x00, 
  0xe5, 0x00, 0x00, 0x00, 0x2b, 0x00, 0x00, 0x00, 0xa2, 0xe2, 0xff, 0xff, 
  0x14, 0x00, 0x00, 0x00, 0x00, 0x00, 0x00, 0x1c, 0x10, 0x00, 0x00, 0x00, 
  0x14, 0x00, 0x00, 0x00, 0x0b, 0x00, 0x00, 0x00, 0x64, 0x40, 0xff, 0xff, 
  0x01, 0x00, 0x00, 0x00, 0xe5, 0x00, 0x00, 0x00, 0x02, 0x00, 0x00, 0x00, 
  0xb3, 0x00, 0x00, 0x00, 0xe4, 0x00, 0x00, 0x00, 0xd2, 0xe2, 0xff, 0xff, 
  0x14, 0x00, 0x00, 0x00, 0x00, 0x00, 0x00, 0x0b, 0x10, 0x00, 0x00, 0x00, 
  0x14, 0x00, 0x00, 0x00, 0x0d, 0x00, 0x00, 0x00, 0x94, 0x40, 0xff, 0xff, 
  0x01, 0x00, 0x00, 0x00, 0xe4, 0x00, 0x00, 0x00, 0x02, 0x00, 0x00, 0x00, 
  0xe0, 0x00, 0x00, 0x00, 0xe3, 0x00, 0x00, 0x00, 0x02, 0xe3, 0xff, 0xff, 
  0x14, 0x00, 0x00, 0x00, 0x00, 0x00, 0x00, 0x15, 0x10, 0x00, 0x00, 0x00, 
  0x14, 0x00, 0x00, 0x00, 0x0c, 0x00, 0x00, 0x00, 0xc4, 0x40, 0xff, 0xff, 
  0x01, 0x00, 0x00, 0x00, 0xe3, 0x00, 0x00, 0x00, 0x02, 0x00, 0x00, 0x00, 
  0xe2, 0x00, 0x00, 0x00, 0xdb, 0x00, 0x00, 0x00, 0xf2, 0xe2, 0xff, 0xff, 
  0x0c, 0x00, 0x00, 0x00, 0x10, 0x00, 0x00, 0x00, 0x10, 0x00, 0x00, 0x00, 
  0x01, 0x00, 0x00, 0x00, 0xe2, 0x00, 0x00, 0x00, 0x01, 0x00, 0x00, 0x00, 
  0xe1, 0x00, 0x00, 0x00, 0x52, 0xe3, 0xff, 0xff, 0x14, 0x00, 0x00, 0x00, 
  0x00, 0x00, 0x00, 0x1c, 0x10, 0x00, 0x00, 0x00, 0x14, 0x00, 0x00, 0x00, 
  0x0b, 0x00, 0x00, 0x00, 0x14, 0x41, 0xff, 0xff, 0x01, 0x00, 0x00, 0x00, 
  0xe1, 0x00, 0x00, 0x00, 0x02, 0x00, 0x00, 0x00, 0x02, 0x00, 0x00, 0x00, 
  0xde, 0x00, 0x00, 0x00, 0x42, 0xe3, 0xff, 0xff, 0x0c, 0x00, 0x00, 0x00, 
  0x10, 0x00, 0x00, 0x00, 0x10, 0x00, 0x00, 0x00, 0x01, 0x00, 0x00, 0x00, 
  0xe0, 0x00, 0x00, 0x00, 0x01, 0x00, 0x00, 0x00, 0xdf, 0x00, 0x00, 0x00, 
  0xa2, 0xe3, 0xff, 0xff, 0x14, 0x00, 0x00, 0x00, 0x00, 0x00, 0x00, 0x15, 
  0x10, 0x00, 0x00, 0x00, 0x14, 0x00, 0x00, 0x00, 0x0c, 0x00, 0x00, 0x00, 
  0x64, 0x41, 0xff, 0xff, 0x01, 0x00, 0x00, 0x00, 0xdf, 0x00, 0x00, 0x00, 
  0x02, 0x00, 0x00, 0x00, 0xde, 0x00, 0x00, 0x00, 0x01, 0x00, 0x00, 0x00, 
  0x92, 0xe3, 0xff, 0xff, 0x0c, 0x00, 0x00, 0x00, 0x10, 0x00, 0x00, 0x00, 
  0x0f, 0x00, 0x00, 0x00, 0x01, 0x00, 0x00, 0x00, 0xde, 0x00, 0x00, 0x00, 
  0x01, 0x00, 0x00, 0x00, 0xdd, 0x00, 0x00, 0x00, 0xb2, 0xe3, 0xff, 0xff, 
  0x0c, 0x00, 0x00, 0x00, 0x10, 0x00, 0x00, 0x00, 0x0e, 0x00, 0x00, 0x00, 
  0x01, 0x00, 0x00, 0x00, 0xdd, 0x00, 0x00, 0x00, 0x02, 0x00, 0x00, 0x00, 
  0xdc, 0x00, 0x00, 0x00, 0x2e, 0x00, 0x00, 0x00, 0x16, 0xe4, 0xff, 0xff, 
  0x14, 0x00, 0x00, 0x00, 0x00, 0x00, 0x00, 0x1c, 0x10, 0x00, 0x00, 0x00, 
  0x14, 0x00, 0x00, 0x00, 0x0b, 0x00, 0x00, 0x00, 0xd8, 0x41, 0xff, 0xff, 
  0x01, 0x00, 0x00, 0x00, 0xdc, 0x00, 0x00, 0x00, 0x02, 0x00, 0x00, 0x00, 
  0xdb, 0x00, 0x00, 0x00, 0x2a, 0x00, 0x00, 0x00, 0x46, 0xe4, 0xff, 0xff, 
  0x14, 0x00, 0x00, 0x00, 0x00, 0x00, 0x00, 0x0b, 0x10, 0x00, 0x00, 0x00, 
  0x14, 0x00, 0x00, 0x00, 0x0d, 0x00, 0x00, 0x00, 0x08, 0x42, 0xff, 0xff, 
  0x01, 0x00, 0x00, 0x00, 0xdb, 0x00, 0x00, 0x00, 0x02, 0x00, 0x00, 0x00, 
  0xd8, 0x00, 0x00, 0x00, 0xda, 0x00, 0x00, 0x00, 0x76, 0xe4, 0xff, 0xff, 
  0x14, 0x00, 0x00, 0x00, 0x00, 0x00, 0x00, 0x15, 0x10, 0x00, 0x00, 0x00, 
  0x14, 0x00, 0x00, 0x00, 0x0c, 0x00, 0x00, 0x00, 0x38, 0x42, 0xff, 0xff, 
  0x01, 0x00, 0x00, 0x00, 0xda, 0x00, 0x00, 0x00, 0x02, 0x00, 0x00, 0x00, 
  0xd9, 0x00, 0x00, 0x00, 0x2b, 0x00, 0x00, 0x00, 0xa6, 0xe4, 0xff, 0xff, 
  0x14, 0x00, 0x00, 0x00, 0x00, 0x00, 0x00, 0x1c, 0x10, 0x00, 0x00, 0x00, 
  0x14, 0x00, 0x00, 0x00, 0x0b, 0x00, 0x00, 0x00, 0x68, 0x42, 0xff, 0xff, 
  0x01, 0x00, 0x00, 0x00, 0xd9, 0x00, 0x00, 0x00, 0x02, 0x00, 0x00, 0x00, 
  0xb2, 0x00, 0x00, 0x00, 0xd8, 0x00, 0x00, 0x00, 0xd6, 0xe4, 0xff, 0xff, 
  0x14, 0x00, 0x00, 0x00, 0x00, 0x00, 0x00, 0x0b, 0x10, 0x00, 0x00, 0x00, 
  0x14, 0x00, 0x00, 0x00, 0x0d, 0x00, 0x00, 0x00, 0x98, 0x42, 0xff, 0xff, 
  0x01, 0x00, 0x00, 0x00, 0xd8, 0x00, 0x00, 0x00, 0x02, 0x00, 0x00, 0x00, 
  0xd4, 0x00, 0x00, 0x00, 0xd7, 0x00, 0x00, 0x00, 0x06, 0xe5, 0xff, 0xff, 
  0x14, 0x00, 0x00, 0x00, 0x00, 0x00, 0x00, 0x15, 0x10, 0x00, 0x00, 0x00, 
  0x14, 0x00, 0x00, 0x00, 0x0c, 0x00, 0x00, 0x00, 0xc8, 0x42, 0xff, 0xff, 
  0x01, 0x00, 0x00, 0x00, 0xd7, 0x00, 0x00, 0x00, 0x02, 0x00, 0x00, 0x00, 
  0xd6, 0x00, 0x00, 0x00, 0xcf, 0x00, 0x00, 0x00, 0xf6, 0xe4, 0xff, 0xff, 
  0x0c, 0x00, 0x00, 0x00, 0x10, 0x00, 0x00, 0x00, 0x10, 0x00, 0x00, 0x00, 
  0x01, 0x00, 0x00, 0x00, 0xd6, 0x00, 0x00, 0x00, 0x01, 0x00, 0x00, 0x00, 
  0xd5, 0x00, 0x00, 0x00, 0x56, 0xe5, 0xff, 0xff, 0x14, 0x00, 0x00, 0x00, 
  0x00, 0x00, 0x00, 0x1c, 0x10, 0x00, 0x00, 0x00, 0x14, 0x00, 0x00, 0x00, 
  0x0b, 0x00, 0x00, 0x00, 0x18, 0x43, 0xff, 0xff, 0x01, 0x00, 0x00, 0x00, 
  0xd5, 0x00, 0x00, 0x00, 0x02, 0x00, 0x00, 0x00, 0x02, 0x00, 0x00, 0x00, 
  0xd2, 0x00, 0x00, 0x00, 0x46, 0xe5, 0xff, 0xff, 0x0c, 0x00, 0x00, 0x00, 
  0x10, 0x00, 0x00, 0x00, 0x10, 0x00, 0x00, 0x00, 0x01, 0x00, 0x00, 0x00, 
  0xd4, 0x00, 0x00, 0x00, 0x01, 0x00, 0x00, 0x00, 0xd3, 0x00, 0x00, 0x00, 
  0xa6, 0xe5, 0xff, 0xff, 0x14, 0x00, 0x00, 0x00, 0x00, 0x00, 0x00, 0x15, 
  0x10, 0x00, 0x00, 0x00, 0x14, 0x00, 0x00, 0x00, 0x0c, 0x00, 0x00, 0x00, 
  0x68, 0x43, 0xff, 0xff, 0x01, 0x00, 0x00, 0x00, 0xd3, 0x00, 0x00, 0x00, 
  0x02, 0x00, 0x00, 0x00, 0xd2, 0x00, 0x00, 0x00, 0x01, 0x00, 0x00, 0x00, 
  0x96, 0xe5, 0xff, 0xff, 0x0c, 0x00, 0x00, 0x00, 0x10, 0x00, 0x00, 0x00, 
  0x0f, 0x00, 0x00, 0x00, 0x01, 0x00, 0x00, 0x00, 0xd2, 0x00, 0x00, 0x00, 
  0x01, 0x00, 0x00, 0x00, 0xd1, 0x00, 0x00, 0x00, 0xb6, 0xe5, 0xff, 0xff, 
  0x0c, 0x00, 0x00, 0x00, 0x10, 0x00, 0x00, 0x00, 0x0e, 0x00, 0x00, 0x00, 
  0x01, 0x00, 0x00, 0x00, 0xd1, 0x00, 0x00, 0x00, 0x02, 0x00, 0x00, 0x00, 
  0xd0, 0x00, 0x00, 0x00, 0x2e, 0x00, 0x00, 0x00, 0x1a, 0xe6, 0xff, 0xff, 
  0x14, 0x00, 0x00, 0x00, 0x00, 0x00, 0x00, 0x1c, 0x10, 0x00, 0x00, 0x00, 
  0x14, 0x00, 0x00, 0x00, 0x0b, 0x00, 0x00, 0x00, 0xdc, 0x43, 0xff, 0xff, 
  0x01, 0x00, 0x00, 0x00, 0xd0, 0x00, 0x00, 0x00, 0x02, 0x00, 0x00, 0x00, 
  0xcf, 0x00, 0x00, 0x00, 0x2a, 0x00, 0x00, 0x00, 0x4a, 0xe6, 0xff, 0xff, 
  0x14, 0x00, 0x00, 0x00, 0x00, 0x00, 0x00, 0x0b, 0x10, 0x00, 0x00, 0x00, 
  0x14, 0x00, 0x00, 0x00, 0x0d, 0x00, 0x00, 0x00, 0x0c, 0x44, 0xff, 0xff, 
  0x01, 0x00, 0x00, 0x00, 0xcf, 0x00, 0x00, 0x00, 0x02, 0x00, 0x00, 0x00, 
  0xcc, 0x00, 0x00, 0x00, 0xce, 0x00, 0x00, 0x00, 0x7a, 0xe6, 0xff, 0xff, 
  0x14, 0x00, 0x00, 0x00, 0x00, 0x00, 0x00, 0x15, 0x10, 0x00, 0x00, 0x00, 
  0x14, 0x00, 0x00, 0x00, 0x0c, 0x00, 0x00, 0x00, 0x3c, 0x44, 0xff, 0xff, 
  0x01, 0x00, 0x00, 0x00, 0xce, 0x00, 0x00, 0x00, 0x02, 0x00, 0x00, 0x00, 
  0xcd, 0x00, 0x00, 0x00, 0x2b, 0x00, 0x00, 0x00, 0xaa, 0xe6, 0xff, 0xff, 
  0x14, 0x00, 0x00, 0x00, 0x00, 0x00, 0x00, 0x1c, 0x10, 0x00, 0x00, 0x00, 
  0x14, 0x00, 0x00, 0x00, 0x0b, 0x00, 0x00, 0x00, 0x6c, 0x44, 0xff, 0xff, 
  0x01, 0x00, 0x00, 0x00, 0xcd, 0x00, 0x00, 0x00, 0x02, 0x00, 0x00, 0x00, 
  0xb1, 0x00, 0x00, 0x00, 0xcc, 0x00, 0x00, 0x00, 0xda, 0xe6, 0xff, 0xff, 
  0x14, 0x00, 0x00, 0x00, 0x00, 0x00, 0x00, 0x0b, 0x10, 0x00, 0x00, 0x00, 
  0x14, 0x00, 0x00, 0x00, 0x0d, 0x00, 0x00, 0x00, 0x9c, 0x44, 0xff, 0xff, 
  0x01, 0x00, 0x00, 0x00, 0xcc, 0x00, 0x00, 0x00, 0x02, 0x00, 0x00, 0x00, 
  0xc8, 0x00, 0x00, 0x00, 0xcb, 0x00, 0x00, 0x00, 0x0a, 0xe7, 0xff, 0xff, 
  0x14, 0x00, 0x00, 0x00, 0x00, 0x00, 0x00, 0x15, 0x10, 0x00, 0x00, 0x00, 
  0x14, 0x00, 0x00, 0x00, 0x0c, 0x00, 0x00, 0x00, 0xcc, 0x44, 0xff, 0xff, 
  0x01, 0x00, 0x00, 0x00, 0xcb, 0x00, 0x00, 0x00, 0x02, 0x00, 0x00, 0x00, 
  0xca, 0x00, 0x00, 0x00, 0xc3, 0x00, 0x00, 0x00, 0xfa, 0xe6, 0xff, 0xff, 
  0x0c, 0x00, 0x00, 0x00, 0x10, 0x00, 0x00, 0x00, 0x10, 0x00, 0x00, 0x00, 
  0x01, 0x00, 0x00, 0x00, 0xca, 0x00, 0x00, 0x00, 0x01, 0x00, 0x00, 0x00, 
  0xc9, 0x00, 0x00, 0x00, 0x5a, 0xe7, 0xff, 0xff, 0x14, 0x00, 0x00, 0x00, 
  0x00, 0x00, 0x00, 0x1c, 0x10, 0x00, 0x00, 0x00, 0x14, 0x00, 0x00, 0x00, 
  0x0b, 0x00, 0x00, 0x00, 0x1c, 0x45, 0xff, 0xff, 0x01, 0x00, 0x00, 0x00, 
  0xc9, 0x00, 0x00, 0x00, 0x02, 0x00, 0x00, 0x00, 0x02, 0x00, 0x00, 0x00, 
  0xc6, 0x00, 0x00, 0x00, 0x4a, 0xe7, 0xff, 0xff, 0x0c, 0x00, 0x00, 0x00, 
  0x10, 0x00, 0x00, 0x00, 0x10, 0x00, 0x00, 0x00, 0x01, 0x00, 0x00, 0x00, 
  0xc8, 0x00, 0x00, 0x00, 0x01, 0x00, 0x00, 0x00, 0xc7, 0x00, 0x00, 0x00, 
  0xaa, 0xe7, 0xff, 0xff, 0x14, 0x00, 0x00, 0x00, 0x00, 0x00, 0x00, 0x15, 
  0x10, 0x00, 0x00, 0x00, 0x14, 0x00, 0x00, 0x00, 0x0c, 0x00, 0x00, 0x00, 
  0x6c, 0x45, 0xff, 0xff, 0x01, 0x00, 0x00, 0x00, 0xc7, 0x00, 0x00, 0x00, 
  0x02, 0x00, 0x00, 0x00, 0xc6, 0x00, 0x00, 0x00, 0x01, 0x00, 0x00, 0x00, 
  0x9a, 0xe7, 0xff, 0xff, 0x0c, 0x00, 0x00, 0x00, 0x10, 0x00, 0x00, 0x00, 
  0x0f, 0x00, 0x00, 0x00, 0x01, 0x00, 0x00, 0x00, 0xc6, 0x00, 0x00, 0x00, 
  0x01, 0x00, 0x00, 0x00, 0xc5, 0x00, 0x00, 0x00, 0xba, 0xe7, 0xff, 0xff, 
  0x0c, 0x00, 0x00, 0x00, 0x10, 0x00, 0x00, 0x00, 0x0e, 0x00, 0x00, 0x00, 
  0x01, 0x00, 0x00, 0x00, 0xc5, 0x00, 0x00, 0x00, 0x02, 0x00, 0x00, 0x00, 
  0xc4, 0x00, 0x00, 0x00, 0x2e, 0x00, 0x00, 0x00, 0x1e, 0xe8, 0xff, 0xff, 
  0x14, 0x00, 0x00, 0x00, 0x00, 0x00, 0x00, 0x1c, 0x10, 0x00, 0x00, 0x00, 
  0x14, 0x00, 0x00, 0x00, 0x0b, 0x00, 0x00, 0x00, 0xe0, 0x45, 0xff, 0xff, 
  0x01, 0x00, 0x00, 0x00, 0xc4, 0x00, 0x00, 0x00, 0x02, 0x00, 0x00, 0x00, 
  0xc3, 0x00, 0x00, 0x00, 0x2a, 0x00, 0x00, 0x00, 0x4e, 0xe8, 0xff, 0xff, 
  0x14, 0x00, 0x00, 0x00, 0x00, 0x00, 0x00, 0x0b, 0x10, 0x00, 0x00, 0x00, 
  0x14, 0x00, 0x00, 0x00, 0x0d, 0x00, 0x00, 0x00, 0x10, 0x46, 0xff, 0xff, 
  0x01, 0x00, 0x00, 0x00, 0xc3, 0x00, 0x00, 0x00, 0x02, 0x00, 0x00, 0x00, 
  0xc0, 0x00, 0x00, 0x00, 0xc2, 0x00, 0x00, 0x00, 0x7e, 0xe8, 0xff, 0xff, 
  0x14, 0x00, 0x00, 0x00, 0x00, 0x00, 0x00, 0x15, 0x10, 0x00, 0x00, 0x00, 
  0x14, 0x00, 0x00, 0x00, 0x0c, 0x00, 0x00, 0x00, 0x40, 0x46, 0xff, 0xff, 
  0x01, 0x00, 0x00, 0x00, 0xc2, 0x00, 0x00, 0x00, 0x02, 0x00, 0x00, 0x00, 
  0xc1, 0x00, 0x00, 0x00, 0x2b, 0x00, 0x00, 0x00, 0xae, 0xe8, 0xff, 0xff, 
  0x14, 0x00, 0x00, 0x00, 0x00, 0x00, 0x00, 0x1c, 0x10, 0x00, 0x00, 0x00, 
  0x14, 0x00, 0x00, 0x00, 0x0b, 0x00, 0x00, 0x00, 0x70, 0x46, 0xff, 0xff, 
  0x01, 0x00, 0x00, 0x00, 0xc1, 0x00, 0x00, 0x00, 0x02, 0x00, 0x00, 0x00, 
  0xb0, 0x00, 0x00, 0x00, 0xc0, 0x00, 0x00, 0x00, 0xde, 0xe8, 0xff, 0xff, 
  0x14, 0x00, 0x00, 0x00, 0x00, 0x00, 0x00, 0x0b, 0x10, 0x00, 0x00, 0x00, 
  0x14, 0x00, 0x00, 0x00, 0x0d, 0x00, 0x00, 0x00, 0xa0, 0x46, 0xff, 0xff, 
  0x01, 0x00, 0x00, 0x00, 0xc0, 0x00, 0x00, 0x00, 0x02, 0x00, 0x00, 0x00, 
  0xbc, 0x00, 0x00, 0x00, 0xbf, 0x00, 0x00, 0x00, 0x0e, 0xe9, 0xff, 0xff, 
  0x14, 0x00, 0x00, 0x00, 0x00, 0x00, 0x00, 0x15, 0x10, 0x00, 0x00, 0x00, 
  0x14, 0x00, 0x00, 0x00, 0x0c, 0x00, 0x00, 0x00, 0xd0, 0x46, 0xff, 0xff, 
  0x01, 0x00, 0x00, 0x00, 0xbf, 0x00, 0x00, 0x00, 0x02, 0x00, 0x00, 0x00, 
  0xbe, 0x00, 0x00, 0x00, 0xb7, 0x00, 0x00, 0x00, 0xfe, 0xe8, 0xff, 0xff, 
  0x0c, 0x00, 0x00, 0x00, 0x10, 0x00, 0x00, 0x00, 0x10, 0x00, 0x00, 0x00, 
  0x01, 0x00, 0x00, 0x00, 0xbe, 0x00, 0x00, 0x00, 0x01, 0x00, 0x00, 0x00, 
  0xbd, 0x00, 0x00, 0x00, 0x5e, 0xe9, 0xff, 0xff, 0x14, 0x00, 0x00, 0x00, 
  0x00, 0x00, 0x00, 0x1c, 0x10, 0x00, 0x00, 0x00, 0x14, 0x00, 0x00, 0x00, 
  0x0b, 0x00, 0x00, 0x00, 0x20, 0x47, 0xff, 0xff, 0x01, 0x00, 0x00, 0x00, 
  0xbd, 0x00, 0x00, 0x00, 0x02, 0x00, 0x00, 0x00, 0x02, 0x00, 0x00, 0x00, 
  0xba, 0x00, 0x00, 0x00, 0x4e, 0xe9, 0xff, 0xff, 0x0c, 0x00, 0x00, 0x00, 
  0x10, 0x00, 0x00, 0x00, 0x10, 0x00, 0x00, 0x00, 0x01, 0x00, 0x00, 0x00, 
  0xbc, 0x00, 0x00, 0x00, 0x01, 0x00, 0x00, 0x00, 0xbb, 0x00, 0x00, 0x00, 
  0xae, 0xe9, 0xff, 0xff, 0x14, 0x00, 0x00, 0x00, 0x00, 0x00, 0x00, 0x15, 
  0x10, 0x00, 0x00, 0x00, 0x14, 0x00, 0x00, 0x00, 0x0c, 0x00, 0x00, 0x00, 
  0x70, 0x47, 0xff, 0xff, 0x01, 0x00, 0x00, 0x00, 0xbb, 0x00, 0x00, 0x00, 
  0x02, 0x00, 0x00, 0x00, 0xba, 0x00, 0x00, 0x00, 0x01, 0x00, 0x00, 0x00, 
  0x9e, 0xe9, 0xff, 0xff, 0x0c, 0x00, 0x00, 0x00, 0x10, 0x00, 0x00, 0x00, 
  0x0f, 0x00, 0x00, 0x00, 0x01, 0x00, 0x00, 0x00, 0xba, 0x00, 0x00, 0x00, 
  0x01, 0x00, 0x00, 0x00, 0xb9, 0x00, 0x00, 0x00, 0xbe, 0xe9, 0xff, 0xff, 
  0x0c, 0x00, 0x00, 0x00, 0x10, 0x00, 0x00, 0x00, 0x0e, 0x00, 0x00, 0x00, 
  0x01, 0x00, 0x00, 0x00, 0xb9, 0x00, 0x00, 0x00, 0x02, 0x00, 0x00, 0x00, 
  0xb8, 0x00, 0x00, 0x00, 0x2e, 0x00, 0x00, 0x00, 0x22, 0xea, 0xff, 0xff, 
  0x14, 0x00, 0x00, 0x00, 0x00, 0x00, 0x00, 0x1c, 0x10, 0x00, 0x00, 0x00, 
  0x14, 0x00, 0x00, 0x00, 0x0b, 0x00, 0x00, 0x00, 0xe4, 0x47, 0xff, 0xff, 
  0x01, 0x00, 0x00, 0x00, 0xb8, 0x00, 0x00, 0x00, 0x02, 0x00, 0x00, 0x00, 
  0xb7, 0x00, 0x00, 0x00, 0x2a, 0x00, 0x00, 0x00, 0x52, 0xea, 0xff, 0xff, 
  0x14, 0x00, 0x00, 0x00, 0x00, 0x00, 0x00, 0x0b, 0x10, 0x00, 0x00, 0x00, 
  0x14, 0x00, 0x00, 0x00, 0x0d, 0x00, 0x00, 0x00, 0x14, 0x48, 0xff, 0xff, 
  0x01, 0x00, 0x00, 0x00, 0xb7, 0x00, 0x00, 0x00, 0x02, 0x00, 0x00, 0x00, 
  0xae, 0x00, 0x00, 0x00, 0xb6, 0x00, 0x00, 0x00, 0x82, 0xea, 0xff, 0xff, 
  0x14, 0x00, 0x00, 0x00, 0x00, 0x00, 0x00, 0x15, 0x10, 0x00, 0x00, 0x00, 
  0x14, 0x00, 0x00, 0x00, 0x0c, 0x00, 0x00, 0x00, 0x44, 0x48, 0xff, 0xff, 
  0x01, 0x00, 0x00, 0x00, 0xb6, 0x00, 0x00, 0x00, 0x02, 0x00, 0x00, 0x00, 
  0xb5, 0x00, 0x00, 0x00, 0x2b, 0x00, 0x00, 0x00, 0xb2, 0xea, 0xff, 0xff, 
  0x14, 0x00, 0x00, 0x00, 0x00, 0x00, 0x00, 0x1c, 0x10, 0x00, 0x00, 0x00, 
  0x14, 0x00, 0x00, 0x00, 0x0b, 0x00, 0x00, 0x00, 0x74, 0x48, 0xff, 0xff, 
  0x01, 0x00, 0x00, 0x00, 0xb5, 0x00, 0x00, 0x00, 0x02, 0x00, 0x00, 0x00, 
  0xaf, 0x00, 0x00, 0x00, 0xae, 0x00, 0x00, 0x00, 0xe2, 0xea, 0xff, 0xff, 
  0x14, 0x00, 0x00, 0x00, 0x00, 0x00, 0x00, 0x40, 0x14, 0x00, 0x00, 0x00, 
  0x2c, 0x00, 0x00, 0x00, 0x0a, 0x00, 0x00, 0x00, 0x72, 0xea, 0xff, 0xff, 
  0x06, 0x00, 0x00, 0x00, 0x06, 0x00, 0x00, 0x00, 0xaf, 0x00, 0x00, 0x00, 
